<unk>	0
<s>	0
</s>	0
ို	-0
င်	-1
▁တ	-2
▁က	-3
▁မ	-4
▁ပ	-5
ော	-6
▁လ	-7
▁အ	-8
▁သ	-9
က်	-10
ား	-11
▁ရ	-12
▁န	-13
န်	-14
ယ်	-15
င်း	-16
ည်	-17
▁ခ	-18
▁။	-19
ေး	-20
စ်	-21
ဲ့	-22
▁ပါ	-23
▁ပြ	-24
▁ကို	-25
တ်	-26
▁စ	-27
▁မှ	-28
ို့	-29
ီး	-30
▁ဖ	-31
ပ်	-32
▁တယ်	-33
▁ဘ	-34
▁ကြ	-35
▁တွ	-36
▁ထ	-37
▁ဆ	-38
▁နေ	-39
့်	-40
▁သည်	-41
ော်	-42
ောက်	-43
ုံ	-44
ိုင်	-45
မ်	-46
ောင်	-47
▁တွေ	-48
န်း	-49
▁တာ	-50
▁မျ	-51
ိုး	-52
▁မှာ	-53
ည်း	-54
▁ရှ	-55
▁ဖြ	-56
ိုက်	-57
▁ကျ	-58
ောင်း	-59
ူး	-60
▁ချ	-61
မ်း	-62
▁ဟ	-63
ကြ	-64
ုပ်	-65
ေါ	-66
▁ဒ	-67
▁၊	-68
ုံး	-69
ော့	-70
▁များ	-71
▁တဲ့	-72
▁ဖြစ်	-73
▁သူ	-74
ချ	-75
▁နှ	-76
▁တော့	-77
▁ပြီး	-78
▁မြ	-79
▁တစ်	-80
င့်	-81
▁ရှိ	-82
ိုင်း	-83
▁နဲ့	-84
▁နိုင်	-85
င့်	-86
ပြ	-87
▁လို့	-88
▁ဝ	-89
▁တို့	-90
ုတ်	-91
ွား	-92
▁အမ	-93
▁ခဲ့	-94
ွန်	-95
ရာ	-96
▁လည်း	-97
တော်	-98
▁ဘူး	-99
▁ပဲ	-100
ွက်	-101
▁ယ	-102
▁ဆို	-103
▁အရ	-104
▁လိုက်	-105
▁လာ	-106
▁ပေး	-107
▁အတ	-108
▁သွား	-109
▁၏	-110
▁င	-111
ကျ	-112
▁အား	-113
ွဲ	-114
ည့်	-115
ဦး	-116
▁ပြော	-117
ရှ	-118
▁သော	-119
ကြီး	-120
▁ပေါ	-121
▁ရင်	-122
▁မယ်	-123
ိတ်	-124
လေး	-125
ေ့	-126
▁လား	-127
စား	-128
▁လုပ်	-129
..	-130
▁ကျွန်	-131
▁သိ	-132
▁ဒီ	-133
▁ဦး	-134
▁ထား	-135
▁အသ	-136
မာ	-137
▁ဘယ်	-138
▁တွင်	-139
▁လူ	-140
▁နှင့်	-141
မြ	-142
▁အခ	-143
▁ရေး	-144
▁လေး	-145
ွေး	-146
ဗျ	-147
▁လေ	-148
▁မှု	-149
▁မိ	-150
▁ခြ	-151
ဖြ	-152
▁ဘာ	-153
ွှ	-154
▁ရဲ့	-155
▁လဲ	-156
ွာ	-157
ဉ်	-158
▁လို	-159
လို	-160
▁ခု	-161
▁ပြီ	-162
▁(	-163
▁ဟုတ်	-164
▁)	-165
▁ကောင်း	-166
ိမ်	-167
▁ချင်	-168
▁၁	-169
▁နှစ်	-170
▁သာ	-171
▁အောင်	-172
▁လက်	-173
နှ	-174
ိန်	-175
▁ကျွန်တော်	-176
ုန်း	-177
▁လျ	-178
သား	-179
▁လှ	-180
▁ဟာ	-181
ေါ်	-182
▁မြန်	-183
▁ပြန်	-184
▁ဂ	-185
ငံ	-186
စေ	-187
▁ချစ်	-188
▁နိုင်ငံ	-189
▁အလ	-190
ွယ်	-191
▁ဖို့	-192
ပေး	-193
ွေ	-194
▁သို့	-195
▁ကြီး	-196
▁အန	-197
မှ	-198
▁စာ	-199
▁အတွက်	-200
▁ည	-201
လုံး	-202
ုန်	-203
င်္	-204
▁ခြင်း	-205
▁မြန်မာ	-206
▁ပါစေ	-207
သူ	-208
▁ရာ	-209
▁၂	-210
လာ	-211
▁နော်	-212
▁ဒါ	-213
▁၍	-214
▁စိတ်	-215
▁ထဲ	-216
▁ပြည်	-217
▁ကိုယ်	-218
ွင်း	-219
▁ရေ	-220
▁အချ	-221
▁အစ	-222
သာ	-223
▁ခင်	-224
▁မင်း	-225
▁အရမ်း	-226
ဆုံး	-227
▁ယောက်	-228
▁..	-229
▁ရန်	-230
▁ပျ	-231
ါး	-232
ကား	-233
▁အားပေး	-234
ဗျာ	-235
ရား	-236
ိပ်	-237
▁ပေါ့	-238
▁မည်	-239
▁ဗ	-240
▁-	-241
▁နောက်	-242
▁အက	-243
ောင့်	-244
ခံ	-245
▁ကြည့်	-246
▁စေ	-247
▁ကာ	-248
▁လျှ	-249
▁အထ	-250
▁အကြ	-251
္တ	-252
▁သမ	-253
▁တောင်	-254
င်္ဂ	-255
လဲ	-256
▁သေး	-257
ွန်း	-258
နာ	-259
ျိုး	-260
▁...	-261
ဒီ	-262
▁သူ့	-263
▁အဆ	-264
စိုင်း	-265
▁မြို့	-266
စ္	-267
▁ခံ	-268
▁အမြ	-269
▁တိုင်း	-270
▁ရောက်	-271
▁အဖ	-272
တင်	-273
▁တွေ့	-274
စု	-275
လား	-276
န့်	-277
▁ငါ	-278
▁မျိုး	-279
ဆောင်	-280
▁ဟု	-281
ခြ	-282
▁သတ	-283
ညာ	-284
ည့်	-285
▁ကလေး	-286
ွဲ့	-287
က္	-288
ပွဲ	-289
▁ချက်	-290
▁ပေါ်	-291
၀၀	-292
ရှိ	-293
ဝင်	-294
▁နေ့	-295
လ်	-296
▁အပြ	-297
▁အပ	-298
ွတ်	-299
စ္စ	-300
▁စစ်	-301
တာ	-302
▁အဲ	-303
ယူ	-304
▁ရက်	-305
သမ	-306
▁စရာ	-307
ယ့်	-308
ချင်း	-309
ျား	-310
ဏ်	-311
▁မျက်	-312
▁တတ်	-313
▁ယူ	-314
▁ကြောင်း	-315
▁ပေ	-316
နေ	-317
▁ပုံ	-318
▁အိမ်	-319
▁ပင်	-320
▁သား	-321
▁နာ	-322
▁လောက်	-323
▁ဇ	-324
▁သုံး	-325
ေါင်း	-326
▁စား	-327
မ္	-328
▁စွာ	-329
▁ဝင်	-330
ောင့်	-331
▁ရယ်	-332
ိမ်း	-333
▁နည်း	-334
ဘာ	-335
▁ကျေး	-336
▁သေ	-337
▁ဆရာ	-338
ွင့်	-339
▁အမှ	-340
▁၌	-341
▁စကား	-342
▁ကြိုက်	-343
▁ပို	-344
▁တင်	-345
▁လုံး	-346
ရှင်	-347
ကောင်း	-348
▁ထွက်	-349
င်္ဂလာ	-350
ရိ	-351
▁နေရာ	-352
▁😍	-353
▁မင်္ဂလာ	-354
▁ကား	-355
▁ငွေ	-356
▁ဥ	-357
▁ရော	-358
လှ	-359
▁ထို	-360
ထား	-361
▁နား	-362
▁အခု	-363
ရီ	-364
▁အာ	-365
▁ပြု	-366
▁ဗျာ	-367
ငယ်	-368
▁အချိန်	-369
▁ဆက်	-370
ယာ	-371
စာ	-372
▁😂	-373
ံ့	-374
▁သည့်	-375
နယ်	-376
▁ဘု	-377
ဓု	-378
ကို	-379
ပါ	-380
▁ထိ	-381
▁ခေါ်	-382
▁သည့်	-383
မင်း	-384
▁ဆိုင်	-385
▁ခင်ဗျ	-386
ိုးရ	-387
▁၃	-388
▁လမ်း	-389
▁ထက်	-390
▁မမ	-391
▁တိုက်	-392
▁သာဓု	-393
စဉ်	-394
▁ထင်	-395
▁တော်	-396
ချုပ်	-397
▁ဝယ်	-398
▁ဘယ်လို	-399
တီ	-400
▁အခြ	-401
လည်	-402
ဇူး	-403
▁အသင်း	-404
တိ	-405
▁အဲ့	-406
▁ကျေးဇူး	-407
ာတ်	-408
▁ဘက်	-409
▁အမြဲ	-410
▁ပျော်	-411
▁ထုတ်	-412
ေမ	-413
ျှ	-414
▁အဖြ	-415
▁တရား	-416
▁😘	-417
▁ဝန်	-418
▁သက်	-419
မြင်	-420
▁အတွင်း	-421
▁အလုပ်	-422
▁သီ	-423
▁ကိုစိုင်း	-424
▁အားလုံး	-425
▁ပွဲ	-426
▁လျှင်	-427
ကာ	-428
ဘော	-429
ကြား	-430
ွမ်း	-431
နက်	-432
▁အဲဒီ	-433
▁ခင်ဗျား	-434
▁ကျောင်း	-435
▁အမေ	-436
ဆို	-437
န့်	-438
▁ရွှ	-439
ဒါ	-440
▁ကောင်	-441
▁လွှ	-442
ကယ်	-443
▁လျက်	-444
▁ပု	-445
ပြု	-446
ရောက်	-447
ိုလ်	-448
▁မူ	-449
▁ရပ်	-450
ဝန်	-451
န္	-452
▁မြင်	-453
သက်	-454
▁ကွာ	-455
▁ဆောင်	-456
▁ကြောင့်	-457
ခင်	-458
▁ညီ	-459
ရင်း	-460
▁ကုန်	-461
ရွက်	-462
နှစ်	-463
လောက်	-464
▁ပညာ	-465
▁အမျိုး	-466
ေသ	-467
▁မလဲ	-468
▁အဖွဲ့	-469
▁စု	-470
ခါ	-471
▁လေ့	-472
▁ဖြင့်	-473
▁ပြည်သူ	-474
▁ကြား	-475
▁ရင်း	-476
ရေး	-477
▁တက်	-478
▁ခရ	-479
မိ	-480
▁ကစား	-481
▁ဆေး	-482
ော်လ	-483
မှတ်	-484
▁အကြောင်း	-485
▁တပ်	-486
▁သလို	-487
▁စိုင်း	-488
တမ်း	-489
▁ပတ်	-490
▁စီး	-491
▁မေး	-492
ရွှ	-493
▁မျှ	-494
▁ဆု	-495
▁ဆီ	-496
က္ခ	-497
သမား	-498
▁မှန်	-499
ရင်	-500
တ္တ	-501
နည်း	-502
▁ဓ	-503
▁အဖြစ်	-504
ွင့်	-505
ထောင်	-506
ေါက်	-507
▁အများ	-508
ညီ	-509
▁၄	-510
တော	-511
▁အစိုးရ	-512
ဉ်း	-513
ပင်	-514
ခြား	-515
▁ရဲ	-516
▁၅	-517
လက်	-518
▁တိုး	-519
တန်း	-520
▁သင်	-521
တိုး	-522
ဆိုင်	-523
▁သဘော	-524
▁ကြိုး	-525
သတ်	-526
နေ့	-527
ပါး	-528
ဌာ	-529
▁စီ	-530
▁ရှင်	-531
▁အောင်မြင်	-532
ိမ	-533
▁ဘဲ	-534
နီ	-535
▁ဒေါ်	-536
▁ကမ္	-537
▁ကု	-538
▁၂၀	-539
▁သတင်း	-540
▁အောက်	-541
က္က	-542
ပျ	-543
▁ဘဝ	-544
တူ	-545
မျိုး	-546
လုပ်	-547
▁ကြည့်	-548
ကုန်	-549
▁အသက်	-550
နှာ	-551
▁အနေ	-552
ွေ့	-553
▁ရွှေ	-554
▁ကျော်	-555
▁ဂျ	-556
▁ဖူး	-557
ွင်	-558
▁ပေါင်း	-559
▁အေး	-560
▁မြေ	-561
▁ကြာ	-562
▁ပြိုင်	-563
နစ်	-564
▁ဆောင်ရွက်	-565
▁မှတ်	-566
▁အင်	-567
▁မောင်	-568
▁မီး	-569
▁ပြင်	-570
ဒေ	-571
မြတ်	-572
▁တူ	-573
ပြင်	-574
▁ဖြင့်	-575
▁ပြောင်း	-576
ရပ်	-577
▁😁	-578
▁မျက်နှာ	-579
ပြည်	-580
ပေမ	-581
ငန်း	-582
▁ခင်ဗျာ	-583
▁ဗျ	-584
▁ဘုရား	-585
▁မလား	-586
ခန်း	-587
▁တကယ်	-588
▁မိုက်	-589
▁ကမ္ဘာ	-590
▁ဥပ	-591
▁အခြေ	-592
န္ဒ	-593
▁လုပ်ငန်း	-594
▁အရေး	-595
▁တည်	-596
ကွက်	-597
▁ကြောင့်	-598
ပုံ	-599
န္တ	-600
▁တုန်း	-601
▁ကျန်း	-602
▁ဒု	-603
▁ချော	-604
▁ခေါင်း	-605
ဝါ	-606
ကျော်	-607
တက်	-608
▁ကျန်းမာ	-609
▁ခုနှစ်	-610
ရှား	-611
▁ဒေသ	-612
▁ဒါပေမ	-613
▁ရှင့်	-614
▁သံ	-615
ကန်	-616
▁ပန်း	-617
▁ဝမ်း	-618
ိန်း	-619
စုံ	-620
ဈေး	-621
▁အကျ	-622
စီ	-623
လီ	-624
▁သမီး	-625
▁သတ်	-626
▁ရုပ်	-627
▁သင့်	-628
ိမ့်	-629
ဒ်	-630
▁ထပ်	-631
ပွား	-632
သည်	-633
▁သီချင်း	-634
▁ဈေး	-635
▁ဘယ်လောက်	-636
တော့်	-637
ရေ	-638
ဖြင့်	-639
▁အထိ	-640
▁နံ	-641
▁ရှာ	-642
ခု	-643
▁တည်း	-644
▁ကျွန်တော့်	-645
နား	-646
▁အရှ	-647
▁ပိုင်း	-648
ယား	-649
ကဲ့	-650
တိုင်	-651
▁လျှောက်	-652
▁တံ	-653
အောင်	-654
အုပ်	-655
▁ဆုံး	-656
စီး	-657
ဌာန	-658
ခိုင်	-659
▁တာဝန်	-660
▁ငြ	-661
▁အစ်	-662
▁သိပ်	-663
▁သစ်	-664
▁အိပ်	-665
▁ရွာ	-666
▁ချိန်	-667
ရဲ	-668
အား	-669
ဓိ	-670
ဆေး	-671
▁ဘာသာ	-672
▁မိန်း	-673
▁ဒီလို	-674
သီ	-675
▁အတိုင်း	-676
▁မယ့်	-677
▁ကိုယ့်	-678
▁ပေါက်	-679
▁အခါ	-680
ချာ	-681
▁ရန်ကုန်	-682
▁ရှေ့	-683
▁တောင်း	-684
▁ပြိုင်ပွဲ	-685
ဆင်	-686
စည်း	-687
▁ဖြေ	-688
▁မိမိ	-689
▁မက	-690
အပ်	-691
▁ပစ်	-692
▁ဖုန်း	-693
▁ဤ	-694
ဂါ	-695
▁ပိုင်	-696
ရည်	-697
▁ကစ်	-698
▁မွေး	-699
▁ရရှိ	-700
▁ကြိုးစား	-701
▁၆	-702
ရုံ	-703
ဂျ	-704
▁အုပ်	-705
▁အဘ	-706
▁ဥပဒေ	-707
ကြည်	-708
▁သောက်	-709
မှူး	-710
▁ပို့	-711
ကွယ်	-712
ဖက်	-713
▁မေ	-714
▁၁၉	-715
▁ကိ	-716
ပြေ	-717
▁ငါ့	-718
▁မိုး	-719
▁ဘယ်သူ	-720
မီ	-721
▁:	-722
▁ဝတ်	-723
▁သတိ	-724
▁ပထ	-725
ရွှင်	-726
▁ဟုတ်ကဲ့	-727
ဆက်	-728
▁ဧ	-729
▁ခေ	-730
လွှ	-731
▁ပစ္စ	-732
စပ်	-733
▁နာရီ	-734
▁ကျွန်မ	-735
er	-736
▁လွတ်	-737
▁အဆင်	-738
မည်	-739
ရုတ်	-740
▁သလဲ	-741
▁ဝေ	-742
▁ပါဝင်	-743
ော်လည်း	-744
▁ရိုက်	-745
င်းပ	-746
▁တန်	-747
▁ဟို	-748
▁၂၀၁	-749
▁👍	-750
▁ငါး	-751
ဆံ	-752
▁အပေါ်	-753
အခါ	-754
▁အသုံး	-755
▁ဘေး	-756
ထု	-757
ပိုင်	-758
▁ပရိ	-759
▁ဖော်	-760
ုဏ်	-761
▁အဓိ	-762
ဟာ	-763
ပ္	-764
▁ဒါပေမဲ့	-765
▁ရောင်း	-766
▁ခွဲ	-767
▁နာမည်	-768
▁ကွ	-769
နောက်	-770
▁ထောက်	-771
▁ဇာတ်	-772
စက်	-773
▁ငယ်	-774
▁မယ့်	-775
▁ရှင်း	-776
ျက်	-777
▁ပါ့	-778
▁အသံ	-779
▁ကိုကြီး	-780
▁လေးစား	-781
▁ခါ	-782
▁နှင့်	-783
▁ခေတ်	-784
သမီး	-785
သီး	-786
▁ဆင်း	-787
စင်	-788
လပ်	-789
အေး	-790
ဖြင့်	-791
▁ကံ	-792
▁ကျေးဇူးတင်	-793
ဖြူ	-794
▁အပြင်	-795
▁တရုတ်	-796
▁စာအုပ်	-797
ချက်	-798
▁ပထမ	-799
▁ခြေ	-800
ကျင်	-801
▁သလား	-802
စစ်	-803
▁ပျော်ရွှင်	-804
▁ယခု	-805
▁အရာ	-806
ငြ	-807
▁ယုံ	-808
▁သော်လည်း	-809
လင်း	-810
▁ဂုဏ်	-811
▁ရွေး	-812
▁ကိစ္စ	-813
▁လိမ့်	-814
▁ထို့	-815
သံ	-816
▁ကျန်	-817
တစ်	-818
▁ပါး	-819
▁အရင်	-820
မတ	-821
တည်း	-822
ချမ်း	-823
▁ခရီး	-824
▁ပရိသတ်	-825
▁ခွေး	-826
ထမ်း	-827
▁C	-828
▁နယ်	-829
▁ချင်း	-830
▁လွှတ်	-831
▁ဖတ်	-832
▁မို့	-833
▁စက်	-834
▁ပျက်	-835
▁ဘုရင်	-836
▁မီ	-837
▁အတူ	-838
မံ	-839
တောင်း	-840
ယံ	-841
▁မှီ	-842
▁ဒုန်း	-843
ကြာ	-844
▁လေ့လာ	-845
▁အမှတ်	-846
▁ထိုင်	-847
on	-848
▁၇	-849
တိယ	-850
▁ညီမ	-851
ပေါင်း	-852
နပ်	-853
▁စဉ်း	-854
▁ထိုး	-855
▁မြို့နယ်	-856
▁ပစ္စည်း	-857
▁စမ်း	-858
လျ	-859
▁ကိုနေ	-860
▁ဗိုလ်	-861
▁စောင့်	-862
တိုက်	-863
an	-864
▁ခွင့်	-865
▁စဉ်းစား	-866
လမ်း	-867
စံ	-868
▁လော	-869
▁ဝန်ကြီး	-870
ှက်	-871
ခဲ	-872
ပ္ပ	-873
ဏာ	-874
▁ပြန်လည်	-875
▁လိုအပ်	-876
ရှင်း	-877
▁စိုင်းစိုင်း	-878
▁ဖက်	-879
စိုက်	-880
ဝေး	-881
ဂ္	-882
▁ဆိုး	-883
ပြန်	-884
▁ဘော	-885
▁သင့်	-886
▁ပြည့်	-887
ထပ်	-888
သစ်	-889
▁တိုင်	-890
▁မြောက်	-891
▁အားက	-892
▁ကျောက်	-893
ဂ္ဂ	-894
▁ကျွန်ုပ်	-895
in	-896
ဒ္	-897
▁အမည်	-898
▁အခြား	-899
မြင့်	-900
▁ခံစား	-901
ပန်	-902
မောင်	-903
▁ပြုလုပ်	-904
▁ကျင်းပ	-905
▁လူမျိုး	-906
▁မိန်းမ	-907
▁ချမ်း	-908
▁သို့သ	-909
ပြား	-910
▁ပတ်သက်	-911
▁အင်း	-912
ရီး	-913
ဝတ်	-914
နဲ့	-915
ပန်း	-916
ရက်	-917
▁သမ္	-918
▁သူငယ်	-919
▁အမှန်	-920
▁ပြည်နယ်	-921
တပ်	-922
▁အဲဒါ	-923
▁ရောဂါ	-924
▁မန္တ	-925
▁ဆွဲ	-926
▁ပိတ်	-927
▁ကိုင်	-928
▁အော်	-929
▁မဲ့	-930
ပညာ	-931
ဇာ	-932
▁ဓာတ်	-933
ကူး	-934
မို	-935
ဏ္	-936
▁ကူ	-937
▁ကော်	-938
▁မန္တလေး	-939
▁ပိုက်	-940
▁ဆင်	-941
▁၈	-942
▁တိုးတက်	-943
▁အကို	-944
▁ကွယ်	-945
▁စိတ်မ	-946
▁တော်တော်	-947
▁အလှ	-948
▁အများကြီး	-949
▁ကင်း	-950
နှုန်း	-951
▁ရောင်	-952
▁ဖြတ်	-953
တီး	-954
▁ထည့်	-955
ဆာ	-956
▁၉	-957
▁ဆိုင်ရာ	-958
ဝေ	-959
မှု	-960
သိုလ်	-961
▁မာ	-962
▁အစ်ကို	-963
တု	-964
ရု	-965
▁ဝန်ထမ်း	-966
▁ဟူ	-967
ဖြတ်	-968
▁အခြေအ	-969
▁ကစားသမား	-970
▁ကိုနေတိုး	-971
နွေး	-972
▁ပျောက်	-973
▁?	-974
▁ကြောက်	-975
ar	-976
▁နင်	-977
▁လွှဲ	-978
ရောင်	-979
▁အနေနဲ့	-980
ခိုက်	-981
▁ပူ	-982
ကလေး	-983
ီအ	-984
▁စည်း	-985
▁အမြဲတမ်း	-986
၀၀၀	-987
▁အခြေအနေ	-988
▁အချက်	-989
▁သောအခါ	-990
တ္	-991
▁ဝါ	-992
ဆီ	-993
▁သွေး	-994
▁စဉ်	-995
▁သို့သော်	-996
ဟုတ်	-997
▁ကိုယ်တိုင်	-998
ာဝ	-999
▁ကော	-1000
ကိုင်	-1001
▁ကကျ	-1002
▁A	-1003
လျှ	-1004
▁၁၀	-1005
လိပ်	-1006
▁သမ္မတ	-1007
▁ကာကွယ်	-1008
▁ခက်	-1009
▁ဖော်ပြ	-1010
မေ	-1011
▁သူမ	-1012
▁ကြိမ်	-1013
ဝန်း	-1014
▁ရာသီ	-1015
▁စောက်	-1016
▁ခန့်	-1017
▁ဝမ်းသာ	-1018
▁အင်္ဂ	-1019
▁အကျိုး	-1020
သေ	-1021
ဆန်း	-1022
at	-1023
သို့	-1024
▁ထောင်	-1025
▁စတင်	-1026
▁ကိုယ့်	-1027
မတော်	-1028
▁ဒုတိယ	-1029
▁သေချာ	-1030
▁အဖေ	-1031
ပီ	-1032
▁S	-1033
▁နန်း	-1034
▁ထိန်း	-1035
▁ကူး	-1036
ထိုင်	-1037
▁ဖမ်း	-1038
ပါတ်	-1039
▁လိမ်	-1040
▁=	-1041
ကြည့်	-1042
ပေါက်	-1043
▁ကျပ်	-1044
▁ကြို	-1045
▁ဟေ့	-1046
▁အခန်း	-1047
▁သူငယ်ချင်း	-1048
ဆယ်	-1049
ဆီး	-1050
▁နှုတ်	-1051
▁ဖွဲ့	-1052
▁ကာလ	-1053
သွယ်	-1054
▁အလွန်	-1055
▁သု	-1056
▁အပ်	-1057
▁ပြေး	-1058
လယ်	-1059
▁အထူး	-1060
▁စီးပွား	-1061
▁ဖွင့်	-1062
▁အကောင်း	-1063
▁ဆဲ	-1064
▁ပိုက်ဆံ	-1065
▁ရုံး	-1066
ကြောင့်	-1067
▁ဆုတောင်း	-1068
လူ	-1069
▁လွန်း	-1070
ရွာ	-1071
▁နားလည်	-1072
ထိုး	-1073
▁အားကစား	-1074
▁အသိ	-1075
▁မိသား	-1076
▁ဂိုး	-1077
▁မိသားစု	-1078
▁မှန်း	-1079
▁အဆို	-1080
ိန္ဒ	-1081
တောင်	-1082
ချိန်	-1083
▁နံပါတ်	-1084
တည်	-1085
▁ယာ	-1086
▁အဆင်ပြေ	-1087
▁ဌာန	-1088
▁နိုင်ငံတော်	-1089
ပူ	-1090
▁ခိုင်း	-1091
မွန်	-1092
ထွန်း	-1093
▁ဘောလုံး	-1094
ပေါ်	-1095
တော့	-1096
▁အကုန်	-1097
en	-1098
▁ဆရာမ	-1099
▁အမျိုးသား	-1100
▁M	-1101
▁အို	-1102
▁တန်း	-1103
ပတ်	-1104
ဝင်း	-1105
တွင်း	-1106
ငွေ	-1107
▁ဂရု	-1108
▁စနစ်	-1109
▁မနက်	-1110
▁ဆွေး	-1111
▁ကိုး	-1112
▁မဲ	-1113
▁စိုက်	-1114
▁ကြေ	-1115
▁မတ်	-1116
▁သင်္	-1117
▁ကူညီ	-1118
▁ပြောင်းလဲ	-1119
မဟုတ်	-1120
သိမ်း	-1121
▁တိုင်းပြည်	-1122
ရို	-1123
▁နတ်	-1124
ကပ်	-1125
▁မြစ်	-1126
မှန်	-1127
▁ကိုကို	-1128
ောက်အ	-1129
▁နီး	-1130
▁❤	-1131
▁ဟန်	-1132
▁မှား	-1133
▁နည်းနည်း	-1134
▁ကျေ	-1135
▁ဘဏ်	-1136
ရံ	-1137
ထွက်	-1138
▁မိဘ	-1139
▁အစား	-1140
▁အဓိက	-1141
▁လက်ရှိ	-1142
▁၎	-1143
▁၎င်း	-1144
▁၀	-1145
▁အမေရိ	-1146
ှဉ်	-1147
▁ထာဝ	-1148
▁တခြား	-1149
▁အမြန်	-1150
▁လုံ	-1151
ကစ်	-1152
သွင်း	-1153
▁စီမံ	-1154
▁:-	-1155
▁ဒုက္ခ	-1156
▁တပ်မတော်	-1157
▁သန်း	-1158
▁ကတည်း	-1159
▁သဖြင့်	-1160
ခင်း	-1161
စမ်း	-1162
▁တွေး	-1163
▁မည့်	-1164
▁အထက်	-1165
▁ရခိုင်	-1166
▁ဆွေးနွေး	-1167
▁အချစ်	-1168
▁အပြစ်	-1169
▁၁၅	-1170
▁ခန့်	-1171
▁ထာဝရ	-1172
▁စစ်ဆေး	-1173
ုဒ္	-1174
ဖြိုး	-1175
▁'	-1176
ကြောင်း	-1177
▁တော	-1178
▁လက်မှတ်	-1179
ပိုင်း	-1180
ဆိုး	-1181
▁လက်ခံ	-1182
▁ရက်နေ့	-1183
ဿနာ	-1184
▁နောက်ဆုံး	-1185
တန်	-1186
▁သတ်မှတ်	-1187
▁လောက	-1188
▁လေ့ကျ	-1189
▁ထိုင်း	-1190
▁ယင်း	-1191
သွား	-1192
▁ကျောင်းသား	-1193
နီး	-1194
▁သိန်း	-1195
ဉာ	-1196
ဘီ	-1197
▁ကတည်းက	-1198
▁လည်	-1199
▁ရုံ	-1200
ခါး	-1201
▁လူကြီး	-1202
မက်	-1203
▁သိမ်း	-1204
▁အရွယ်	-1205
▁ဟင်	-1206
လွန်	-1207
▁ကန်	-1208
▁၁၂	-1209
▁ပြဿနာ	-1210
တနာ	-1211
▁ထမင်း	-1212
▁ထူး	-1213
▁လွယ်	-1214
မား	-1215
▁ပိုင်ဆိုင်	-1216
▁ပါတီ	-1217
▁သမျှ	-1218
▁အသား	-1219
ပြိုင်	-1220
▁စာရင်း	-1221
▁ဆန်	-1222
▁အမေရိကန်	-1223
▁သရ	-1224
ကမ်း	-1225
▁ရိုး	-1226
▁မြင့်	-1227
ဋ္	-1228
▁ကိုလေး	-1229
▁ဆယ်	-1230
▁အကယ်	-1231
ဏ္ဍ	-1232
▁ထံ	-1233
▁ချေ	-1234
ဂ်	-1235
▁ချန်	-1236
▁စုံ	-1237
▁ကျုပ်	-1238
▁အနီး	-1239
▁လိ	-1240
▁နေထိုင်	-1241
▁ယှဉ်	-1242
▁ပုံစံ	-1243
▁နောင်	-1244
ဖန်	-1245
▁ငြိမ်း	-1246
▁ခွင့်	-1247
▁တက္က	-1248
သန်း	-1249
▁ခဏ	-1250
▁ပါရ	-1251
▁မိတ်	-1252
▁လွန်	-1253
▁ဝိုင်း	-1254
▁မြန်မာ့	-1255
စွဲ	-1256
▁တွင်း	-1257
▁ကမ္ဘာ့	-1258
ဖော်	-1259
ဖိုး	-1260
ရိုး	-1261
▁မန်	-1262
သော	-1263
▁ခန်း	-1264
▁အနည်း	-1265
▁ယုံကြည်	-1266
▁မု	-1267
တွေ့	-1268
ထုတ်	-1269
ခွဲ	-1270
▁အမှု	-1271
▁ပြီးနောက်	-1272
▁ဟား	-1273
ခိုး	-1274
▁အသုံးပြု	-1275
▁လှုပ်	-1276
▁သွင်း	-1277
▁အာဏာ	-1278
ရုံး	-1279
ချီ	-1280
▁အုပ်ချုပ်	-1281
▁ခပ်	-1282
▁ထောက်ခံ	-1283
တ္တာ	-1284
ွံ့	-1285
al	-1286
or	-1287
▁လှူ	-1288
ထူး	-1289
ရော	-1290
တ္ထု	-1291
▁အသစ်	-1292
ချို့	-1293
▁ဂုဏ်ယူ	-1294
▁အေ	-1295
▁လွှတ်တော်	-1296
▁ရည်	-1297
▁အစီအ	-1298
▁တွဲ	-1299
▁အခြေခံ	-1300
▁မောင်း	-1301
▁လုံးဝ	-1302
▁ကောက်	-1303
▁ပြောကြား	-1304
▁အဆင့်	-1305
▁ဆက်လက်	-1306
▁ရှည်	-1307
▁အဲ့လို	-1308
▁ဖေ	-1309
ုဒ္ဓ	-1310
မြှ	-1311
တိုင်း	-1312
▁အကြံ	-1313
▁အရပ်	-1314
ိုဟ	-1315
▁နှင်း	-1316
▁လှမ်း	-1317
▁😝	-1318
▁လှည့်	-1319
▁ခြောက်	-1320
▁စိတ်မကောင်း	-1321
လန်	-1322
▁ကော်မ	-1323
ဘာဝ	-1324
ထက်	-1325
▁ကွင်း	-1326
မျှ	-1327
▁ဖျက်	-1328
ဆိပ်	-1329
▁ဝက်	-1330
တင်း	-1331
ရွယ်	-1332
မြောက်	-1333
စိုး	-1334
နိုင်	-1335
▁ငို	-1336
▁အကောင်းဆုံး	-1337
▁အမျိုးသမီး	-1338
▁ယောက်ျား	-1339
အိမ်	-1340
▁လည်းကောင်း	-1341
it	-1342
▁တိ	-1343
▁ကဲ့	-1344
ကျေး	-1345
ထောက်	-1346
စိန်	-1347
ရစ်	-1348
▁အရှေ့	-1349
▁အချို့	-1350
▁မျက်လုံး	-1351
ဝတီ	-1352
စိ	-1353
▁မကစ်	-1354
မီး	-1355
မဲ့	-1356
▁ပြင်ဆင်	-1357
▁လယ်	-1358
▁မေ့	-1359
ခတ်	-1360
▁သိပ္ပ	-1361
ွန့်	-1362
ွှန်	-1363
▁အဖွဲ့အ	-1364
▁ပညာရှင်	-1365
မိုး	-1366
▁ရှေး	-1367
▁ကုလား	-1368
▁ကပ်	-1369
▁ညှ	-1370
▁ဘီ	-1371
ထောင်စု	-1372
▁သဖြင့်	-1373
ဆွဲ	-1374
▁ရပ်ကွက်	-1375
တား	-1376
ဖွဲ့	-1377
▁တချို့	-1378
ပေ	-1379
ဒဏ်	-1380
▁ယဉ်	-1381
▁မြင်း	-1382
▁သဘာဝ	-1383
▁ချောင်း	-1384
▁ဆန္ဒ	-1385
▁သိပ္ပံ	-1386
ရိုက်	-1387
▁အတော်	-1388
▁ဗီ	-1389
ပျက်	-1390
▁သတ္တ	-1391
▁ဝတ္ထု	-1392
▁ကျေနပ်	-1393
▁အံ့	-1394
▁အနု	-1395
▁အဖွဲ့အစည်း	-1396
▁ကိုယ်စား	-1397
▁တက္ကသိုလ်	-1398
ဋ္ဌ	-1399
စိတ်	-1400
ကွင်း	-1401
▁ဖိ	-1402
▁တင်ပြ	-1403
▁နွား	-1404
သောက်	-1405
▁စောင့်	-1406
▁နားထောင်	-1407
ကြေး	-1408
es	-1409
▁စွမ်း	-1410
တယ်	-1411
ပြည်တော်	-1412
▁ကွဲ	-1413
▁ကြေညာ	-1414
ေါင်	-1415
▁မစ္စ	-1416
▁အဲ့ဒါ	-1417
ဒမီ	-1418
▁ဖျ	-1419
▁လုပ်ဆောင်	-1420
နဲ	-1421
မူ	-1422
▁အကယ်ဒမီ	-1423
▁P	-1424
ဝါး	-1425
▁နေပြည်တော်	-1426
▁ဖန်	-1427
▁ပါရစေ	-1428
▁အစီအစဉ်	-1429
▁ဝင်ရောက်	-1430
--	-1431
သပ်	-1432
ဆုံ	-1433
ယာဉ်	-1434
▁တွက်	-1435
တို	-1436
ကွဲ	-1437
▁ပုဒ်	-1438
▁ယာဉ်	-1439
ဝင်စား	-1440
ခမ်း	-1441
ion	-1442
▁.	-1443
ဏီ	-1444
လင်	-1445
▁ကြက်	-1446
▁ကဲ	-1447
▁ဂျပန်	-1448
▁ပြုံး	-1449
▁ဆုံးဖြတ်	-1450
ိယ	-1451
စော	-1452
▁ခိုး	-1453
▁ချမ်းသာ	-1454
▁သော်	-1455
▁ကဗျာ	-1456
ရှု	-1457
သုံး	-1458
လတ်	-1459
ဝယ်	-1460
▁ဆံ	-1461
တရား	-1462
လွှတ်	-1463
▁ဟင်း	-1464
ပီယံ	-1465
ရာယ်	-1466
▁!	-1467
▁T	-1468
သင်	-1469
▁မေမ	-1470
ချယ်	-1471
နှီး	-1472
အစား	-1473
ဝဝ	-1474
ဘက်	-1475
ဝဲ	-1476
▁ဟော	-1477
▁ဆောက်	-1478
▁B	-1479
▁ကျေးရွာ	-1480
▁ချီး	-1481
တံ	-1482
▁ပြည့်	-1483
▁ကျွန်တော့်	-1484
ဉာဏ်	-1485
▁ချန်ပီယံ	-1486
▁မည့်	-1487
▁သနား	-1488
ဗာ	-1489
ုံ့	-1490
ကောက်	-1491
▁ကျွေး	-1492
▁လူငယ်	-1493
▁ဗုဒ္ဓ	-1494
▁ကဲ့သို့	-1495
သိ	-1496
▁မဟာ	-1497
▁လျှောက်ထား	-1498
နု	-1499
▁ပီ	-1500
မန်	-1501
▁လက်နက်	-1502
▁ပြောဆို	-1503
ဇော်	-1504
▁လူ့	-1505
▁အနောက်	-1506
▁၂၀၁၉	-1507
▁ရေးသား	-1508
ဆွေ	-1509
ွပ်	-1510
▁ဂရုစိုက်	-1511
လေ	-1512
▁တိုင်းရင်း	-1513
ဖြည်း	-1514
▁ထည့်	-1515
▁ရထား	-1516
▁တစ်ခါ	-1517
▁ခေါင်းဆောင်	-1518
လှယ်	-1519
ဆင်း	-1520
▁ပြည်ထောင်စု	-1521
ပု	-1522
ကူ	-1523
ရှည်	-1524
▁ညနေ	-1525
▁ပြတ်	-1526
▁အနိုင်	-1527
လျှောက်	-1528
▁စံ	-1529
ခေါ်	-1530
▁ကြည်	-1531
တကာ	-1532
ဓာတ်	-1533
▁ညီမလေး	-1534
မြေ	-1535
▁ဝေး	-1536
▁အကြိမ်	-1537
▁၁၆	-1538
လှမ်း	-1539
▁တည်ဆ	-1540
▁အင်နီ	-1541
▁ကိုက်	-1542
▁ဖွယ်	-1543
▁ပူး	-1544
▁ရုပ်ရှင်	-1545
▁မိန်းကလေး	-1546
ic	-1547
ဆန်	-1548
▁ထိပ်	-1549
သနာ	-1550
▁ဗြ	-1551
▁လိမ့်	-1552
▁လွတ်လပ်	-1553
ဇင်	-1554
နှံ	-1555
မ္ပ	-1556
လော	-1557
▁၁၈	-1558
ခြုံ	-1559
▁စည်	-1560
နွယ်	-1561
▁မကြာ	-1562
အို	-1563
▁ယဉ်ကျေး	-1564
▁ဆက်သွယ်	-1565
▁ဘယ်တော့	-1566
st	-1567
ရန်	-1568
မ္မ	-1569
▁အမေစု	-1570
မခံ	-1571
လွင်	-1572
▁စင်	-1573
▁ဒဏ်	-1574
▁လီ	-1575
▁၁၁	-1576
ှား	-1577
▁စာရေး	-1578
▁တန်ဖိုး	-1579
▁မျှော်လ	-1580
ိုဟ်	-1581
ြိုဟ်	-1582
▁မက်	-1583
▁ကြော်	-1584
ကိုယ်	-1585
▁အဲ့ဒီ	-1586
▁နှလုံး	-1587
အရာ	-1588
▁မေမေ	-1589
▁မွေးနေ့	-1590
▁အနုပညာ	-1591
▁ကန့်	-1592
▁ဖွင့်	-1593
▁ပြည်သူ့	-1594
ဓာ	-1595
▁စိုး	-1596
▁ဘုန်း	-1597
▁အရောင်	-1598
▁ရွေးချယ်	-1599
▁ကွန်	-1600
ဒို	-1601
▁ကမ်း	-1602
ပြော	-1603
▁အကြီး	-1604
▁မင်းသား	-1605
▁ဖွဲ့စည်း	-1606
ဖေ	-1607
▁သို့မဟုတ်	-1608
အေ	-1609
▁ပုဂ္ဂ	-1610
▁တိုင်းရင်းသား	-1611
ဘတ်	-1612
▁တည်ဆောက်	-1613
▁မိနစ်	-1614
▁အဆင့်	-1615
▁အစ်မ	-1616
▁ထို့နောက်	-1617
▁စာပေ	-1618
▁ဖွံ့	-1619
▁လှေ	-1620
▁သမိုင်း	-1621
▁ဆီး	-1622
▁သရုပ်	-1623
▁လိပ်	-1624
ညှ	-1625
▁နံနက်	-1626
လွှာ	-1627
▁ဝါး	-1628
▁အရည်	-1629
▁ဆိုင်ကယ်	-1630
ပို့	-1631
▁အူ	-1632
▁ပထမဆုံး	-1633
ပိုး	-1634
ိုင်းရပ်	-1635
▁ခိုင်	-1636
▁ဖွံ့ဖြိုး	-1637
အရေး	-1638
မ္ပဏီ	-1639
▁ကုမ္ပဏီ	-1640
ညို	-1641
တွဲ	-1642
▁ဆေးရုံ	-1643
▁ဩ	-1644
▁ဗိုလ်ချုပ်	-1645
စ္စာ	-1646
▁စာချုပ်	-1647
ိုင်းရပ်စ်	-1648
ရိတ်	-1649
▁အင်္ဂလိပ်	-1650
▁မြတ်	-1651
▁ကြုံ	-1652
နံ	-1653
▁ချီ	-1654
▁ဒေါ	-1655
▁အလို	-1656
မလေး	-1657
▁အုပ်စု	-1658
လုံ	-1659
▁လွဲ	-1660
▁ကြေး	-1661
▁လန်း	-1662
▁သာယာ	-1663
▁ရှုံး	-1664
▁ဖြူ	-1665
▁😜	-1666
▁တိုက်ခိုက်	-1667
▁စွဲ	-1668
▁ပိုမို	-1669
▁အရေးကြီး	-1670
မော	-1671
▁ယှဉ်ပြိုင်	-1672
▁အိန္ဒ	-1673
▁တီ	-1674
▁ငှက်	-1675
▁သတိရ	-1676
▁ဆောင်း	-1677
▁ကော်မတီ	-1678
ဝိုင်း	-1679
သိန်း	-1680
▁စိတ်ဝင်စား	-1681
ေဒ	-1682
မြင့်	-1683
▁ဗဟ	-1684
▁အက်	-1685
▁ငြိမ်းချမ်း	-1686
မင်	-1687
▁စော	-1688
▁အဆိုပါ	-1689
ယို	-1690
▁၁၃	-1691
▁အနက်	-1692
▁တံဆိပ်	-1693
▁နောက်ထပ်	-1694
▁ဗိုင်းရပ်စ်	-1695
ချို	-1696
မ္မာ	-1697
▁အိတ်	-1698
▁ဦးစီး	-1699
ကိန်း	-1700
▁ပန်းချီ	-1701
▁နီ	-1702
▁၃၀	-1703
မှန်း	-1704
▁1	-1705
▁ကျယ်	-1706
▁အပါ	-1707
▁မော်	-1708
▁ညွှန်	-1709
▁ကူးစက်	-1710
▁😊	-1711
▁၁၄	-1712
▁N	-1713
▁သင်တန်း	-1714
ယျ	-1715
▁ဘိ	-1716
▁၂၀၀	-1717
▁လိဂ်	-1718
▁လျော့	-1719
▁ဒေါက်	-1720
▁ရှက်	-1721
▁ဥက္က	-1722
▁ဂြိုဟ်	-1723
ထွေး	-1724
▁ကံကောင်း	-1725
▁တံခါး	-1726
▁ပေါင်	-1727
ချောင်း	-1728
▁လုံခြုံ	-1729
ခွန်း	-1730
▁ချုပ်	-1731
▁ဟောင်း	-1732
▁လေယာဉ်	-1733
▁တွေ့ဆုံ	-1734
▁လာရောက်	-1735
ဇ်	-1736
ခြေ	-1737
မတ်	-1738
▁ဆူ	-1739
▁ဝိ	-1740
▁နိုင်ငံခြား	-1741
▁အီ	-1742
▁စလုံး	-1743
▁စီစဉ်	-1744
▁သခင်	-1745
▁အထောက်အ	-1746
ခေါင်း	-1747
▁အတိုး	-1748
▁နားမ	-1749
▁အိုး	-1750
▁ရှမ်း	-1751
▁ဝမ်းနည်း	-1752
▁ဖာ	-1753
တုံး	-1754
▁ကိုမြင့်	-1755
ထင်	-1756
▁ရာဇ	-1757
▁မျှော်	-1758
▁ချည်း	-1759
▁လှုပ်ရှား	-1760
ဆရာ	-1761
▁ထွန်း	-1762
▁သက်ဆိုင်	-1763
ထန်	-1764
▁မူး	-1765
▁လိုင်း	-1766
▁သီး	-1767
ရေးမှူး	-1768
တွင်	-1769
▁ထိခိုက်	-1770
ရွှေ	-1771
ွံ	-1772
▁၂၅	-1773
▁ထုတ်ပြန်	-1774
▁ရင်းနှီး	-1775
▁အနည်းငယ်	-1776
▁နှုတ်ခမ်း	-1777
▁နိုင်ငံသား	-1778
▁အခွင့်	-1779
▁ကိုယ်စားလှယ်	-1780
▁လေ့ကျင့်	-1781
▁သဘောတူ	-1782
ခွင့်	-1783
င်္ကာ	-1784
▁ဪ	-1785
ပစ်	-1786
▁ဆံပင်	-1787
▁မေတ္တာ	-1788
▁ဖြစ်ပေါ်	-1789
▁ပူးပေါင်း	-1790
ငြာ	-1791
▁စေတီ	-1792
▁ဒီမို	-1793
ပြင်း	-1794
▁ဝေဖန်	-1795
▁အမြန်ဆုံး	-1796
သု	-1797
သွေး	-1798
ုရား	-1799
ကြည့်	-1800
▁တင်း	-1801
▁စိုးရ	-1802
▁အမျိုးမျိုး	-1803
▁လု	-1804
လောင်	-1805
▁ဖေဖေ	-1806
▁သလောက်	-1807
▁ဒါကြောင့်	-1808
▁တံတား	-1809
▁ခရိုင်	-1810
▁စစ်တပ်	-1811
▁ဟူ၍	-1812
▁ပြင်း	-1813
ကျယ်	-1814
▁,	-1815
▁☺	-1816
ကောင်	-1817
▁အရက်	-1818
▁လုပ်ကိုင်	-1819
▁သရုပ်ဆောင်	-1820
ိတ	-1821
▁သက်သာ	-1822
▁ချစ်သူ	-1823
နန်း	-1824
▁အဆုံး	-1825
▁ကိုမြင့်မြတ်	-1826
▁အဘိုး	-1827
ကြောင့်	-1828
အဝင်	-1829
▁အပါအဝင်	-1830
▁😒	-1831
ကျီ	-1832
▁ကြော်ငြာ	-1833
▁😭	-1834
▁ဟယ်	-1835
▁အမိ	-1836
▁စကားလုံး	-1837
ပို	-1838
▁အန္တ	-1839
▁ကန့်ကွက်	-1840
▁ကယ်	-1841
▁အဝတ်	-1842
ဒီယာ	-1843
▁D	-1844
....	-1845
▁မျက်ရည်	-1846
▁နု	-1847
ဘေး	-1848
▁မြှ	-1849
ကင်း	-1850
el	-1851
ဝန်းကျင်	-1852
▁ဒေါက်တာ	-1853
▁ကိုယ်ပိုင်	-1854
ခ်	-1855
▁ချက်ချင်း	-1856
ac	-1857
ဂျင်	-1858
▁စိုးရိမ်	-1859
ဝီ	-1860
▁ထိန်းသိမ်း	-1861
ထည်	-1862
မင်းကြီး	-1863
▁☑	-1864
ချင်	-1865
▁ကောင်းကောင်း	-1866
ချစ်	-1867
ခွာ	-1868
▁စပ်	-1869
▁ကြွေ	-1870
▁မမမေ	-1871
▁အတွေး	-1872
▁အင်အား	-1873
▁ယနေ့	-1874
▁အိုင်	-1875
ပေါ	-1876
▁၁၇	-1877
က်အ	-1878
ောင်းအ	-1879
▁ရူး	-1880
▁ဖောက်	-1881
▁ဒီမိုက	-1882
လစ်	-1883
များ	-1884
▁အလယ်	-1885
▁နေတိုး	-1886
▁သင်ကြား	-1887
စည်	-1888
▁အဟ	-1889
▁စခန်း	-1890
▁ဆင်းရဲ	-1891
▁😢	-1892
▁မော	-1893
▁ဦးစိုင်း	-1894
▁စီမံကိန်း	-1895
▁အနာ	-1896
ရမ်း	-1897
ကျောင်း	-1898
▁ဖြေရှင်း	-1899
▁အချင်း	-1900
လိ	-1901
ing	-1902
စွာ	-1903
▁လင်	-1904
▁အဖြေ	-1905
▁ဝန်ကြီးဌာန	-1906
ပျိုး	-1907
င်္ကျီ	-1908
▁သေဆုံး	-1909
▁စိတ်ကူး	-1910
▁ကြယ်	-1911
▁သဘောကျ	-1912
▁ဇာတ်ကား	-1913
▁တိုက်ပွဲ	-1914
▁ပတ်ဝန်းကျင်	-1915
▁E	-1916
ရီးယား	-1917
▁အမြင်	-1918
▁အန္တရာယ်	-1919
ပြာ	-1920
▁L	-1921
▁အနား	-1922
▁ပါးစပ်	-1923
အဝေး	-1924
▁မျက်စိ	-1925
မယ်	-1926
▁ဟူသော	-1927
▁စားပွဲ	-1928
▁လူသား	-1929
▁ကိုလေးဖြူ	-1930
▁F	-1931
▁ခွက်	-1932
▁ပြုပြင်	-1933
▁ရာခိုင်	-1934
▁အယ်	-1935
▁အစည်း	-1936
▁နည်းပြ	-1937
▁စသည်	-1938
ဂံ	-1939
ခူး	-1940
▁ပိုး	-1941
▁စိတ်ဓာတ်	-1942
စွမ်း	-1943
▁မီဒီယာ	-1944
▁ရာခိုင်နှုန်း	-1945
ပတိ	-1946
▁ဘယ်နှ	-1947
▁သတိထား	-1948
▁အထင်	-1949
▁ရှောင်	-1950
ဖီ	-1951
▁ပြေ	-1952
▁နားမလည်	-1953
▁/	-1954
▁အကောင်	-1955
▁၅၀	-1956
▁ခေါက်	-1957
▁သမိန်	-1958
▁😃	-1959
▁ဆက်ဆံ	-1960
om	-1961
လံ	-1962
ူအ	-1963
▁*	-1964
▁ဖလား	-1965
▁ရည်ရွယ်	-1966
▁ခြံ	-1967
ဖတ်	-1968
▁ငြိမ်	-1969
▁သိရှိ	-1970
▁သစ်ပင်	-1971
▁စာမ	-1972
ရေစီ	-1973
▁အန်	-1974
ယက်	-1975
▁ခနဲ	-1976
▁ဘတ်	-1977
လောင်း	-1978
▁ပြင်သစ်	-1979
▁အနေဖြင့်	-1980
▁နိုင်ငံတကာ	-1981
▁တား	-1982
▁လှပ	-1983
▁သင်း	-1984
ဖူး	-1985
▁အကြိုက်	-1986
ကကျ	-1987
▁တောင်းဆို	-1988
▁လက်ဆောင်	-1989
▁c	-1990
▁ကြမ်း	-1991
▁မိုင်	-1992
▁အစားအ	-1993
ူတာ	-1994
▁ပုဂ္ဂိုလ်	-1995
am	-1996
▁ချေး	-1997
▁ရှင့်	-1998
▁စည်းကမ်း	-1999
▁ဆရာဝန်	-2000
▁ဒီမိုကရေစီ	-2001
▁ပမာ	-2002
▁စိုက်ပျိုး	-2003
▁တီး	-2004
▁လျှော့	-2005
▁G	-2006
▁လိမ်း	-2007
▁အလင်း	-2008
▁မင်းသမီး	-2009
▁ဝန်ဆောင်	-2010
▁ဒေါ်လာ	-2011
▁ပင်လယ်	-2012
▁ဖင်	-2013
▁လွမ်း	-2014
▁အိန္ဒိယ	-2015
▁ဓား	-2016
▁ကြိုတင်	-2017
▁H	-2018
▁မွန်	-2019
▁ထိုအခါ	-2020
▁စပါး	-2021
ဗေဒ	-2022
ဖြန်	-2023
▁ဆရာတော်	-2024
et	-2025
ဇင်း	-2026
▁ယူဆ	-2027
▁အပူ	-2028
▁နှုန်း	-2029
▁သမား	-2030
▁သွားရောက်	-2031
ဌေး	-2032
▁ကျက်	-2033
ro	-2034
ခုံ	-2035
▁အလေး	-2036
▁များ၊	-2037
▁ဓာတ်ပုံ	-2038
▁I	-2039
လိုက်	-2040
▁အရည်အ	-2041
န္ဓာ	-2042
▁အင်္ကျီ	-2043
ရူး	-2044
▁စောင်	-2045
▁အပြီး	-2046
မွေး	-2047
▁ဖြစ်စေ	-2048
ကင်	-2049
▁မူရင်း	-2050
▁ညွှန်ကြား	-2051
▁အသဲ	-2052
▁ကလပ်	-2053
▁နင့်	-2054
▁အလှူ	-2055
▁အချက်အ	-2056
▁သဲ	-2057
▁ဒေါသ	-2058
▁အမတ်	-2059
က္ခာ	-2060
စ္ဆာ	-2061
▁၁၀၀	-2062
▁ပြည်တွင်း	-2063
▁s	-2064
▁အရှင်	-2065
▁အရေးယူ	-2066
တွန်း	-2067
▁သတင်းစာ	-2068
▁မျှော်လင့်	-2069
▁ဖန်တီး	-2070
မြန်း	-2071
▁ပွင့်	-2072
▁ရန်သူ	-2073
▁မေးခွန်း	-2074
▁စေတနာ	-2075
▁ပုဂံ	-2076
▁သစ္စာ	-2077
is	-2078
▁စျ	-2079
▁မိခင်	-2080
▁နန်းတော်	-2081
▁မြင့်မြတ်	-2082
ာယ်	-2083
▁ဂျာ	-2084
▁ထုတ်လုပ်	-2085
▁ဈေးနှုန်း	-2086
le	-2087
ဖွေ	-2088
ေအ	-2089
▁:)	-2090
▁ကကျွန်း	-2091
▁စားသောက်	-2092
ပြောင်း	-2093
▁သူခိုး	-2094
ကြွ	-2095
▁ဖိုး	-2096
▁စိန်	-2097
▁ဦးဆောင်	-2098
ur	-2099
▁အာရှ	-2100
▁ဖြစ်ပွား	-2101
▁တောက်	-2102
မြန်	-2103
▁လစာ	-2104
▁ဧရာ	-2105
▁ရှာဖွေ	-2106
ဆင့်	-2107
▁ဆန်း	-2108
ခွင်	-2109
▁လေ့ကျင့်	-2110
ငြိမ်	-2111
▁လူမှု	-2112
မဲ	-2113
▁ထီး	-2114
ွန့်	-2115
▁ပင်ပန်း	-2116
္စ	-2117
ဝါရီ	-2118
ပ္ပာယ်	-2119
▁မန်ယူ	-2120
▁ကြီးမား	-2121
▁လင်း	-2122
ပြေး	-2123
▁တို	-2124
▁မိတ်ဆွေ	-2125
ပူး	-2126
▁တန	-2127
▁ကြံ	-2128
ကျိုး	-2129
ဖျ	-2130
▁မှတ်ပုံ	-2131
ပျို	-2132
▁အသေး	-2133
▁အကောင့်	-2134
▁အသီး	-2135
▁အခွန်	-2136
▁ဗမာ	-2137
▁ရှင်းလင်း	-2138
▁ဘေ	-2139
▁သယ်	-2140
▁အတူတူ	-2141
▁ပြစ်	-2142
▁မစ္စတာ	-2143
▁19	-2144
ကုန်း	-2145
▁ပွဲစဉ်	-2146
▁သက်ရှိ	-2147
ခြံ	-2148
▁၀၀	-2149
▁အဝေး	-2150
▁အရာရှိ	-2151
▁အခွင့်	-2152
▁မမကစ်	-2153
▁ဒါပေမယ့်	-2154
▁ဦးစီးဌာန	-2155
▁ရတနာ	-2156
▁အာကာ	-2157
▁ရောင်းချ	-2158
▁ပျက်စီး	-2159
▁အားဖြင့်	-2160
▁ထူ	-2161
▁အချက်အလက်	-2162
ဗ္	-2163
▁p	-2164
▁လီး	-2165
▁ကံစမ်း	-2166
▁ထင်ရှား	-2167
▁အဓိပ္ပာယ်	-2168
ပြီး	-2169
နင်း	-2170
▁မှတ်ပုံတင်	-2171
မပြေ	-2172
ရိယာ	-2173
▁မြို့တော်	-2174
▁R	-2175
ခဏ	-2176
ent	-2177
▁ညာ	-2178
▁အောက်ပါ	-2179
လှန်	-2180
ရွှေ့	-2181
▁စက္က	-2182
ုတ်တ	-2183
ဆိုင်း	-2184
▁တည်ရှိ	-2185
▁မို	-2186
မကြီး	-2187
▁ငှား	-2188
▁အတည်	-2189
▁စျေး	-2190
▁ကောင်မလေး	-2191
▁အမျိုးအစား	-2192
ယော	-2193
▁မှီ့	-2194
▁သာသနာ	-2195
▁အချင်းချင်း	-2196
▁U	-2197
▁ဝေ့	-2198
▁သက်တမ်း	-2199
▁ရှု	-2200
ation	-2201
ဖောင်း	-2202
ရယ်	-2203
▁တက်ရောက်	-2204
▁အဆင်မပြေ	-2205
▁ဘွဲ့	-2206
▁နည်းပညာ	-2207
▁အစည်းအဝေး	-2208
▁ကောင်းမွန်	-2209
▁ကြောင်း၊	-2210
▁အနီ	-2211
▁ခုန်	-2212
▁သနည်း	-2213
▁တစ်စုံ	-2214
il	-2215
▁နက်	-2216
ID	-2217
ညွတ်	-2218
ပျော်	-2219
▁ကျူး	-2220
▁အစဉ်	-2221
နိ	-2222
သင်း	-2223
▁ပြသ	-2224
▁ဉာဏ်	-2225
▁အပင်	-2226
ွှေး	-2227
▁ဖိတ်	-2228
▁ပိုင်ရှင်	-2229
▁ပုံမှန်	-2230
ကြုံ	-2231
▁စုစု	-2232
▁စော်	-2233
▁အေးချမ်း	-2234
၂၀	-2235
▁ယခင်	-2236
▁နှာ	-2237
▁၀၀၀	-2238
▁စိမ်း	-2239
▁စည်ပင်	-2240
ဆင့်	-2241
▁နွေ	-2242
▁CO	-2243
▁အစာ	-2244
▁အာရုံ	-2245
▁တောင်းပန်	-2246
ဆိတ်	-2247
ဒီယို	-2248
▁ပေတ	-2249
▁ဧရာဝတီ	-2250
▁ဥက္ကဋ္ဌ	-2251
▁း	-2252
လှိုင်	-2253
▁m	-2254
ဒါန်း	-2255
▁ပြုစု	-2256
▁လှည်း	-2257
▁အားကျ	-2258
▁အဆောက်အ	-2259
▁ကျမ်း	-2260
သေ့	-2261
▁အိပ်မက်	-2262
ဏ္ဍာ	-2263
ဘွား	-2264
▁အပျ	-2265
ရှောက်	-2266
▁ရှုပ်	-2267
မှမဟုတ်	-2268
▁နေကောင်း	-2269
▁အိမ်ထောင်	-2270
▁ချယ်	-2271
▁အင်တာ	-2272
▁နေမင်း	-2273
▁လက်တွေ့	-2274
အကျ	-2275
▁သောင်း	-2276
ခေါင်	-2277
ဗလ	-2278
စတာ	-2279
နိုး	-2280
▁ပေတလူ	-2281
VID	-2282
သန်	-2283
▁ငြင်း	-2284
▁ပြောင်	-2285
▁အနေအ	-2286
▁COVID	-2287
▁ပုဒ်မ	-2288
▁သင်္ဘော	-2289
▁နိ	-2290
▁လက္ခ	-2291
ခုံး	-2292
▁သန့်	-2293
▁အခွင့်အရေး	-2294
▁မနက်ဖြန်	-2295
▁မေးမြန်း	-2296
▁•	-2297
▁ဗဟို	-2298
မျ	-2299
ပမ်း	-2300
▁အလျ	-2301
▁အရစ်	-2302
မြိုင်	-2303
▁ညီလေး	-2304
▁တိုက်စစ်	-2305
ယောင်	-2306
▁စွန့်	-2307
▁ဦးလေး	-2308
▁နည်းလမ်း	-2309
▁စုစုပေါင်း	-2310
▁တိတ်	-2311
▁မနေ့	-2312
▁နောက်ကျ	-2313
လျား	-2314
▁ကဒ်	-2315
လှုပ်	-2316
▁ထိုက်	-2317
▁အောင်လတ်	-2318
တွက်	-2319
▁မြဲ	-2320
မောင်း	-2321
မီးယား	-2322
▁အလုပ်သမား	-2323
ပြတ်	-2324
▁တုန်	-2325
▁အံ့ဩ	-2326
မြစ်	-2327
ကျွန်	-2328
ခွင့်	-2329
▁ဇနီး	-2330
▁မလေး	-2331
▁အူဝဲ	-2332
▁ဝယ်ယူ	-2333
ဖွား	-2334
▁ခါး	-2335
▁ပါဒ	-2336
ခြောက်	-2337
သောင်း	-2338
▁ချိုး	-2339
▁ရပ်တည်	-2340
▁အမိန့်	-2341
▁ဇာ	-2342
▁အရင်း	-2343
▁သဘောထား	-2344
လန်း	-2345
▁ကုသ	-2346
အောက်	-2347
▁ပမာဏ	-2348
▁အကြား	-2349
▁အာမခံ	-2350
▁တက	-2351
▁မြင့်	-2352
▁အကူအ	-2353
ပိတ်	-2354
▁အညီ	-2355
ကိုင်း	-2356
▁လက်ထက်	-2357
th	-2358
▁အခက်အ	-2359
▁အကူအညီ	-2360
▁အထောက်အထား	-2361
ရောပ	-2362
▁သက်ဆိုင်ရာ	-2363
လူး	-2364
ထွင်	-2365
▁ကင်	-2366
▁ကွက်	-2367
▁ဘင်္ဂ	-2368
▁~	-2369
▁ကုန်း	-2370
▁ယောင်	-2371
ol	-2372
▁ခို	-2373
▁တတိယ	-2374
ဝ်	-2375
▁ဟဲ	-2376
▁မည်သူ	-2377
▁ဥရောပ	-2378
▁ဆရာကြီး	-2379
▁နှစ်သက်	-2380
▁ဒါမှမဟုတ်	-2381
▁😄	-2382
ရှုံး	-2383
ယျာ	-2384
▁၂၁	-2385
▁ညှိ	-2386
ဂတ်	-2387
သျှ	-2388
ကြန်	-2389
▁ရယူ	-2390
ဖောက်	-2391
▁အပေါင်း	-2392
▁အဘိုးကြီး	-2393
ဟာရ	-2394
▁အထဲ	-2395
▁ချို	-2396
စ္ဆာန်	-2397
▁တစ်စုံတစ်	-2398
re	-2399
ငွေ့	-2400
▁ဥပမာ	-2401
▁အခက်အခဲ	-2402
▁လိုး	-2403
▁အသည်း	-2404
▁အလိုက်	-2405
▁ဝန်ကြီးချုပ်	-2406
▁စိ	-2407
▁ကစ်ကစ်	-2408
▁ရင်ဆိုင်	-2409
▁ခန္ဓာ	-2410
ဒီပ	-2411
ည်းစား	-2412
▁လိုက်နာ	-2413
▁လှူဒါန်း	-2414
▁ရှစ်	-2415
ဝှ	-2416
▁ဖမ်းဆီး	-2417
ဗြ	-2418
▁တရားရုံး	-2419
▁မှတ်တမ်း	-2420
ယု	-2421
မြူ	-2422
▁အနှ	-2423
▁စို့	-2424
ဟောင်း	-2425
▁အိမ်ရှင်	-2426
▁K	-2427
▁နို့	-2428
▁ဆာ	-2429
▁ဗျို့	-2430
▁ဆိုင်း	-2431
...	-2432
တ္ထ	-2433
ဂိမ်း	-2434
▁အမှား	-2435
▁ပရီး	-2436
▁ဝန်း	-2437
ဂျာ	-2438
ကြမ်း	-2439
▁သေဒဏ်	-2440
▁အပိုင်း	-2441
▁ကတိ	-2442
စိမ်း	-2443
▁ရွှေ့	-2444
▁%	-2445
စေ့	-2446
▁စပ	-2447
ရိပ်	-2448
ရွေး	-2449
▁သုံးသပ်	-2450
▁ပရီးမီးယား	-2451
ဂျီ	-2452
ဖျက်	-2453
▁ရေးဆွဲ	-2454
▁ရည်းစား	-2455
▁ကြိုးပမ်း	-2456
ခွက်	-2457
ုပ်နှံ	-2458
▁အများဆုံး	-2459
ဂုံ	-2460
▁ဖခင်	-2461
▁ဆီးဂိမ်း	-2462
ချော	-2463
▁အယူ	-2464
▁ရွတ်	-2465
▁လီဗာ	-2466
▁ကကျွမ်း	-2467
▁မုန်း	-2468
ညား	-2469
▁အရစ်ကျ	-2470
▁အနေအထား	-2471
▁ပြည့်စုံ	-2472
ခို	-2473
ဆစ်	-2474
▁၂၂	-2475
ငြိမ်း	-2476
▁စာမေး	-2477
▁လက်ဖက်	-2478
▁ခန်းမ	-2479
▁အလကား	-2480
▁ကြောင်	-2481
တောက်	-2482
▁အပြည့်	-2483
▁ထု	-2484
▁ရဟ	-2485
▁ကဏ္ဍ	-2486
▁ဖြည့်	-2487
▁ဘုန်းကြီး	-2488
▁စသ	-2489
▁ဟီး	-2490
▁ဒဏ်ရာ	-2491
▁ဇာတ်လမ်း	-2492
အတူ	-2493
▁ခဲ	-2494
▁လျှပ်	-2495
▁ရွေးကောက်	-2496
▁မှတ်မိ	-2497
▁သုတ	-2498
▁စုံစမ်း	-2499
ကီ	-2500
နတ်	-2501
ပံ့	-2502
▁၀၉	-2503
ဖြစ်	-2504
▁ဝင်း	-2505
ဠာ	-2506
ter	-2507
▁လိပ်စာ	-2508
▁သတ္တဝါ	-2509
▁ထုတ်ပေး	-2510
▁စာမေးပွဲ	-2511
ကဲ	-2512
ခုန်	-2513
အနား	-2514
▁အတု	-2515
▁တရားဝင်	-2516
နှောက်	-2517
▁လက်ထပ်	-2518
▁စာရေးဆရာ	-2519
▁အကြိုက်ဆုံး	-2520
ဂို	-2521
ခြည်	-2522
▁ပြည်ပ	-2523
▁အောင်ဆန်း	-2524
▁တခါ	-2525
ပိုက်	-2526
▁အကြမ်း	-2527
▁ကုသိုလ်	-2528
▁ခရီးသွား	-2529
သင့်	-2530
as	-2531
ဗီ	-2532
သေး	-2533
ch	-2534
▁😏	-2535
▁ဘိုး	-2536
iv	-2537
ဘင်	-2538
လွတ်	-2539
ဝါဒ	-2540
ရာတွင်	-2541
▁ဦးထင်	-2542
▁ငွေကြေး	-2543
▁သို့ရာတွင်	-2544
အင်	-2545
▁အဖွဲ့ချုပ်	-2546
un	-2547
ကြော	-2548
ချိုး	-2549
▁အများစု	-2550
တူး	-2551
▁ဆုံ	-2552
▁နောက်ပိုင်း	-2553
▁ဖယ်	-2554
▁နယ	-2555
▁စောစော	-2556
▁မင်းကြီး	-2557
▁ဦးနှောက်	-2558
ဝက်	-2559
တ္တရာ	-2560
▁ထို့ကြောင့်	-2561
▁ရှား	-2562
▁ကစ်လေး	-2563
▁အင်္ဂလန်	-2564
လွဲ	-2565
ဌာန်း	-2566
▁ကချင်	-2567
▁မော်လ	-2568
▁ခြင်း၊	-2569
▁တီထွင်	-2570
▁ရိုးရာ	-2571
▁ဦးထင်ကျော်	-2572
▁မူလ	-2573
▁ကန့်	-2574
▁ဒီပါ	-2575
▁ချိတ်	-2576
▁ဂျင်း	-2577
▁နယ်မြေ	-2578
▁လက္ခဏာ	-2579
▁ခွဲခြား	-2580
▁ဒေါ်ခင်	-2581
ဥတု	-2582
▁ရုတ်တ	-2583
ဝှက်	-2584
▁😌	-2585
ံသာ	-2586
▁စူး	-2587
ကြိုး	-2588
▁ကျိုး	-2589
▁သုံးစွဲ	-2590
▁ဂီ	-2591
▁ဧက	-2592
ယှက်	-2593
▁စီရင်	-2594
▁အတွေ့	-2595
▁လင်္ကာ	-2596
▁သားတော်	-2597
မက	-2598
ယစ်	-2599
▁ချမှတ်	-2600
ဖို	-2601
ပိုင်ခွင့်	-2602
▁အကြောင်းအရာ	-2603
ဘိ	-2604
▁ငယ်ငယ်	-2605
ါတ်	-2606
▁သန့်	-2607
▁မောင့်	-2608
▁မှန်ကန်	-2609
လု	-2610
▁အာကာသ	-2611
▁အနာဂတ်	-2612
▁ထူးခြား	-2613
ရာဇ်	-2614
နောင်	-2615
▁ဒီဇင်	-2616
▁ကြိုဆို	-2617
တက	-2618
မှုံ	-2619
▁ဒီဇင်ဘာ	-2620
ိမ့်	-2621
▁၂၀၁၈	-2622
▁သင်္ကြန်	-2623
▁–	-2624
▁ထပ်တူ	-2625
စကား	-2626
ဘုရား	-2627
သူကြီး	-2628
နှိုင်း	-2629
▁ကော်ဖီ	-2630
▁ရာသီဥတု	-2631
လှစ်	-2632
▁လိုင်	-2633
▁မူးယစ်	-2634
ရိုနာ	-2635
▁သုတေသ	-2636
▁တပ	-2637
▁၄၀	-2638
ိန့်	-2639
▁ဇွန်	-2640
▁ကိုစိုင်းစိုင်း	-2641
ဖျား	-2642
▁ဒေသခံ	-2643
ယန်	-2644
ဝဠာ	-2645
▁ကျော	-2646
ဂီ	-2647
▁လောင်း	-2648
▁ပို့ပေး	-2649
▁အစားအစာ	-2650
▁ကိုရိုနာ	-2651
▁ကိုရီးယား	-2652
ကု	-2653
▁သက်သေ	-2654
▁နေ့စဉ်	-2655
▁လမ်းကြောင်း	-2656
ကြံ	-2657
သရေ	-2658
ဆောင်း	-2659
▁မိတ္တ	-2660
▁အားကိုး	-2661
အုံ	-2662
ဓမ္မ	-2663
▁မုန်	-2664
▁အရူး	-2665
▁ခေါ်ယူ	-2666
▁ထွက်ခွာ	-2667
▁လူနာ	-2668
▁ဗိုက်	-2669
▁ရုတ်တရက်	-2670
ဖြည်းဖြည်း	-2671
▁b	-2672
ကြပ်	-2673
▁ခုံ	-2674
▁မဂ္ဂ	-2675
▁ဖြည့်	-2676
နမ်	-2677
ပယ်	-2678
▁နယူး	-2679
▁ခုနစ်	-2680
▁လီဗာပူး	-2681
ra	-2682
န်န	-2683
▁နစ်	-2684
▁သန်	-2685
▁သုတ်	-2686
▁တွန်း	-2687
▁ထပ်မံ	-2688
▁ကျော်ဇ	-2689
▁နှိပ်	-2690
▁ရု	-2691
▁ဖုံး	-2692
▁မြိုင်	-2693
ညစ်	-2694
နော်	-2695
▁ငေး	-2696
▁နက္ခ	-2697
ဋ်	-2698
▁👏	-2699
တေး	-2700
▁အားနည်း	-2701
▁ချည်	-2702
ရိုင်း	-2703
ချမ်းသာ	-2704
သန	-2705
▁မိတ္တူ	-2706
ဇ္	-2707
▁o	-2708
▁အရသာ	-2709
▁အာဆင်	-2710
▁စိတ်ပျက်	-2711
▁အကုန်လုံး	-2712
▁စွပ်	-2713
▁အားရ	-2714
▁သူဌေး	-2715
▁အတင်း	-2716
▁အာဆင်နယ်	-2717
▁ရင်းနှီးမြှ	-2718
▁ဒသမ	-2719
▁ပြုတ်	-2720
▁အပြန်	-2721
▁မောင်လေး	-2722
▁ပေါ်ပေါက်	-2723
ကျူး	-2724
ဒေဝီ	-2725
မတန်	-2726
▁အဘယ်	-2727
▁ကွယ်လွန်	-2728
▁ချမ်းမင်း	-2729
▁ရွေးကောက်ပွဲ	-2730
ွှန်း	-2731
▁အပို	-2732
▁သာမန်	-2733
▁လျှပ်စစ်	-2734
ချေ	-2735
အပြင်	-2736
▁အဘွား	-2737
▁W	-2738
လေ့	-2739
ပြည့်	-2740
▁အဖြူ	-2741
▁ခက်ခဲ	-2742
▁တကယ့်	-2743
**	-2744
▁ပျံ	-2745
အမှတ်	-2746
▁နှုတ်ဆက်	-2747
▁ဆုံးရှုံး	-2748
▁တောင်ကြီး	-2749
ီးယား	-2750
▁စာတမ်း	-2751
▁ဖြစ်စဉ်	-2752
▁လွတ်မြောက်	-2753
▁တဖြည်းဖြည်း	-2754
▁ဒြ	-2755
▁တေး	-2756
▁တိုက်ရိုက်	-2757
▁လူကြီးမင်း	-2758
▁လုပ်ငန်းစဉ်	-2759
အထည်	-2760
▁ရေခဲ	-2761
▁သီတာ	-2762
▁ဟိုတယ်	-2763
▁တပ်ဖွဲ့	-2764
အကြုံ	-2765
▁အကြာ	-2766
▁အုတ်	-2767
▁ဧည့်	-2768
▁ပေးအပ်	-2769
ရုပ်	-2770
▁ညစ်	-2771
▁ဘာစီ	-2772
▁အစစ်	-2773
▁စာရွက်	-2774
▁အင	-2775
▁၂၄	-2776
▁စိတ်ချ	-2777
မင်းမြတ်	-2778
ed	-2779
ဋိ	-2780
▁သည်း	-2781
▁လမ်းလျှောက်	-2782
▁ဆိုလို	-2783
▁မဂ္ဂဇင်း	-2784
▁ဒါ့	-2785
▁ပဲခူး	-2786
▁ကကျွန်	-2787
ပြီ	-2788
▁ရွက်	-2789
▁အေးအေး	-2790
▁အတွေ့အကြုံ	-2791
▁ရီး	-2792
ရစ္ဆာန်	-2793
▁ကျား	-2794
▁တိမ်	-2795
▁ဘေလ်	-2796
▁ဝါသနာ	-2797
▁😚	-2798
ရင့်	-2799
▁ဇန်န	-2800
▁ဇန်နဝါရီ	-2801
ကေ	-2802
ကြဝဠာ	-2803
▁ခံတပ်	-2804
ကဲ့သို့	-2805
▁အမိန့်	-2806
▁မူပိုင်ခွင့်	-2807
id	-2808
မု	-2809
နူး	-2810
အိတ်	-2811
▁တူး	-2812
▁ဟံသာ	-2813
▁ဖိနပ်	-2814
▁အင်းဝ	-2815
▁ပြဌာန်း	-2816
▁ဘာစီလို	-2817
ယဉ်	-2818
▁၂၃	-2819
စက္က	-2820
▁သီလ	-2821
▁ကိုးကွယ်	-2822
ဖွယ်	-2823
မည်း	-2824
▁အလား	-2825
▁ကိုအောင်	-2826
▁ပြင်းထန်	-2827
▁ခန္ဓာကိုယ်	-2828
▁ဝတ်စုံ	-2829
▁လေ့ကျင့်ခန်း	-2830
▁ဖျော်	-2831
▁အနည်းဆုံး	-2832
▁O	-2833
▁ဘာစီလိုနာ	-2834
▁အပြောင်းအ	-2835
▁ညှိနှိုင်း	-2836
ဉ္စ	-2837
မကျ	-2838
▁သံသ	-2839
▁ဗညား	-2840
▁စတိုး	-2841
▁နှစ်သစ်	-2842
▁သကဲ့သို့	-2843
ဘ်	-2844
▁ကီ	-2845
ပေါ့	-2846
လိုင်	-2847
▁ပြား	-2848
▁အဆောင်	-2849
▁အားဖြင့်	-2850
ဆည်း	-2851
▁ရို	-2852
▁၁၉၉	-2853
▁သက်သက်	-2854
▁တစ်ခါတစ်	-2855
▁ထို့ကြောင့်	-2856
▁d	-2857
ဖြေ	-2858
▁ကုလ	-2859
▁မုန့်	-2860
▁လိုင်စင်	-2861
ထွေ	-2862
▁ရာစု	-2863
▁အနေဖြင့်	-2864
▁ဘုရင်မင်းမြတ်	-2865
==	-2866
ခွန်	-2867
▁လတ်	-2868
▁ထမ်း	-2869
▁နိုး	-2870
▁ဖျား	-2871
▁လူထု	-2872
▁ဧပြီ	-2873
▁အိပ်ရာ	-2874
▁ကျက်သရေ	-2875
▁တိရစ္ဆာန်	-2876
▁ကျေးဇူးပြု	-2877
မြား	-2878
လီဂါ	-2879
မိုက်	-2880
▁ခရို	-2881
▁ဟံသာဝတီ	-2882
မြဲ	-2883
သန့်	-2884
▁အရိပ်	-2885
▁မျောက်	-2886
▁လိုလို	-2887
▁ဒေါ်လေး	-2888
▁😪	-2889
▁သံဃ	-2890
တုန်း	-2891
▁ပြောင်းရွှေ့	-2892
▁စစ်ပွဲ	-2893
▁စစ်သည်	-2894
▁တစ်ဖက်	-2895
▁ကြီးကြီး	-2896
ပိ	-2897
သိမ်	-2898
▁ကောင်းကင်	-2899
▁မောင်မောင်	-2900
ရ်	-2901
▁အခမ်း	-2902
▁အကျဉ်း	-2903
▁မလေးရှား	-2904
▁ကကျွမ်းကျင်	-2905
ဇီ	-2906
▁ရိုင်း	-2907
▁အကြောင်းကြား	-2908
▁ခတ်	-2909
▁ညောင်	-2910
▁ပွဲတော်	-2911
တကျ	-2912
▁၂၇	-2913
▁စကြဝဠာ	-2914
▁အင်ဒို	-2915
▁တစ်လျှောက်	-2916
▁အခွင့်အရေး	-2917
တရ	-2918
ဆတ်	-2919
လဒ်	-2920
▁ဆပ်	-2921
▁စာဖတ်	-2922
▁ဆွေ	-2923
▁အမေ့	-2924
▁ဖြုတ်	-2925
▁ရဟန်း	-2926
ဟေ	-2927
ဏ္ဏ	-2928
ကွန်း	-2929
▁လူဦး	-2930
▁အခမ်းအနား	-2931
ဝံ	-2932
▁ကျင့်	-2933
▁လှည့်	-2934
ိုးရိုး	-2935
ထုပ်	-2936
မှုန်	-2937
▁ခံယူ	-2938
▁ထုံး	-2939
▁သတဲ့	-2940
▁ဆိုက်	-2941
▁တင်သွင်း	-2942
▁ဓမ္မ	-2943
▁ဂူ	-2944
ပစ္စ	-2945
▁ခြား	-2946
▁နံရံ	-2947
▁မြွေ	-2948
▁ညီညွတ်	-2949
▁ဖြေဆို	-2950
▁တည်ငြိမ်	-2951
▁ရိုးရိုး	-2952
ပါယ်	-2953
▁ဇော်	-2954
▁တအား	-2955
▁အပြော	-2956
▁ဝင်ငွေ	-2957
▁ဆေးလိပ်	-2958
ထုံး	-2959
အန္တ	-2960
▁စိစစ်	-2961
▁အရှိန်	-2962
ကျန်	-2963
▁ရလဒ်	-2964
▁သေသေ	-2965
▁ခွင့်ပြု	-2966
အောင်ဆန်း	-2967
▁😀	-2968
ဗ္ဗ	-2969
▁အံ	-2970
▁ကြွ	-2971
▁ဒုံး	-2972
▁ဖွေး	-2973
အန္တရာယ်	-2974
▁ထိရောက်	-2975
▁ဖြတ်သန်း	-2976
▁လက်ဖက်ရည်	-2977
▁တိုက်စစ်မှူး	-2978
▁❤️	-2979
ကျွတ်	-2980
▁အရေအ	-2981
▁ရွာသား	-2982
▁အင်မတန်	-2983
▁လင်္ကာဒီပ	-2984
ယ့်	-2985
▁စရိတ်	-2986
▁အသိပေး	-2987
ကျက်	-2988
▁တစ်သက်	-2989
▁လွှမ်း	-2990
▁ဖျက်ဆီး	-2991
▁အတည်ပြု	-2992
▁ကြည့်ရှု	-2993
▁လိုက်ဖက်	-2994
ဂူ	-2995
▁အရေအတွက်	-2996
▁ထောက်ခံစာ	-2997
နို	-2998
အာ	-2999
▁၂၆	-3000
အိုး	-3001
▁လူဦးရေ	-3002
▁အပြုံး	-3003
ဂုတ်	-3004
▁အသေးစိတ်	-3005
▁စစ်ကိုင်း	-3006
▁အကောင်အထည်	-3007
▁ဘေးအန္တရာယ်	-3008
တေ	-3009
ဂါး	-3010
ခြင်	-3011
ဘော်	-3012
▁ပယ်	-3013
▁လက်မခံ	-3014
▁အမှိုက်	-3015
▁အရည်အချင်း	-3016
ct	-3017
ကတ်	-3018
▁တဲ	-3019
ယျာဉ်	-3020
▁စစ်သား	-3021
▁f	-3022
တိတ်	-3023
▁---	-3024
ချာချာ	-3025
▁ထောက်ပံ့	-3026
ခက်	-3027
ဒန်	-3028
▁ရာထူး	-3029
▁အထူးသ	-3030
▁နယ်စပ်	-3031
▁နီးပါး	-3032
▁ခိုင်လုံ	-3033
ဟင်း	-3034
▁ကျန်ရစ်	-3035
▁စမ်းသပ်	-3036
▁အသီးသီး	-3037
▁ဆောက်လုပ်	-3038
▁သတင်းထောက်	-3039
▁စိတ်ချမ်းသာ	-3040
▁မော်လမြိုင်	-3041
ပွင့်	-3042
▁နေနေ	-3043
▁အတတ်	-3044
ားကြီး	-3045
▁ဒိုင်	-3046
မကောင်း	-3047
▁ဂေါ	-3048
▁စေ့	-3049
▁ခန့်ခွဲ	-3050
▁သီတာဒေဝီ	-3051
▁မြို့နယ်၊	-3052
က်စ်	-3053
စန်း	-3054
မော်	-3055
လန့်	-3056
▁နို	-3057
▁ပြာ	-3058
▁သရက်	-3059
▁ဟောင်	-3060
▁မြေကွက်	-3061
ul	-3062
▁ဝဲ	-3063
ိတိ	-3064
နေဗလ	-3065
▁ညို	-3066
▁ကြံ့	-3067
▁ခုတ်	-3068
▁လောင်	-3069
▁မိတ်ကပ်	-3070
▁အစီ	-3071
▁ရှေ့နေ	-3072
▁နှင်းဆီ	-3073
▁ပျောက်ဆုံး	-3074
မဏ	-3075
▁ပဋိ	-3076
ချက်ဖောင်း	-3077
▁ကော်မရှင်	-3078
▁ထိန်းချုပ်	-3079
စ္ဆ	-3080
နော	-3081
ကွေး	-3082
မြေ့	-3083
▁၁၉၈	-3084
ပစ္စည်း	-3085
▁ဆား	-3086
▁သရေ	-3087
▁၁၉၄	-3088
▁ဒေါ်စု	-3089
▁ဦးချက်ဖောင်း	-3090
▁အသာ	-3091
▁၅၀၀	-3092
▁မြား	-3093
ဝ်နေဗလ	-3094
▁စာသား	-3095
▁ထုတ်ဝေ	-3096
တော်ကြီး	-3097
▁လက်ရွေး	-3098
▁အမှန်တရား	-3099
▁♥	-3100
တွယ်	-3101
▁ကရင်	-3102
လော့	-3103
▁သတ္တိ	-3104
▁တခု	-3105
▁အမွေ	-3106
▁ဧည့်	-3107
▁တိုက်တွန်း	-3108
ညံ့	-3109
ဘူး	-3110
ဟန်	-3111
ထိပ်	-3112
လူထု	-3113
▁ဖွဲ့စည်းပုံ	-3114
လျင်	-3115
ဘိသန	-3116
သန့်	-3117
▁ခင်း	-3118
▁ချွေး	-3119
▁ဩဂုတ်	-3120
▁ပစ်ခတ်	-3121
▁ဘိဘိသန	-3122
▁ရအောင်	-3123
▁ထွက်ပြေး	-3124
▁တရားသူကြီး	-3125
▁သေသေချာချာ	-3126
အင်း	-3127
ဖုရား	-3128
▁ဂိတ်	-3129
▁ရိပ်	-3130
▁သမိန်စက္က	-3131
▁ရူ	-3132
▁ဆင့်	-3133
▁ဆုံးမ	-3134
ောင်းအဝယ်	-3135
▁လက်ရွေးစင်	-3136
▁အရောင်းအဝယ်	-3137
▁Ch	-3138
▁ဒူး	-3139
▁ဝန်ခံ	-3140
▁အကျင့်	-3141
ဃု	-3142
ဝိ	-3143
ဃုပတိ	-3144
နှိပ်	-3145
ယောက်	-3146
▁နေ့လယ်	-3147
▁လုပ်ရပ်	-3148
▁ခြေထောက်	-3149
ity	-3150
ရထား	-3151
▁ခရစ်	-3152
▁အလုံး	-3153
▁မျှော်လင့်	-3154
▁သမိန်စက္ကဝတ်	-3155
os	-3156
ဖ်	-3157
ဟို	-3158
▁အစု	-3159
▁ဆွတ်	-3160
▁လုပ်ငန်းရှင်	-3161
and	-3162
တကွ	-3163
ချပ်	-3164
▁တူညီ	-3165
▁ပြို	-3166
▁ဘတ်စ်	-3167
▁အရေးပါ	-3168
▁အိုင်ရင်း	-3169
▁ကတ်	-3170
▁ဂျူ	-3171
▁ညည်း	-3172
▁နေအိမ်	-3173
▁အစိမ်း	-3174
▁ဂီတ	-3175
▁....	-3176
▁သဘင်	-3177
▁စွန့်	-3178
▁ရုန်း	-3179
▁သဘောပေါက်	-3180
▁ပြည်သူလူထု	-3181
ကျပ်	-3182
▁ရော်	-3183
▁ရာမ	-3184
ပြုတ်	-3185
▁အဆက်	-3186
▁အားမ	-3187
▁သွားလာ	-3188
▁နှုတ်ခမ်းနီ	-3189
တတ်	-3190
▁ပက်	-3191
ယွင်း	-3192
▁သံဃာ	-3193
စီးတီး	-3194
▁မူတည်	-3195
▁စက်ရုံ	-3196
▁ဘာသာပြန်	-3197
▁အဆောက်အအုံ	-3198
▁ဗြိတိ	-3199
▁တည်ထောင်	-3200
▁နှင့်အတူ	-3201
▁သူတောင်း	-3202
ထိ	-3203
▁စပိန်	-3204
▁စာသင်	-3205
▁နှိုင်း	-3206
▁ဗိုလ်မှူး	-3207
▁အကြမ်းဖက်	-3208
မာန်	-3209
လို့	-3210
▁စင်း	-3211
▁ရုရှား	-3212
▁မိဖုရား	-3213
▁ဒါပေမယ့်	-3214
▁ဘာသာစကား	-3215
▁ဆောင်းပါး	-3216
▁သူတောင်းစား	-3217
▁အကောင်အထည်ဖော်	-3218
▁😅	-3219
▁ဂရုမ	-3220
oo	-3221
▁J	-3222
▁ပရ	-3223
▁၁၉၆	-3224
ဘုန်း	-3225
စုကြည်	-3226
▁သတိပေး	-3227
ရမ်	-3228
သင့်	-3229
▁အသေ	-3230
ဝိုက်	-3231
ွေထွေ	-3232
ခကျွန်	-3233
▁နိန္ဒ	-3234
▁တရားခံ	-3235
ပြည့်	-3236
▁ဖွား	-3237
▁အဖေ့	-3238
▁ရိုးသား	-3239
▁ကောင်လေး	-3240
▁ဗြိတိသျှ	-3241
im	-3242
▁ဣ	-3243
ဂန်	-3244
ပျံ	-3245
ဲလ်	-3246
▁ပန်	-3247
▁တနင်္	-3248
▁အနှစ်	-3249
▁လောလော	-3250
em	-3251
ေန	-3252
၅၀	-3253
မှောက်	-3254
▁ကျင့်	-3255
▁မက်ဆီ	-3256
▁အဖိုး	-3257
▁မူးယစ်ဆေး	-3258
▁In	-3259
▁သုခ	-3260
▁ကြေကွဲ	-3261
▁သိက္ခာ	-3262
▁ခရီးသည်	-3263
▁အဝတ်အစား	-3264
ag	-3265
▁စုတ်	-3266
▁မယား	-3267
ပ္ပါယ်	-3268
ပြောင်	-3269
▁လှိုင်	-3270
▁အတိ	-3271
▁အစော	-3272
▁ကြွက်	-3273
▁အတန်း	-3274
▁အဖို့	-3275
▁အကြီးအ	-3276
▁ဥယျာဉ်	-3277
▁ပေးပို့	-3278
တနော်	-3279
တ္တိ	-3280
စခန်း	-3281
မောက်	-3282
▁နောက်ပြီး	-3283
▁လောလောဆယ်	-3284
ညံ	-3285
▁စတု	-3286
▁ကီလို	-3287
▁ခိုက်	-3288
▁ဖြန့်	-3289
▁အရိုး	-3290
▁မှောင်	-3291
▁မကြာခင်	-3292
▁of	-3293
လိုး	-3294
▁ဟဲ့	-3295
နှင်း	-3296
▁အစိတ်	-3297
▁ဆင်ခြင်	-3298
▁မန်စီးတီး	-3299
အပြား	-3300
▁ဘူတာ	-3301
▁သမင်	-3302
▁အအေး	-3303
▁ဘဏ္ဍာ	-3304
▁သေနတ်	-3305
နီးရှား	-3306
▁ဆက်စပ်	-3307
▁ခရီးစဉ်	-3308
▁တစ်စုံတစ်ရာ	-3309
ထာ	-3310
ဉာဏ	-3311
ဖွေး	-3312
▁သာမက	-3313
▁သွယ်	-3314
တ္တရာယ	-3315
ိုင်နယ်	-3316
▁ရာဇဝတ်	-3317
▁ချီးမြှ	-3318
▁စိတ်ထား	-3319
▁မြို့ပြ	-3320
▁ကျူးလွန်	-3321
ပံ	-3322
ွီ	-3323
▁ဖွတ်	-3324
လိုင်း	-3325
▁အသွင်	-3326
▁ဂရုမစိုက်	-3327
▁နက္ခတ္တရာယ	-3328
▁ဆော့	-3329
▁ရဲမက်	-3330
▁ရှေးဟောင်း	-3331
▁အရှေ့တောင်	-3332
ဆု	-3333
▁လက်ရာ	-3334
▁စောက်ရူး	-3335
▁နှလုံးသား	-3336
ပဲ	-3337
▁😎	-3338
▁ယုတ်	-3339
▁ရွေ့	-3340
▁သင်ယူ	-3341
▁မီးလောင်	-3342
▁များများ	-3343
အလာ	-3344
ဌာန်	-3345
▁မွတ်	-3346
စာတမ်း	-3347
ညွှန်း	-3348
▁ကွမ်း	-3349
▁ခရစ္စ	-3350
▁ပွင့်	-3351
▁ဗီယက်	-3352
▁ပုသိမ်	-3353
▁သစ်တော	-3354
▁စော်ကား	-3355
▁ဘုံ	-3356
▁ဝေါ	-3357
ညွှန်	-3358
ရှိန်	-3359
လျော်	-3360
စောင်း	-3361
▁စာလုံး	-3362
▁ဘတ်စ်ကား	-3363
▁အထက်တန်း	-3364
ig	-3365
ဟိ	-3366
▁လက်မ	-3367
▁အင်္ဂါ	-3368
▁ချမ်းမြေ့	-3369
▁ဒေါ်အောင်ဆန်း	-3370
▁အင်ဒိုနီးရှား	-3371
ပင်း	-3372
ကျန်း	-3373
▁ထန်း	-3374
▁ရင်ခုန်	-3375
▁ကံစမ်းမဲ	-3376
ှာ	-3377
▁ဓာ	-3378
ခေါက်	-3379
▁သူရဲ	-3380
▁တည်းက	-3381
မြောင်း	-3382
ို့ဝှက်	-3383
▁တစ်ဆင့်	-3384
▁ဗီဒီယို	-3385
um	-3386
▁Th	-3387
▁ပိန်	-3388
▁ဦးတင်	-3389
▁ထိုစဉ်	-3390
▁မကြာခဏ	-3391
▁အထွေထွေ	-3392
▁ဗီယက်နမ်	-3393
နွေ	-3394
▁ဘဘ	-3395
▁မအ	-3396
ဗြားကြီး	-3397
▁ချစ်ခင်	-3398
▁တိုင်ပင်	-3399
▁စောင့်ရှောက်	-3400
▁လုပ်ငန်းခွင်	-3401
▁၂၈	-3402
▁၆၀	-3403
▁ငတ်	-3404
ပျူတာ	-3405
▁ဆန့်	-3406
▁လမ်းမ	-3407
▁ဦးရီး	-3408
▁ကျောင်းသူ	-3409
▁အဓိပ္ပါယ်	-3410
op	-3411
us	-3412
ခေ	-3413
ထီး	-3414
▁ဆုပ်	-3415
▁သနပ်	-3416
တစ်ပါး	-3417
ပျောက်	-3418
▁သုတေသန	-3419
▁ကွန်ပျူတာ	-3420
▁မသ	-3421
န္တာ	-3422
▁ဘန်	-3423
ကန်း	-3424
င်္ဂနွေ	-3425
▁တွေ့မြင်	-3426
▁ခန့်မှန်း	-3427
ချ်	-3428
ဂတိ	-3429
ဒနာ	-3430
▁''	-3431
▁ဇီ	-3432
ဇာတ်	-3433
▁နင်း	-3434
▁နီးစပ်	-3435
▁ဦးကျော်	-3436
▁လုံလောက်	-3437
▁ဦးရီးတော်	-3438
▁၀၁	-3439
▁၂၉	-3440
ရွတ်	-3441
▁စိတ်ညစ်	-3442
▁မှန်မှန်	-3443
▁လီဗာပူးလ်	-3444
▁အရည်အသွေး	-3445
▁ပိ	-3446
▁မမမြ	-3447
▁အစုံ	-3448
▁အားနာ	-3449
▁စက်မှု	-3450
▁ကြုံတွေ့	-3451
▁ဝန်းကျင်	-3452
▁တနင်္ဂနွေ	-3453
▁ဖွင့်လှစ်	-3454
▁ကိုယ်ချင်း	-3455
ပွ	-3456
▁အငြ	-3457
တင်းပ	-3458
▁တည့်	-3459
▁ပရို	-3460
▁အပြာ	-3461
▁အန်တီ	-3462
▁ချောက်	-3463
▁ကုန်သွယ်	-3464
▁ကြည့်ရှု	-3465
▁မြင်ကွင်း	-3466
▁ဦးဗြားကြီး	-3467
▁😉	-3468
တွေ	-3469
▁၄၅	-3470
▁ရေကူး	-3471
▁သားလေး	-3472
▁ကြည်နူး	-3473
▁စနစ်တကျ	-3474
▁ထွက်သွား	-3475
ဟဲ	-3476
▁ဒေ	-3477
▁ဟိ	-3478
▁အဆီ	-3479
ိုက်အ	-3480
▁မွန်း	-3481
▁အရုပ်	-3482
▁စိတ်ပူ	-3483
▁ဈေးကွက်	-3484
▁မျိုးနွယ်	-3485
▁လျှို့ဝှက်	-3486
▁😡	-3487
ဒင်	-3488
ခွေး	-3489
ဒေါ်	-3490
င်္သေ့	-3491
▁အစွမ်း	-3492
▁ချီးကျူး	-3493
▁များပြား	-3494
▁အပူချိန်	-3495
ဗစ်	-3496
▁အဝ	-3497
လွယ်	-3498
▁ထုတ်ယူ	-3499
▁ပူဇော်	-3500
▁မြို့၊	-3501
▁နောက်ခံ	-3502
▁ခွင့်ပြု	-3503
▁သဘောတူညီ	-3504
▁သမ္မတကြီး	-3505
▁စနေ	-3506
▁နှမ	-3507
▁တုံ့	-3508
▁အရေးအ	-3509
▁မြှောက်	-3510
▁စောင့်ကြည့်	-3511
တလီ	-3512
ရာဇ	-3513
▁ကြိတ်	-3514
▁ခြေစွမ်း	-3515
▁ပေါက်ကွဲ	-3516
▁ထောက်လှမ်း	-3517
နံ့	-3518
လီယံ	-3519
▁အတန်	-3520
▁မမမြတ်	-3521
▁လွှင့်	-3522
▁ခြင်္သေ့	-3523
ers	-3524
သမဂ္ဂ	-3525
▁ဦးစား	-3526
▁ကွဲပြား	-3527
▁ရပ်ကွက်၊	-3528
ay	-3529
▁😔	-3530
နီယာ	-3531
သာယာ	-3532
▁ဆုတ်	-3533
▁ဓါတ်	-3534
▁တပည့်	-3535
▁ဖောင်း	-3536
▁ဘဲကြီး	-3537
▁ဦးအောင်	-3538
▁မွ	-3539
▁ဆည်	-3540
ကျင့်	-3541
▁ဓာတု	-3542
▁လူပျို	-3543
▁သနပ်ခါး	-3544
▁အင်ဂျင်	-3545
▁မှတ်ချက်	-3546
▁ဆွေးနွေးပွဲ	-3547
▁အားကစားသမား	-3548
ဘုတ်	-3549
▁ရစ်	-3550
▁၁၉၇	-3551
▁ခြုံ	-3552
▁ရီးယ	-3553
▁ဖိလစ်	-3554
▁လိုလား	-3555
▁အတိုင်	-3556
▁ဂုဏ်ပြု	-3557
▁စံချိန်	-3558
ad	-3559
▁V	-3560
ချဲ့	-3561
လိဂ်	-3562
▁ရော့	-3563
▁ရဲတပ်	-3564
▁ဝေဒနာ	-3565
▁ဂျာနယ်	-3566
▁တောင်သူ	-3567
▁တုံး	-3568
▁ရသေ့	-3569
▁ဆွမ်း	-3570
▁အီတလီ	-3571
▁မိတနော်	-3572
▁ဟဟ	-3573
ဝမ်း	-3574
ဝှေ့	-3575
▁တယ်လီ	-3576
▁မကွေး	-3577
▁လည်ပတ်	-3578
▁ကုလသမဂ္ဂ	-3579
▁နှာခေါင်း	-3580
▁ဖူ	-3581
▁ဖား	-3582
▁၀၀၁	-3583
လ်ဆီး	-3584
▁ပွတ်	-3585
▁၂၀၁၇	-3586
▁ကွင်းလယ်	-3587
▁သန့်ရှင်း	-3588
▁ဇူ	-3589
ရင့်	-3590
လိမ်	-3591
▁ယော	-3592
▁ညွန့်	-3593
▁ချိန်း	-3594
▁စာကြည့်	-3595
ဖာ	-3596
လျဉ်း	-3597
▁မြည်	-3598
▁ကမ္ဘော	-3599
▁ဝါးဘတ်	-3600
▁ဘစိုင်း	-3601
▁စပ်လျဉ်း	-3602
▁ဖုန်းဆက်	-3603
▁စွမ်းဆောင်	-3604
ard	-3605
ူဟာ	-3606
ဏန်း	-3607
▁အမဲ	-3608
▁တစ်ရာ	-3609
▁ပုံလွှာ	-3610
▁အသုံးချ	-3611
▁မြတ်နိုး	-3612
▁ပို့ဆောင်	-3613
▁ဘူ	-3614
သခင်	-3615
ညှင်း	-3616
▁အမျှ	-3617
မျှော်	-3618
▁လူသတ်	-3619
▁အလျင်	-3620
▁ညီတော်	-3621
▁ကောင်စီ	-3622
▁ချယ်လ်ဆီး	-3623
▁စို	-3624
ျက်နှာ	-3625
▁ဆီမီး	-3626
▁ဖြေကြား	-3627
▁ပြီးဆုံး	-3628
ow	-3629
▁g	-3630
ငါး	-3631
တဲ့	-3632
▁ခွာ	-3633
▁ယူန	-3634
▁အမူ	-3635
▁မြက်	-3636
▁ကောင်မ	-3637
▁ဒေါင်း	-3638
▁ပညာရပ်	-3639
▁ရက်စက်	-3640
▁ကျရောက်	-3641
▁မွေးမြူ	-3642
▁စုဆောင်း	-3643
▁အလင်းရောင်	-3644
လ္	-3645
မဏိ	-3646
သုတ	-3647
ကာပူ	-3648
ဆို့	-3649
▁လော့	-3650
▁အတွဲ	-3651
▁အရှက်	-3652
ရိုက်တာ	-3653
▁လွယ်ကူ	-3654
▁ကုန်သည်	-3655
▁စုပေါင်း	-3656
▁မွေးဖွား	-3657
ot	-3658
▁t	-3659
ဘို	-3660
လိက	-3661
▁ဒီဇ	-3662
▁မုဒ	-3663
▁အရေ	-3664
▁ခဏခဏ	-3665
▁အပြု	-3666
▁စက္ကူ	-3667
▁အေးဆေး	-3668
▁ထူးဆန်း	-3669
▁ပြောပြော	-3670
▁ခွင့်လွှတ်	-3671
oc	-3672
ဆော်	-3673
▁စင်ကာပူ	-3674
▁မှတ်ထား	-3675
▁လယ်သမား	-3676
▁သက်ရောက်	-3677
▁အသိအမှတ်	-3678
▁ဗဟု	-3679
▁ခွန်	-3680
▁ခကျွတ်	-3681
▁ထိုင်ခုံ	-3682
ကိုး	-3683
▁ကျွဲ	-3684
▁ပုတ်	-3685
အေးရှား	-3686
▁တစ်ကိုယ်	-3687
ဒယ်	-3688
မ္ဘီ	-3689
▁ခွေ	-3690
▁ညံ့	-3691
▁သရဲ	-3692
▁သီအို	-3693
▁သောကြာ	-3694
▁ဖော်ထုတ်	-3695
▁သူရဲကောင်း	-3696
▁စာကြည့်တိုက်	-3697
ut	-3698
မွေ့	-3699
▁ရွံ	-3700
ိတိန်	-3701
▁သိမ်	-3702
▁စတိုင်	-3703
▁သမီးလေး	-3704
▁မြန်မြန်	-3705
▁St	-3706
▁မော့	-3707
▁အကွက်	-3708
▁အဆိပ်	-3709
▁အုန်း	-3710
▁ထားဝယ်	-3711
▁ဦးစားပေး	-3712
လဲ့	-3713
▁ခြင်	-3714
▁ပခုံး	-3715
▁ကိုင်း	-3716
▁ပြီးစီး	-3717
▁ရဲစခန်း	-3718
▁သင်ခန်း	-3719
▁အလောင်း	-3720
▁ကြာမြင့်	-3721
တမ်	-3722
ဘီစီ	-3723
▁အဘိ	-3724
▁တိတိ	-3725
▁ဧရိယာ	-3726
▁တားဆီး	-3727
▁ဒုက္ခသည်	-3728
▁ကိုကိုကျော်	-3729
▁ခရိုအေးရှား	-3730
ce	-3731
▁💕	-3732
▁🙏	-3733
ရှာ	-3734
▁လစ်	-3735
ဖုန်း	-3736
▁သခင်မ	-3737
▁ဦးတည်	-3738
▁နာကျင်	-3739
▁ကာတွန်း	-3740
▁ကိုက်ညီ	-3741
▁ဗြိတိန်	-3742
▁သီအိုရီ	-3743
▁ကိုယ်ဝန်	-3744
▁တစ်ခါတစ်ရံ	-3745
▁ဖိလစ်ပိုင်	-3746
▁‘	-3747
စွန်း	-3748
▁----	-3749
▁သတည်း	-3750
▁ရဲတပ်ဖွဲ့	-3751
▁ဟာသ	-3752
ကျင်း	-3753
▁၁၀၀၀	-3754
▁ထွက်ပေါ်	-3755
▁💦	-3756
▁ဗိ	-3757
▁သီးခြား	-3758
▁ထို့ပြင်	-3759
▁ပုဂ္ဂလိက	-3760
▁မော်တော်	-3761
▁လမ်းညွှန်	-3762
▁အစားအသောက်	-3763
တလော	-3764
▁နူး	-3765
▁နဂါး	-3766
▁ချယ်ရီ	-3767
▁ဖြစ်ရပ်	-3768
▁လက်အောက်	-3769
▁နေမကောင်း	-3770
▁သင်ခန်းစာ	-3771
▁လခ	-3772
ချည်	-3773
မြော	-3774
▁နွေး	-3775
▁ပီတိ	-3776
▁သိသာ	-3777
▁ရဲဘော်	-3778
▁💖	-3779
မေ့	-3780
ကုတ်	-3781
သီရိ	-3782
▁မဲဆ	-3783
▁စသော	-3784
▁ရေချိုး	-3785
▁ဦးသိန်း	-3786
▁ခြေလှမ်း	-3787
▁မျိုးစုံ	-3788
▁မျိုးဆက်	-3789
တြ	-3790
ယီ	-3791
ဟစ်	-3792
▁မအေ	-3793
▁အကု	-3794
▁ရမ်း	-3795
▁လာဘ်	-3796
▁ဖြိုး	-3797
▁အကျယ်	-3798
▁ဗဟုသုတ	-3799
▁အမူအရာ	-3800
▁စဝ်နေဗလ	-3801
▁တော်လှန်	-3802
▁2	-3803
▁😛	-3804
ွမ်	-3805
▁ဆော်	-3806
▁ထုပ်	-3807
▁မန့်	-3808
▁အေအေ	-3809
ကကျွန်း	-3810
▁ဘီဘီစီ	-3811
▁အတွေးအ	-3812
▁ဆွတ်ခူး	-3813
▁တရားစွဲ	-3814
▁ရုပ်ပုံ	-3815
▁ငြိမ်သက်	-3816
▁ဆွေမျိုး	-3817
▁ထုတ်ဖော်	-3818
▁ကျော်ကြား	-3819
▁အတိုင်ပင်	-3820
ရှူ	-3821
▁ထီ	-3822
မိုင်	-3823
▁စွယ်	-3824
▁ဆည်း	-3825
▁ကျဆင်း	-3826
▁စိတ်ဆိုး	-3827
▁ဦးခေါင်း	-3828
▁မုံ	-3829
▁တိကျ	-3830
ကြောင်	-3831
▁အတိတ်	-3832
▁သူကြီး	-3833
▁အရောက်	-3834
ငူ	-3835
၃၀	-3836
ပက်	-3837
▁၃၁	-3838
ဂိုး	-3839
မယား	-3840
▁အမာ	-3841
▁ပြန့်	-3842
▁ဦးဝင်း	-3843
▁တွက်ချက်	-3844
▁ရည်မှန်း	-3845
▁ထည့်သွင်း	-3846
▁အကြီးဆုံး	-3847
▁ဇေ	-3848
▁ဟေ	-3849
▁ဝါဒ	-3850
ပေါင်	-3851
မျဉ်း	-3852
▁တူတူ	-3853
▁ရွှင်	-3854
▁ဥက္ကဌ	-3855
▁ကုန်ကျ	-3856
▁အမြင့်	-3857
▁ကန်တော့	-3858
▁ပန်းကန်	-3859
▁အဆိုတော်	-3860
▁ကိုင်တွယ်	-3861
▁သော်လည်းကောင်း	-3862
▁💓	-3863
ရိက	-3864
▁AA	-3865
▁ဂေ	-3866
▁မနာ	-3867
▁ယား	-3868
▁ကျဉ်း	-3869
▁မိန့်	-3870
▁ထောင့်	-3871
▁ပြဇာတ်	-3872
▁အပြည့်	-3873
▁မှတ်သား	-3874
▁စွမ်းအင်	-3875
▁💜	-3876
သည်း	-3877
ထိန်း	-3878
အပျက်	-3879
▁သီရိ	-3880
▁မူဝါဒ	-3881
▁အမြတ်	-3882
▁မကြာမီ	-3883
▁အရှုံး	-3884
▁😙	-3885
ကွာ	-3886
▁လန်	-3887
▁ဆဲလ်	-3888
▁ညှပ်	-3889
▁သံသယ	-3890
▁ထုံးစံ	-3891
▁အစီရင်	-3892
▁အိမ်သာ	-3893
▁ကိုတိုး	-3894
▁နှစ်စဉ်	-3895
▁ပျောက်ကွယ်	-3896
▁မူးယစ်ဆေးဝါး	-3897
od	-3898
ဘာသာ	-3899
လွန်း	-3900
▁လျင်	-3901
▁လှလှ	-3902
▁ဓမ္မာ	-3903
▁လယ်ယာ	-3904
▁ဦးဇော်	-3905
▁ပြစ်ဒဏ်	-3906
▁မယ်တော်	-3907
▁မြေပြင်	-3908
▁အင်တာနက်	-3909
▁ကင်းရှင်း	-3910
▁ခ်	-3911
ကြော်	-3912
လျော့	-3913
▁စာနာ	-3914
▁ဟိုး	-3915
▁နတ်သမီး	-3916
▁အောက်တို	-3917
ဆူ	-3918
ဟား	-3919
ကို့	-3920
နှင့်	-3921
မှောင်	-3922
▁အသင့်	-3923
▁စောင်း	-3924
▁တစ်ဝက်	-3925
▁ဘီလီယံ	-3926
▁ပုံပြင်	-3927
▁ပိတ်ဆို့	-3928
▁သိမ်းဆည်း	-3929
▁စားသောက်ဆိုင်	-3930
ဝင်ဘာ	-3931
▁ကြင်	-3932
▁ဖြည်း	-3933
▁မှော်	-3934
▁ရေးရာ	-3935
▁သည်းခံ	-3936
▁အစိတ်အ	-3937
▁နိုဝင်ဘာ	-3938
▁ထည့်သွင်း	-3939
▁မိုးရ	-3940
▁အလွယ်	-3941
▁ကကျွတ်	-3942
▁ကျိုက်	-3943
▁အကြွေး	-3944
▁ရော်နယ်	-3945
▁ဝမ်းမြောက်	-3946
ev	-3947
▁😆	-3948
နာဒ	-3949
လျာ	-3950
▁ဦးဘ	-3951
တင်ဘာ	-3952
▁ဆန့်	-3953
▁ရာဇဝင်	-3954
▁အနားယူ	-3955
တင်းပေါက်	-3956
▁အများအပြား	-3957
▁ကိုယ်ချင်းစာ	-3958
▁အစိတ်အပိုင်း	-3959
~~	-3960
▁ဘီး	-3961
▁မာန	-3962
▁ပွား	-3963
▁ပျော့	-3964
▁အရာရာ	-3965
တန်းစား	-3966
▁တောင်ငူ	-3967
▁လမ်းဘေး	-3968
အဆ	-3969
▁တု	-3970
မှား	-3971
ွန်ဒ	-3972
▁နုနု	-3973
▁ဟင့်	-3974
▁အနံ့	-3975
▁၂၀၂၀	-3976
ရှောင်	-3977
▁လမ်း၊	-3978
▁လွင့်	-3979
▁မနာလို	-3980
▁ရဃုပတိ	-3981
▁အချုပ်	-3982
▁ဗိုလ်လု	-3983
▁ရွတ်ဆို	-3984
▁သားသမီး	-3985
▁စက်တင်ဘာ	-3986
▁အဖြစ်အပျက်	-3987
▁အောက်တိုဘာ	-3988
▁အတိုင်ပင်ခံ	-3989
တလေ	-3990
ယင်	-3991
စ္ဆေ	-3992
နှင်	-3993
▁လှံ	-3994
ကြိမ်	-3995
▁အပတ်	-3996
▁နစ်နာ	-3997
▁ဖြန့်	-3998
▁အပျော်	-3999
▁တုံ့ပြန်	-4000
▁ဒါရိုက်တာ	-4001
▁စောင့်ရှောက်	-4002
av	-4003
ဘု	-4004
၄၄	-4005
▁ချပ်	-4006
▁မခင်	-4007
▁အမှတ်တရ	-4008
▁သက်ပြင်း	-4009
▁အကုသိုလ်	-4010
▁ပန်းချီကျော်	-4011
▁တည့်	-4012
▁ပြည့်စုံ	-4013
▁သို့သော်လည်း	-4014
▁✌	-4015
▁🤣	-4016
ဗင်	-4017
မိတ်	-4018
▁တမ်း	-4019
▁မြေး	-4020
▁အကွာ	-4021
▁ဦးဦး	-4022
▁၀၀၀၀	-4023
စောင့်	-4024
▁တစ္ဆေ	-4025
▁အဖော်	-4026
▁စားသုံး	-4027
▁စွပ်စွဲ	-4028
▁လည်ပင်း	-4029
▁စည်းမျဉ်း	-4030
▁😬	-4031
ang	-4032
ယုတ်	-4033
▁ဖိအား	-4034
ုပ်ကွေး	-4035
▁လေးဖြူ	-4036
▁အားထုတ်	-4037
▁ရိုက်ကူး	-4038
▁နောင်တော်	-4039
▁ကြည့်ကြည့်	-4040
ess	-4041
ဇာတ	-4042
▁စူ	-4043
မသား	-4044
▁ငရဲ	-4045
မြို့	-4046
အတန်း	-4047
▁ဂလက်	-4048
▁ဇာတိ	-4049
▁မျှတ	-4050
▁မွှေး	-4051
▁ကိုကျော်	-4052
▁စိန်ခေါ်	-4053
▁ဆက်တိုက်	-4054
ဘီး	-4055
ခေတ်	-4056
▁အသားအ	-4057
▁......	-4058
▁နားဆင်	-4059
▁မုံရွာ	-4060
▁တစ်ချိန်	-4061
▁ဘင်္ဂလား	-4062
▁မြစ်ကြီး	-4063
▁ခေါင်းစဉ်	-4064
▁ဝိုင်းဝန်း	-4065
▁မျက်နှာပြင်	-4066
ir	-4067
▁ရိ	-4068
ဒရစ်	-4069
▁ခုန	-4070
▁ထည်	-4071
▁ပျိုး	-4072
▁ယူရို	-4073
▁နေရောင်	-4074
▁စတာ	-4075
▁နုတ်	-4076
နှလုံး	-4077
▁စသည့်	-4078
က္ကရာဇ်	-4079
▁လှေကား	-4080
▁အလုပ်အ	-4081
▁ချစ်ဆုံး	-4082
▁ဒီဇိုင်း	-4083
ရှ်	-4084
▁၃၅	-4085
ရှက်	-4086
ရှေ့	-4087
အလှန်	-4088
▁တုတ်	-4089
▁နဖူး	-4090
▁ခွန်း	-4091
▁ဂျိုး	-4092
▁တောက်ပ	-4093
▁မြှင့်	-4094
▁မီးရထား	-4095
▁မြောင်း	-4096
▁ပြတင်းပေါက်	-4097
ace	-4098
သီဟ	-4099
န္ဒာ	-4100
▁လန့်	-4101
▁စွန်း	-4102
▁တပ်မှူး	-4103
▁ဘာသာရပ်	-4104
▁ရေးထိုး	-4105
▁တုန်လှုပ်	-4106
▁မြစ်ကြီးနား	-4107
ank	-4108
▁ကေ	-4109
▁ဖဲ	-4110
▁အစစ	-4111
▁ရာဇာ	-4112
▁ပန်းချီကား	-4113
▁အတွင်းရေးမှူး	-4114
န္ဓ	-4115
ငှက်	-4116
နွဲ့	-4117
လုတ်	-4118
▁အကဲ	-4119
▁အလံ	-4120
ရှုပ်	-4121
▁ဆိပ်	-4122
▁ဂလက်ဆီ	-4123
▁တက်တူး	-4124
▁မီးဖို	-4125
▁ထူထောင်	-4126
▁ထင်ကျော်	-4127
▁နှင်းငွေ	-4128
▁အစီရင်ခံ	-4129
▁မဟ	-4130
ရှူး	-4131
▁ဒြပ်	-4132
▁ယာယီ	-4133
ိုင်းအ	-4134
▁မြိတ်	-4135
ိုက်တက်	-4136
▁ညချမ်း	-4137
▁သတိပြု	-4138
▁ဇူလိုင်	-4139
▁ပစ္စယော	-4140
▁အော်ဟစ်	-4141
▁ဦးမောင်	-4142
▁စေတီတော်	-4143
▁ဆန့်ကျင်	-4144
▁တိုးတိုး	-4145
▁ဖိတ်ခေါ်	-4146
▁သိမ်းပိုက်	-4147
စူး	-4148
လွှဲ	-4149
▁သဒ္	-4150
▁ကြွယ်	-4151
▁ချီတက်	-4152
▁အကြည့်	-4153
▁အချိုး	-4154
▁ဝတ်မှုံ	-4155
▁အကြံပေး	-4156
▁ကိုကိုဦး	-4157
▁အပြောင်းအလဲ	-4158
ip	-4159
▁l	-4160
ဒါး	-4161
ရိယ	-4162
က္ကာ	-4163
ကိုက်	-4164
▁သိုး	-4165
▁ခေတ္တ	-4166
▁အသုံးအ	-4167
▁ထိပ်တန်း	-4168
▁ထွန်းကား	-4169
▁နံနက်ခင်း	-4170
▁စိတ်ကူးယဉ်	-4171
ရူ	-4172
▁😋	-4173
▁😕	-4174
စို	-4175
▁ဂါ	-4176
▁ဝီ	-4177
ပြုံး	-4178
▁အငယ်	-4179
ကျောက်	-4180
ကြိုက်	-4181
▁ကြက်ဥ	-4182
▁ဂဏန်း	-4183
▁ပြင်ပ	-4184
▁မျှဝေ	-4185
▁ရေနွေး	-4186
▁သီတင်း	-4187
▁နည်းပါး	-4188
▁ပြိုင်ဘက်	-4189
ကံ	-4190
▁w	-4191
သမ္	-4192
သာသာ	-4193
▁မေဃ	-4194
ိမိတ်	-4195
▁အမြင့်	-4196
▁မြတ်စွာ	-4197
▁ရှင်သန်	-4198
▁တိတ်ဆိတ်	-4199
▁အပြန်အလှန်	-4200
ဂရီ	-4201
မစ်	-4202
ဟီး	-4203
ရွန်	-4204
▁အီး	-4205
လေ့စ်	-4206
▁မလို့	-4207
▁ယွန်း	-4208
▁ဖေဖော်	-4209
▁ဘဏ်ခွဲ	-4210
နန်းနွယ်	-4211
▁ခပ်သိမ်း	-4212
▁တောင်တန်း	-4213
▁ဖေဖော်ဝါရီ	-4214
▁ကိုနန်းနွယ်	-4215
▁ဘုရင်မင်းကြီး	-4216
ထူ	-4217
ိဒ	-4218
ငင်	-4219
▁လူး	-4220
▁ဟေး	-4221
▁ကုတ်	-4222
▁ဂေါ်	-4223
▁မီတာ	-4224
▁အလည်	-4225
▁ဖောင်	-4226
▁မေဃနာဒ	-4227
▁မုဒိမ်း	-4228
▁ဖိုင်နယ်	-4229
▁စိမ်းလန်း	-4230
▁မုန်တိုင်း	-4231
▁လှည့်ကြည့်	-4232
▁အလုပ်အကိုင်	-4233
ap	-4234
ဟ္	-4235
အဝ	-4236
လွှား	-4237
▁နမ်း	-4238
▁ပျံ့	-4239
▁ဝိတ်	-4240
▁ပထွေး	-4241
▁စည်းလုံး	-4242
▁အစားထိုး	-4243
▁အနေနှင့်	-4244
▁သောကြောင့်	-4245
▁အတွေးအခေါ်	-4246
up	-4247
ီးလ်	-4248
▁ယုန်	-4249
▁အခမဲ့	-4250
▁အမလေး	-4251
▁ပြစ်မှု	-4252
▁အကြံပြု	-4253
၁၉	-4254
▁💙	-4255
မှီ	-4256
သုတ်	-4257
မွှေး	-4258
▁၂၀၁၅	-4259
▁ကိန်း	-4260
▁အငှား	-4261
▁တက်ကြွ	-4262
▁တပ်ဆင်	-4263
▁အသက်ရှူ	-4264
▁နာမည်ကြီး	-4265
ine	-4266
ရှယ်	-4267
▁မုခ်	-4268
▁မုဆိုး	-4269
▁အရင်းအ	-4270
▁လက်ဝှေ့	-4271
▁လှိုင်း	-4272
▁သတ်ဖြတ်	-4273
▁နှင့်တကွ	-4274
▁နှိပ်စက်	-4275
▁အောက်မေ့	-4276
ဒေါ	-4277
ကြို	-4278
ွှား	-4279
မီလန်	-4280
▁ခ်ခ်	-4281
▁နွယ်	-4282
▁အာဆီ	-4283
▁ဗျူဟာ	-4284
▁အယူအဆ	-4285
▁အောင်လ	-4286
▁ဖျော်ဖြေ	-4287
▁မျက်ခုံး	-4288
▁အဆုံးသတ်	-4289
▁ပေါင်းစုံ	-4290
▁h	-4291
▁ထဘီ	-4292
ချော်	-4293
▁လေသံ	-4294
▁လျော်	-4295
▁သတ္တု	-4296
▁အနှံ့	-4297
▁ရာတွင်	-4298
▁အာဆီယံ	-4299
▁လင်မယား	-4300
▁လွှမ်းမိုး	-4301
အစ်	-4302
တကယ်	-4303
မယ့်	-4304
▁အဝါ	-4305
▁ဆင့်	-4306
▁ဆယ့်	-4307
▁ရိုသေ	-4308
▁လာလီဂါ	-4309
▁တိုးမြှ	-4310
▁ဖယ်ရှား	-4311
▁အမှောင်	-4312
▁အောင်ပွဲ	-4313
▁ဘုရားသခင်	-4314
ငဲ	-4315
ဉ့်	-4316
▁Un	-4317
မန်း	-4318
▁ဘို	-4319
ခြမ်း	-4320
▁မာန်	-4321
▁အပျို	-4322
▁ကျွန်း	-4323
▁ပုလင်း	-4324
▁ကြည်ညို	-4325
▁ကြီးကြီးမေ	-4326
▁ကျေးဇူးပြုပြီး	-4327
ဝဝဝ	-4328
▁ယေ	-4329
▁ဘား	-4330
▁မား	-4331
▁ရင့်	-4332
▁ဒီဂရီ	-4333
▁သကြား	-4334
▁သင်ပေး	-4335
▁အတိအကျ	-4336
▁အမုန်း	-4337
▁တားမြစ်	-4338
▁ဓါတ်ပုံ	-4339
ဒရာ	-4340
▁ရီ	-4341
▁၁ဝ	-4342
ချေး	-4343
ဂျက်	-4344
ပက္ခ	-4345
ကြွေး	-4346
အလမ်း	-4347
▁ရဲရဲ	-4348
▁လက်စ	-4349
▁ပျင်း	-4350
▁ဘိုင်	-4351
▁ဘေးရန်	-4352
▁ရယ်မော	-4353
▁အငြင်း	-4354
▁စကားပြေ	-4355
▁ရှင်စော	-4356
▁တိုင်းတာ	-4357
▁မိုးညှင်း	-4358
ထဲ	-4359
ထွ	-4360
▁ဝှ	-4361
ကျကျ	-4362
မျှတ	-4363
ဟိတ်	-4364
အော်	-4365
▁သပ်	-4366
▁ခမ်း	-4367
▁မဆို	-4368
▁ကြွေး	-4369
▁ခရမ်း	-4370
▁နှိမ်	-4371
▁အဖွား	-4372
▁မျက်မှန်	-4373
▁အဆင်သင့်	-4374
▁အိပ်ပျော်	-4375
▁မျိုးနွယ်စု	-4376
og	-4377
၁၄	-4378
▁🙌	-4379
စိမ်	-4380
ိယန်	-4381
ိုဏ်	-4382
▁အထည်	-4383
ပါးပါး	-4384
▁ကံထူး	-4385
▁မကြီး	-4386
▁အချို	-4387
▁ကျော်လ	-4388
▁ရပ်နား	-4389
▁ခိုကလေး	-4390
▁တစ်ဆင့်	-4391
▁ပဲလေ့စ်	-4392
▁လုပ်ကြံ	-4393
▁ကုန်ဆုံး	-4394
▁အာဏာပိုင်	-4395
ဆပ်	-4396
ာဝိဒ	-4397
ကာဆယ်	-4398
ညှိုး	-4399
နီဂန်	-4400
▁အိုလံ	-4401
▁ချောင်	-4402
▁ဒြာဝိဒ	-4403
▁လက်တွဲ	-4404
▁ဒြာဝိဒိယန်	-4405
▁အင်ဂျင်နီယာ	-4406
▁💗	-4407
ချိ	-4408
▁ဓု	-4409
▁အိ	-4410
▁၂ဝ	-4411
ရော်	-4412
▁ဗေဒ	-4413
▁ဝါကျ	-4414
▁၄င်း	-4415
▁အာဟာရ	-4416
▁ဝတ်ဆင်	-4417
▁အပြင်း	-4418
▁လျှော့ချ	-4419
▁စာမျက်နှာ	-4420
▁မြှင့်တင်	-4421
▁လျှောက်လာ	-4422
▁အရှင်မင်းကြီး	-4423
ia	-4424
နို့	-4425
▁နဂို	-4426
▁နင့်	-4427
▁မက္က	-4428
▁တရားမ	-4429
▁အထုပ်	-4430
▁တစ်ဖန်	-4431
▁ရေရှည်	-4432
▁ကန့်သတ်	-4433
▁ကလေးငယ်	-4434
▁နယူးကာဆယ်	-4435
▁Y	-4436
ကျား	-4437
နှံ့	-4438
▁The	-4439
အရင်း	-4440
▁ကွေ့	-4441
▁ပတ္တ	-4442
▁ရေး၊	-4443
▁အကယ်၍	-4444
▁ဥစ္စာ	-4445
မည်းတော်	-4446
▁တာဝန်ယူ	-4447
▁နှင်းဟေ	-4448
▁အာဏာရှင်	-4449
▁ဖျက်သိမ်း	-4450
ort	-4451
ဟူး	-4452
ပုတ်	-4453
▁ဝဋ်	-4454
ပိုလီ	-4455
ပြန့်	-4456
ိုဟင်	-4457
▁ဘရာဇ	-4458
▁သိသိ	-4459
▁ချို့	-4460
▁တင်ဒါ	-4461
▁အံ့အား	-4462
▁ဒေါ်လေးငယ်	-4463
▁သောင်းကျန်း	-4464
00	-4465
??	-4466
၈၀	-4467
▁#	-4468
▁n	-4469
▁th	-4470
ခန့်	-4471
သော်	-4472
▁ဇီဝ	-4473
▁ဂျာမ	-4474
မောက္ခ	-4475
▁မိန့်	-4476
▁သရွေ့	-4477
▁အလွတ်	-4478
▁နှမြော	-4479
▁စွယ်စုံ	-4480
▁အရေပြား	-4481
▁ဆန့်ကျင်	-4482
▁ဒါ့အပြင်	-4483
▁အရေးပေါ်	-4484
▁မျိုးချစ်	-4485
▁ကောင်းကျိုး	-4486
▁ရွှေ့ဆိုင်း	-4487
စဲ	-4488
ate	-4489
▁၇၀	-4490
လာခံ	-4491
▁အာဖ	-4492
▁အစ္စ	-4493
▁ကိရိယာ	-4494
▁စီးရီး	-4495
▁ရိုဟင်	-4496
▁လက်စတာ	-4497
▁စပ်လျဉ်း၍	-4498
▁ဆုပ်ကိုင်	-4499
▁တာဝန်ထမ်း	-4500
▁နှင်းဟေမာ	-4501
▁ဝန်ဆောင်ခ	-4502
ရေးမှူးချုပ်	-4503
ကေး	-4504
ညှိ	-4505
လှေ	-4506
▁၃၂	-4507
ကြယ်	-4508
ဂုံး	-4509
▁ဩဇာ	-4510
▁ကျီး	-4511
▁နူးညံ့	-4512
▁အဖွင့်	-4513
▁ဟောပြော	-4514
▁ဧည့်သည်	-4515
▁ပေါင်းစပ်	-4516
▁အမှန်တကယ်	-4517
▁အစီရင်ခံစာ	-4518
▁အနုပညာရှင်	-4519
▁ဘုရားလောင်း	-4520
လှဲ	-4521
တန့်	-4522
ယမ်း	-4523
▁အေမ	-4524
▁ချဉ်	-4525
▁ဂေဟာ	-4526
▁ငုံ့	-4527
▁တမင်	-4528
▁ချော်	-4529
▁ဖာရယ်	-4530
▁မှုတ်	-4531
▁ကယ်ဆယ်	-4532
▁ပညာရှိ	-4533
▁ရင်ဘတ်	-4534
▁ပဋိပက္ခ	-4535
▁စိုးမိုး	-4536
▁ထိပ်ဆုံး	-4537
▁ပါမောက္ခ	-4538
ဝဏ	-4539
▁😥	-4540
ပုန်	-4541
ဗ္ဗာ	-4542
သာရီ	-4543
▁ဓုဝ	-4544
▁၁၉၅	-4545
▁ဆူညံ	-4546
▁ဟဲဟဲ	-4547
▁ခွဲစိတ်	-4548
▁ပြန်ကြား	-4549
▁အိမ်ရှေ့	-4550
▁အောက်ခြေ	-4551
▁လွှဲပြောင်း	-4552
io	-4553
ဗ်	-4554
၂၁	-4555
ist	-4556
▁၈၀	-4557
လျှံ	-4558
▁၁၅၀	-4559
▁ရေနံ	-4560
ရောဟိတ်	-4561
▁ခိုင်မာ	-4562
▁မြေကြီး	-4563
▁ဟန်နီဂန်	-4564
▁ခမည်းတော်	-4565
▁ရိုဟင်ဂျာ	-4566
▁သန့်ရှင်း	-4567
ဥပ	-4568
မူး	-4569
▁ဂျီ	-4570
တကြီး	-4571
ဘောင်	-4572
▁ထိတ်	-4573
▁ဘော်	-4574
တီးနား	-4575
င်္ကာပူ	-4576
▁ကျဆုံး	-4577
▁ကြာကြာ	-4578
▁ထိတွေ့	-4579
▁ညွန့်မေ	-4580
▁အသားအရေ	-4581
▁စင်္ကာပူ	-4582
▁ဂျင်းကောင်	-4583
▁အပြောင်းအရွှေ့	-4584
▁၃၆	-4585
****	-4586
====	-4587
ရောဂါ	-4588
▁ကျင်	-4589
▁သဗ္ဗ	-4590
ဦးလွင်	-4591
▁နာပိုလီ	-4592
▁လက်ကျန်	-4593
▁ခရစ္စတယ်	-4594
▁အထောက်အကူ	-4595
▁ဗိုလ်လုပွဲ	-4596
▁ယူနိုက်တက်	-4597
▁စိတ်မဝင်စား	-4598
▁ဃ	-4599
ဇဉ်	-4600
ွှာ	-4601
ရှစ်	-4602
▁ညစာ	-4603
ထိုက်	-4604
▁ကော့	-4605
▁မည်း	-4606
▁သဖွယ်	-4607
▁ကောလိပ်	-4608
▁မိတ်ဆက်	-4609
▁ကန့်ကွက်	-4610
▁လျင်မြန်	-4611
▁တနင်္သာရီ	-4612
▁ချိုးဖောက်	-4613
▁ပြင်ဦးလွင်	-4614
▁့	-4615
▁’	-4616
mar	-4617
▁ပဲ့	-4618
▁ပံ့	-4619
ညွန့်	-4620
▁တွေ၊	-4621
▁ရာဝဏ	-4622
နိုင်ငံ	-4623
▁ရီးယဲလ်	-4624
▁အဟောင်း	-4625
▁မြောက်ဦး	-4626
▁ဟင့်အင်း	-4627
▁အိုလံပစ်	-4628
▁ပုရောဟိတ်	-4629
▁အထူးသဖြင့်	-4630
▁😗	-4631
▁ခွ	-4632
ထော်	-4633
ဖုံး	-4634
▁ဆတ်	-4635
▁ဒကာ	-4636
ပွင့်	-4637
ပွန်း	-4638
▁ချစ်မ	-4639
▁နှိုး	-4640
▁ဘွန်ဒ	-4641
▁စက်ဘီး	-4642
▁ညီလာခံ	-4643
▁မြေပုံ	-4644
▁ဝေါဟာရ	-4645
▁ခင်စန်း	-4646
▁မေဘုန်း	-4647
▁ဧည့်သည်	-4648
▁ပေးသွင်း	-4649
▁အရင်ဆုံး	-4650
▁ကိုယ်တော်	-4651
▁ရောဂါပိုး	-4652
▁မေဘုန်းရှိန်	-4653
▁🙄	-4654
တင့်	-4655
▁ပီသ	-4656
ပြန့်	-4657
အရွယ်	-4658
ုဒ္ဒရာ	-4659
▁သပိတ်	-4660
▁အဆိုး	-4661
▁အပြုအ	-4662
▁အက်တမ်	-4663
▁မည်သို့	-4664
▁စည်းရုံး	-4665
▁လှည့်ပတ်	-4666
▁ကျေးဇူးပြု၍	-4667
▁လက်မှတ်ထိုး	-4668
ub	-4669
ဖိ	-4670
၂၅	-4671
ကော်	-4672
▁ဗူး	-4673
▁ရှူ	-4674
တာမင်	-4675
လှည့်	-4676
▁ဆိတ်	-4677
▁ဇယား	-4678
▁မည်သ	-4679
▁သေနာ	-4680
▁မုန့်	-4681
▁အမာခံ	-4682
▁ပြည့်ဝ	-4683
▁ဖြူစင်	-4684
▁လှောင်	-4685
▁အာဘွား	-4686
▁ကားလမ်း	-4687
▁လက်ကိုင်	-4688
▁အထင်ကြီး	-4689
ပိုင်ခွင့်	-4690
▁တစ်ပြိုင်	-4691
▁ရှင်စောပု	-4692
နည်	-4693
ီလာ	-4694
▁Sp	-4695
စတစ်	-4696
တည့်	-4697
▁မသာ	-4698
▁မွဲ	-4699
ဒီးယား	-4700
ပြည်သား	-4701
မြှောက်	-4702
▁မည်မျှ	-4703
▁လိမ္မာ	-4704
▁လျှော်	-4705
▁သလိုလို	-4706
▁ဟန်ဆောင်	-4707
▁ထို့အပြင်	-4708
▁မောင်းနှင်	-4709
▁အကြောင်းပြ	-4710
ive	-4711
▁မအူ	-4712
ညွန့်	-4713
ဝှမ်း	-4714
ိုင့်	-4715
▁လျှာ	-4716
ဏ္ဍာန်	-4717
▁ချဉ်း	-4718
ဓမ္မဉာဏ	-4719
ိုးရွား	-4720
▁သူပုန်	-4721
▁ကျောက်စာ	-4722
▁ဖွေးဖွေး	-4723
▁မျိုးစိတ်	-4724
▁တာဝန်ထမ်းဆောင်	-4725
▁နိုင်ငံခြားသား	-4726
တကူ	-4727
ငှား	-4728
ထွား	-4729
ဒီတာ	-4730
▁ချာ	-4731
▁ဗုံး	-4732
▁အခက်	-4733
▁အပြည်	-4734
▁ခက်ဆစ်	-4735
▁ဝက်ခြံ	-4736
▁အစွန်း	-4737
▁ရှုခင်း	-4738
▁တိုးချဲ့	-4739
▁အထူးသဖြင့်	-4740
ဠိ	-4741
▁ဗီဇ	-4742
▁အလေ့	-4743
▁၂၀၀၈	-4744
▁ဘိန်း	-4745
▁ဘီလူး	-4746
▁ဝက်ဝံ	-4747
▁အဖျား	-4748
▁မီးသတ်	-4749
▁သေတ္တာ	-4750
▁သေးငယ်	-4751
▁အမောင်	-4752
▁ကွာခြား	-4753
▁တာဝန်ခံ	-4754
▁တောင်ပံ	-4755
▁လူမိုက်	-4756
▁သက္ကရာဇ်	-4757
▁ထမ်းဆောင်	-4758
▁ဒေါ်ခင်ကြည်	-4759
▁အကြိမ်ကြိမ်	-4760
ab	-4761
ဝဏ်	-4762
ယာန်	-4763
▁မန်း	-4764
▁တောင့်	-4765
▁တွေ့ရှိ	-4766
▁အယ်ဒီတာ	-4767
လှုပ်ရှား	-4768
▁ခရစ်ယာန်	-4769
▁အသက်အရွယ်	-4770
ခွ	-4771
ect	-4772
ဆေ့	-4773
ညိတ်	-4774
▁နာဆာ	-4775
▁ဖေါ်	-4776
▁သွက်	-4777
▁၂၀၁၆	-4778
▁ဆေးဝါး	-4779
▁ဖတ်ရှု	-4780
ခင်မောင်	-4781
▁တန်ခိုး	-4782
▁ဦးထွန်း	-4783
▁လက်ညှိုး	-4784
▁သယ်ဆောင်	-4785
▁ခင်စန်းကြည်	-4786
▁👋	-4787
▁ဇယ	-4788
တွတ်	-4789
▁ရူပ	-4790
▁လှန်	-4791
လျောက်	-4792
▁ကြွယ်ဝ	-4793
▁ဆင်းသက်	-4794
▁အကောင့်	-4795
▁အင်းစိန်	-4796
▁တိုက်ဖျက်	-4797
▁ဖြည်းဖြည်း	-4798
▁သရက်ချောင်း	-4799
▁“	-4800
တုံ	-4801
▁ဒသ	-4802
မုန့်	-4803
▁မဏ္ဍ	-4804
▁အသေအ	-4805
▁ပုန်း	-4806
▁ဝိုင်	-4807
ရေးသမား	-4808
▁ပညာသင်	-4809
▁ဖြူဖြူ	-4810
▁အလွမ်း	-4811
▁ဝါသနာပါ	-4812
▁အပြည်ပြည်	-4813
▁အလေးချိန်	-4814
▁လူပျိုကြီး	-4815
မွ	-4816
တံ့	-4817
▁တေ	-4818
ဂျစ်	-4819
မာမာ	-4820
ယှဉ်	-4821
▁ဇီး	-4822
▁အကာ	-4823
▁ကြပ်	-4824
▁အဝင်	-4825
▁၀၀၀၁	-4826
▁ချော့	-4827
▁ပစ္စယ	-4828
▁ပြန့်	-4829
▁အနန္တ	-4830
▁ကြင်နာ	-4831
▁ပျံသန်း	-4832
▁မြင့်မား	-4833
▁လုပ်ထုံး	-4834
▁သမုဒ္ဒရာ	-4835
▁အချစ်ဆုံး	-4836
ဇ္ဇာ	-4837
ီအို	-4838
မပြတ်	-4839
▁တဖက်	-4840
▁ဒေါ့	-4841
▁ပဉ္စ	-4842
▁အတ္တ	-4843
▁ပြပွဲ	-4844
▁သော်တာ	-4845
လုပ်နည်း	-4846
▁ပံ့ပိုး	-4847
▁အသိဉာဏ်	-4848
▁ဘန်ကောက်	-4849
▁ခန့်မှန်း	-4850
ဒိ	-4851
မေး	-4852
ဟိတ	-4853
▁ယု	-4854
ကစား	-4855
ကျမ်း	-4856
ရှိုး	-4857
▁စင်္	-4858
▁ညီအစ်	-4859
▁သီလဝါ	-4860
▁အပေါက်	-4861
▁ဦးကင်း	-4862
▁ဆေးထိုး	-4863
▁ဗီတာမင်	-4864
▁အရောင်း	-4865
▁စွမ်းရည်	-4866
▁မျက်ဝန်း	-4867
▁စောင့်ကြည့်	-4868
ျူ	-4869
▁$	-4870
amp	-4871
ဒေး	-4872
တွန်	-4873
ဖြူး	-4874
သွန်	-4875
တိဂုံ	-4876
▁ထွေး	-4877
ဆေးဆေး	-4878
▁မိတ္ထ	-4879
▁အချော	-4880
ကကျွမ်း	-4881
▁ထီးနန်း	-4882
▁တစ္ဆေဖြူ	-4883
▁တွင်းနက်	-4884
▁အသိုင်းအ	-4885
if	-4886
ဘယ်	-4887
▁in	-4888
▁ဒရ	-4889
ရွံ့	-4890
▁ဒေး	-4891
▁အပစ်	-4892
▁ကြီး၊	-4893
▁ဂမ္ဘီ	-4894
▁နွမ်း	-4895
မှိုင်း	-4896
▁ဗညားရံ	-4897
▁ခြားနား	-4898
▁ခွန်အား	-4899
▁အသက်ရှင်	-4900
▁ကြံ့ခိုင်	-4901
▁တိုင်ကြား	-4902
ec	-4903
သပ	-4904
သဲ	-4905
ant	-4906
ell	-4907
ယမ်	-4908
ွှဲ	-4909
▁၄၃	-4910
မူနာ	-4911
ရဋ္ဌ	-4912
▁ဆမ်	-4913
ivers	-4914
ကျွေး	-4915
လ္လင်	-4916
▁ကိုအ	-4917
▁ပျား	-4918
▁ဘီယာ	-4919
▁ယိုး	-4920
▁သံယော	-4921
▁အနမ်း	-4922
▁ခြိမ်း	-4923
▁စုစည်း	-4924
▁ရန်ပုံ	-4925
▁ရုပ်သံ	-4926
▁ဆေးခန်း	-4927
▁ရင်ခွင်	-4928
▁လုပ်စား	-4929
▁မိတ္ထီလာ	-4930
▁ဖြစ်ထွန်း	-4931
▁ရွှေတိဂုံ	-4932
▁လေကြောင်း	-4933
▁ယောင်ဆောင်	-4934
▁အင်တာမီလန်	-4935
▁ခေါင်းလောင်း	-4936
ကော	-4937
ment	-4938
ချဉ်	-4939
မျက်	-4940
မြူး	-4941
ဥပဒေ	-4942
▁အညာ	-4943
▁အသွား	-4944
▁ဘုရင့်	-4945
▁မက်ဆေ့	-4946
▁မူရင်း၊	-4947
▁သံယောဇဉ်	-4948
▁+	-4949
▁ဒဿ	-4950
▁အယ	-4951
ခြစ်	-4952
ဂလက်	-4953
သတ္တ	-4954
▁ထင်း	-4955
▁ပုံသ	-4956
▁လွင်	-4957
▁အွန်	-4958
ကကျွတ်	-4959
ဦးဆုံး	-4960
▁တက္ကစီ	-4961
▁ရေရွတ်	-4962
▁ကျေးလက်	-4963
▁မိုချင်	-4964
▁အစဉ်အလာ	-4965
▁အပြုအမူ	-4966
▁ခရီးထွက်	-4967
▁ရုန်းကန်	-4968
▁လုပ်လုပ်	-4969
▁အေးအေးဆေးဆေး	-4970
စတြ	-4971
▁ဂု	-4972
မီတာ	-4973
စရိတ်	-4974
ပိန်း	-4975
အဖွဲ့	-4976
▁စုပ်	-4977
▁ခုတင်	-4978
▁ပရဟိတ	-4979
▁အဆက်အ	-4980
▁အလားတူ	-4981
▁ပစ္စယေန	-4982
▁ဆိပ်ကမ်း	-4983
▁အနီးဆုံး	-4984
▁ထွန်းနိုင်	-4985
၁၈	-4986
လွင့်	-4987
သပတေး	-4988
အနှစ်	-4989
▁ဓလေ့	-4990
▁နေဗလ	-4991
▁လူနေ	-4992
▁ကြွား	-4993
▁နိမ့်	-4994
▁နေရပ်	-4995
▁ရေကန်	-4996
▁အဆင်း	-4997
▁ဂျာမနီ	-4998
▁အဆုံးအ	-4999
အားဖြင့်	-5000
▁သန့်စင်	-5001
စိုးမောင်	-5002
▁ကိစ္စရပ်	-5003
▁ကြာသပတေး	-5004
▁လွယ်လွယ်	-5005
yan	-5006
ကွန်	-5007
ဆုတ်	-5008
ညာဉ်	-5009
ထွဋ်	-5010
မဏိကျ	-5011
အိုင်	-5012
▁ပြူး	-5013
▁သော့	-5014
▁၂၀၀၀	-5015
တော်မူ	-5016
▁ဘကြီး	-5017
▁ဘောက်	-5018
▁သင်္ဂ	-5019
▁သံသရာ	-5020
▁အကြို	-5021
▁လေဆိပ်	-5022
▁သစ်သီး	-5023
▁သတ်ပုံ	-5024
▁မြို့ပိုင်	-5025
စွက်	-5026
တုန်	-5027
▁ပီပီ	-5028
▁အထပ်	-5029
▁ခြမ်း	-5030
▁တကယ့်	-5031
▁ဖိုက်	-5032
▁ဂျူဗင်	-5033
▁ပင်စင်	-5034
▁ဦးကြီး	-5035
▁စေလွှတ်	-5036
▁အတန်ကြာ	-5037
▁အလေးထား	-5038
▁ချဉ်းကပ်	-5039
▁ထိုက်တန်	-5040
▁ရှည်လျား	-5041
▁ဘုရင်ကြီး	-5042
▁အမွေအနှစ်	-5043
▁ကိုယ့်ဘာသာ	-5044
▁ကျောက်တုံး	-5045
▁ဘောလုံးပွဲ	-5046
▁လွတ်ငြိမ်း	-5047
▁ခင်စိုးမောင်	-5048
ကလ	-5049
▁:*	-5050
ဓါတ်	-5051
ရာသီ	-5052
▁ကာယ	-5053
▁ဇွဲ	-5054
▁သေန	-5055
▁တွယ်	-5056
▁လေထု	-5057
▁ဂိမ်း	-5058
▁စည်ကား	-5059
▁ညစ်ပတ်	-5060
▁အာဖရိက	-5061
▁ဦးထုပ်	-5062
▁သဘောတရား	-5063
▁အကြီးအကဲ	-5064
▁ဖွင့်လှစ်	-5065
▁မိုချင်ဂလက်	-5066
▁ခြိမ်းခြောက်	-5067
စက	-5068
igh	-5069
ဖျင်း	-5070
ဗိုလ်	-5071
ယံဇာတ	-5072
▁စာမူ	-5073
▁ဗန်း	-5074
▁ဇယသီဟ	-5075
▁အပြေး	-5076
▁ခင်မင်	-5077
▁နှိုက်	-5078
▁ဟရောင်	-5079
▁ချေးငွေ	-5080
▁ဘင်္ဂလီ	-5081
▁ချိတ်ဆက်	-5082
▁ပေါ်လွင်	-5083
▁ကျွန်တော်မျိုး	-5084
▁💋	-5085
ဖယ်	-5086
ရတ်	-5087
▁Te	-5088
▁၃၇	-5089
▁၁၉၃	-5090
▁ကင်မ	-5091
▁ဒဂုံ	-5092
▁လက်ခ	-5093
▁တည်တံ့	-5094
▁ရုပ်တု	-5095
▁အရပ်ရပ်	-5096
▁တရားမျှတ	-5097
▁ကျူးကျော်	-5098
▁ရှုပ်ထွေး	-5099
▁အဆောက်အဦး	-5100
▁တောင်ကုန်း	-5101
sh	-5102
▁🤗	-5103
သွင်	-5104
ုန်ကန်	-5105
▁မမိုး	-5106
▁အဒေါ်	-5107
▁ဥမ္မာ	-5108
▁စတုတ္ထ	-5109
လင်းလင်း	-5110
▁ပိတ်ပင်	-5111
▁သေနာပတိ	-5112
▁အင်းလေး	-5113
▁ပတ္တမြား	-5114
▁အကြံဉာဏ်	-5115
▁မိုချင်ဂလက်ဘတ်	-5116
ကဒ်	-5117
ခွံ	-5118
အက်	-5119
အတာ	-5120
ဂီရိ	-5121
နုတ်	-5122
မ္ဘာ	-5123
▁ဟစ်	-5124
စည်သူ	-5125
▁အေမီ	-5126
ဏ္ဌာန်	-5127
▁စေရန်	-5128
▁ဘောင်း	-5129
▁သစ်သား	-5130
▁သုတေသီ	-5131
▁မောနင်း	-5132
▁ရာကျော်	-5133
▁တုပ်ကွေး	-5134
▁ဂျူဗင်တပ်	-5135
▁လက်မောင်း	-5136
▁သတင်းသမား	-5137
▁ချီးမြှင့်	-5138
▁အိမ်ထောင်စု	-5139
▁"	-5140
▁;	-5141
အန်	-5142
▁ကည	-5143
▁Pro	-5144
▁ဆူး	-5145
▁ဖေ့	-5146
ဘက်တူ	-5147
▁ထိထိ	-5148
▁နှင်	-5149
▁မမအေး	-5150
▁နယ်ပယ်	-5151
▁ဖြစ်သူ	-5152
▁အထိမ်း	-5153
▁တရားလို	-5154
▁ပန်းခြံ	-5155
▁နှင်းအေး	-5156
▁စာချုပ်စာတမ်း	-5157
ဝံ့	-5158
ာန်	-5159
▁ဘဂ	-5160
ဝင့်	-5161
နွမ်း	-5162
▁တပ်မ	-5163
▁အဂတိ	-5164
▁မှုန်	-5165
▁လာလည်	-5166
▁တစ်ရပ်	-5167
▁ဒါပေါ့	-5168
▁သယံဇာတ	-5169
▁အကောက်	-5170
▁ခေါ်ဆို	-5171
▁ဇော်ဂျီ	-5172
▁မအေလိုး	-5173
▁သားကြီး	-5174
▁အခြောက်	-5175
▁အသေအချာ	-5176
▁အရေးအသား	-5177
▁ဒုက္ခရောက်	-5178
▁ပြောင်းဖူး	-5179
▁စမ်းချောင်း	-5180
▁ကမ္ဘောဒီးယား	-5181
▁ဒေါ်ခင်ကြည်ပြာ	-5182
နန်	-5183
တုတ်	-5184
▁သီဟ	-5185
ဇာနည်	-5186
▁ဆရာ့	-5187
▁မွမွ	-5188
▁ရှယ်	-5189
▁စည်းစိမ်	-5190
▁မြင်းခြံ	-5191
▁ပြန်လွှတ်	-5192
▁လျော့နည်း	-5193
▁အငြင်းပွား	-5194
▁နှိုင်းယှဉ်	-5195
▁မျှော်မှန်း	-5196
ဇ္ဇ	-5197
မွေ	-5198
▁the	-5199
▁မဝေ	-5200
▁ဟက်	-5201
▁ခြေသ	-5202
▁မိုင်း	-5203
▁မြှင့်	-5204
▁ထင်မြင်	-5205
▁လုပ်သက်	-5206
▁ပျက်ကွက်	-5207
▁မြန်မာစာ	-5208
▁ရုံးခန်း	-5209
▁မှတ်တိုင်	-5210
▁ဦးတင်ဘက်တူ	-5211
▁အထိမ်းအမှတ်	-5212
▁အသိုင်းအဝိုင်း	-5213
ew	-5214
ob	-5215
ph	-5216
ဖိတ်	-5217
လျော	-5218
သင်္	-5219
ချောင်	-5220
▁မည်သည့်	-5221
▁သက်တော်	-5222
▁မွန်းလွဲ	-5223
▁အလွယ်တကူ	-5224
▁နှုန်းထား	-5225
▁အမှုဆောင်	-5226
▁ခေါင်းညိတ်	-5227
▁မြတ်စွာဘုရား	-5228
▁ဗိုလ်မှူးကြီး	-5229
၈၅	-5230
၉၉	-5231
all	-5232
ark	-5233
ါလီ	-5234
▁ဖို	-5235
▁သမာ	-5236
မုန်း	-5237
▁ဝတ္တ	-5238
▁တင်းမာ	-5239
▁သီးနှံ	-5240
▁တင်ပို့	-5241
▁မီးခိုး	-5242
▁မော်ဒယ်	-5243
▁ရောင်းဝယ်	-5244
▁အတိုင်းအတာ	-5245
မျာ	-5246
ဖို့	-5247
▁သူရ	-5248
▁ခုခံ	-5249
▁ဇရပ်	-5250
▁အမယ်	-5251
▁ကယ်တင်	-5252
▁ဆုမွန်	-5253
▁မှောက်	-5254
▁ဟီးဟီး	-5255
▁အစစအရာ	-5256
▁အမှုန်	-5257
▁ကြီးထွား	-5258
▁ဘင်္ဂါလီ	-5259
▁တိုက်ခန်း	-5260
▁မင်းခေါင်	-5261
▁တိုက်ဆိုင်	-5262
▁ကုန်ပစ္စည်း	-5263
၂၂	-5264
▁En	-5265
▁နဲ	-5266
▁ရသ	-5267
တိမ်	-5268
မိန်	-5269
ဥက္က	-5270
▁နံ့	-5271
▁ဖြာ	-5272
ဝိန္ဒ	-5273
▁လိင်	-5274
▁လောဘ	-5275
▁ဟော်	-5276
▁ခေါင်	-5277
▁တပည့်	-5278
▁အကို့	-5279
စီးပွား	-5280
▁ယောက္ခ	-5281
▁သားသား	-5282
▁အလိုလို	-5283
▁ဓာတ်ငွေ့	-5284
▁ပုံနှိပ်	-5285
▁ဘောင်းဘီ	-5286
ကေတ	-5287
ဆယ့်	-5288
▁ဟတ်	-5289
▁ဘခက်	-5290
▁ယူနီ	-5291
▁အရှိ	-5292
▁နမူနာ	-5293
▁မိုနာ	-5294
▁အယ်လ်	-5295
▁အေးမြ	-5296
▁မြို့မ	-5297
▁အိန္ဒု	-5298
▁စာကြည့်	-5299
▁မိုးရွာ	-5300
▁ရှားပါး	-5301
▁ဂိုးသမား	-5302
▁ညီအစ်ကို	-5303
▁ရွေ့လျား	-5304
▁အစစအရာရာ	-5305
▁ဆိုးကျိုး	-5306
▁အံ့အားသင့်	-5307
▁အဘယ်ကြောင့်	-5308
▁ဦးသိန်းစိန်	-5309
ak	-5310
ri	-5311
အိ	-5312
▁😑	-5313
ဒေ့	-5314
ဟမ်	-5315
▁၃၉	-5316
▁၅၅	-5317
ဆိုက်	-5318
ရှို့	-5319
▁မှူး	-5320
▁လစဉ်	-5321
▁စသည့်	-5322
▁ပါရမီ	-5323
▁သုဂတိ	-5324
▁ဟိုက်	-5325
ရှိုင်း	-5326
▁ကြည်လင်	-5327
▁ကွက်လပ်	-5328
▁ညနေခင်း	-5329
▁အရပ်သား	-5330
▁အိမ်နီး	-5331
▁ချစ်ချစ်	-5332
▁စိတ်ဓါတ်	-5333
▁စွမ်းအား	-5334
▁ဆွဲဆောင်	-5335
▁တစ်ခါတလေ	-5336
▁တိတိကျကျ	-5337
▁လက်ထောက်	-5338
▁လားရှိုး	-5339
▁အာကာရဋ္ဌ	-5340
▁ပထမဦးဆုံး	-5341
▁ဖောင်းကြွ	-5342
▁ရောင်းစား	-5343
▁ရှင်းရှင်း	-5344
▁အကြီးအကျယ်	-5345
eg	-5346
ear	-5347
ခရာ	-5348
ိုင်အ	-5349
▁ဩစတြ	-5350
ခြိုက်	-5351
ဗ္ဗာန်	-5352
▁အထွက်	-5353
▁အမွေး	-5354
▁အလန်း	-5355
▁သားငယ်	-5356
▁ရေဒီယို	-5357
▁အလျောက်	-5358
▁မွန်မြတ်	-5359
▁ကူးပြောင်း	-5360
၁၃	-5361
▁x	-5362
စ်လျ	-5363
စွန်	-5364
သိက်	-5365
▁ဒက်	-5366
▁နျူ	-5367
လျှင်	-5368
▁ရွယ်	-5369
▁အသတ်	-5370
▁ငရုတ်	-5371
▁ပူပန်	-5372
▁မှိတ်	-5373
▁ရပ်စဲ	-5374
▁လမင်း	-5375
▁သမဂ္ဂ	-5376
▁ဥက္ကာ	-5377
▁နိဂုံး	-5378
▁ပြန်လာ	-5379
▁ဖျောက်	-5380
▁ဘရာဇီး	-5381
▁အသိပညာ	-5382
▁ကင်းစင်	-5383
▁ထင်မှတ်	-5384
▁ရှင်းပြ	-5385
▁ရှေ့ဆက်	-5386
▁လုပ်အား	-5387
▁ကျယ်ကျယ်	-5388
▁သူတစ်ပါး	-5389
▁ရွှေရောင်	-5390
▁ကျော်ကျော်	-5391
▁နာမည်ကျော်	-5392
▁လျှောက်သွား	-5393
▁ရွှေ့ပြောင်း	-5394
▁😞	-5395
ခွေ	-5396
စေး	-5397
▁တင့်	-5398
▁ရက္ခ	-5399
▁ဦးနေ	-5400
▁အိုက်	-5401
▁ခေတ်မီ	-5402
▁လမ်းပြ	-5403
▁ကြီးကျယ်	-5404
▁ဂေါဝိန္ဒ	-5405
▁ပေါ်ထွက်	-5406
▁ဘိုင်ယန်	-5407
▁ဘုရားရှင်	-5408
▁ကြောက်ရွံ့	-5409
▁ပျော်ပျော်	-5410
▁မိုက်ရိုင်း	-5411
၁၀	-5412
တွေး	-5413
ပုဒ်	-5414
ပြစ်	-5415
ဖွတ်	-5416
▁ကျည်	-5417
▁ချဲ့	-5418
▁နီနီ	-5419
▁အော့	-5420
နိမိတ်	-5421
ယောင်း	-5422
▁ကြားသိ	-5423
▁စစ်စစ်	-5424
▁ရှေးဦး	-5425
▁လေးနက်	-5426
▁လှိုက်	-5427
▁သေးသေး	-5428
▁သံရုံး	-5429
▁တနင်္လာ	-5430
▁ဗုဒ္ဓဟူး	-5431
▁မြေအောက်	-5432
▁အလှူရှင်	-5433
▁ကျွေးမွေး	-5434
▁ကုလားထိုင်	-5435
▁ရော်နယ်ဒို	-5436
▁လေ့ကျင့်ခန်း	-5437
▁အကျိုးစီးပွား	-5438
ov	-5439
၁၅	-5440
ail	-5441
ဇော	-5442
▁ဌာ	-5443
ဒယား	-5444
ရာဇာ	-5445
သလက်	-5446
အမျှ	-5447
သျှင်	-5448
▁ခမျာ	-5449
▁မှု၊	-5450
▁ဧကရီ	-5451
▁ဘောင်	-5452
▁အသင့်	-5453
လက်မှတ်	-5454
▁ဆိုရှယ်	-5455
▁သွင်းယူ	-5456
▁နိုင်ငံ့	-5457
▁မီးရှို့	-5458
▁ယိုးဒယား	-5459
▁တစ်သောင်း	-5460
▁အကြောင်းရင်း	-5461
▁ဂေါဝိန္ဒမဏိကျ	-5462
eb	-5463
ဟပ်	-5464
▁ဖီ	-5465
ဝေါ်	-5466
▁တကား	-5467
▁နှေး	-5468
▁မှုံ	-5469
▁မူဆယ်	-5470
▁သဘောမ	-5471
▁၁၀၀၀၀	-5472
▁ပတ်လည်	-5473
▁ရှိရှိ	-5474
▁ဝေးကွာ	-5475
▁ရေးဖွဲ့	-5476
▁အကျိုးအ	-5477
▁အဆက်ဆက်	-5478
▁ကြမ်းပြင်	-5479
▁အကျိုးပြု	-5480
▁တပ်ဖွဲ့ဝင်	-5481
▁ဘင်္ဂလားဒေ့	-5482
SA	-5483
ဿာ	-5484
▁3	-5485
ဖြာ	-5486
▁နရ	-5487
စလင်	-5488
ဒရယ်	-5489
ဟုန်	-5490
▁ဆစ်	-5491
▁ဝပ်	-5492
▁အက္	-5493
ကျော့	-5494
ရှင်နယ်	-5495
▁မယ်မယ်	-5496
▁အကျွန်	-5497
▁အိပ်စင်	-5498
▁ကြီးပွား	-5499
▁တစ်ထောင်	-5500
▁အလုံးစုံ	-5501
သက	-5502
omp	-5503
ရထာ	-5504
ကရက်	-5505
လျက်	-5506
▁ပိတ	-5507
▁ဝမ်	-5508
သူငယ်	-5509
▁၁၅၀၀	-5510
လှောင်	-5511
▁အရှည်	-5512
▁ပေမယ့်	-5513
▁ကိုယ်ခံ	-5514
▁ပေးဆောင်	-5515
▁ဝတ္ထုတို	-5516
▁အကြာကြီး	-5517
ကရ	-5518
ခိ	-5519
ကျဲ	-5520
မ့်	-5521
ဝမ်	-5522
ကျို	-5523
ဆိန်	-5524
▁Con	-5525
▁မစ်	-5526
င်္သာ	-5527
ရိယန်	-5528
▁ကျကျ	-5529
▁၂၀၁၄	-5530
မြူနစ်	-5531
▁ကင်ဆာ	-5532
▁မဟော်	-5533
▁အခေါ်	-5534
▁စရိုက်	-5535
▁ဆန်ဆန်	-5536
▁ဒသဂီရိ	-5537
▁ပိုပို	-5538
▁ပေးဆပ်	-5539
▁ပြေလည်	-5540
▁ပြောပြ	-5541
▁ယုတ်မာ	-5542
▁သူတော်	-5543
▁ကင်းဝေး	-5544
▁လိပ်ပြာ	-5545
▁လိုက်ပါ	-5546
▁အလှဆုံး	-5547
▁တင်းတင်း	-5548
▁ထိတ်လန့်	-5549
▁နယ်နိမိတ်	-5550
▁အကျွန်ုပ်	-5551
▁ကိုယ်ကျိုး	-5552
▁လှိုင်သာယာ	-5553
▁စိတ်လှုပ်ရှား	-5554
aw	-5555
္ထု	-5556
▁ခိ	-5557
ence	-5558
စနစ်	-5559
▁ဝံ့	-5560
▁ဟူး	-5561
▁အကူ	-5562
▁၄၀၀	-5563
▁၇၀၀	-5564
ခြင်း	-5565
နိမ့်	-5566
▁ဂရန်	-5567
▁မနော	-5568
▁လွှာ	-5569
▁သောက	-5570
▁အခွေ	-5571
yanmar	-5572
▁မိဘမဲ့	-5573
▁ဝက်သား	-5574
▁အကျင့်	-5575
▁ကမ်းခြေ	-5576
▁ထောက်ပြ	-5577
▁နေရာတကာ	-5578
▁သုခမိန်	-5579
▁ခင်ပွန်း	-5580
▁စိတ်နှလုံး	-5581
▁စာလုံးပေါင်း	-5582
▁တစ်ပြိုင်နက်	-5583
ဒီး	-5584
▁၃ဝ	-5585
ဂရမ်	-5586
အစုံ	-5587
▁ယို	-5588
▁ဂျို	-5589
▁အမေး	-5590
▁Inter	-5591
▁ကတုံး	-5592
▁လှုံ့	-5593
▁ဝါဆို	-5594
▁အမြီး	-5595
▁ကင်မရာ	-5596
▁လူဆိုး	-5597
▁Univers	-5598
▁ဖြောင့်	-5599
▁လတ်တလော	-5600
▁လုပ်သား	-5601
▁အက်သလက်	-5602
▁အာရိယန်	-5603
▁ခေါ်ဝေါ်	-5604
▁ပျံ့နှံ့	-5605
▁မိုနာကို	-5606
▁ဆိုင်းဘုတ်	-5607
▁တယ်လီဖုန်း	-5608
▁ကျောက်စိမ်း	-5609
▁မမိုးကောင်း	-5610
▁လည်းကောင်း၊	-5611
▁စောင့်မျှော်	-5612
ထစ်	-5613
သာရ	-5614
ကော့	-5615
ရွေ့	-5616
သမ္ပ	-5617
သီတာ	-5618
▁ကွပ်	-5619
▁တယ်၊	-5620
▁ပွေ့	-5621
▁ဗြဟ္	-5622
▁ဦးရေ	-5623
လျှော့	-5624
▁ငလျင်	-5625
▁သားရေ	-5626
▁ဝိဇ္ဇာ	-5627
▁အော်သံ	-5628
▁တည်းခို	-5629
▁ဓာတ်အား	-5630
▁ပြတ်သား	-5631
▁ရှိခိုး	-5632
▁သို့ပေမ	-5633
▁အက်သလက်တီ	-5634
▁အောက်တန်း	-5635
▁ပြင်းပြင်း	-5636
▁ဂျူဗင်တပ်စ်	-5637
▁မျက်နှာချင်း	-5638
အစ	-5639
၄၀	-5640
▁😇	-5641
▁ဝဝ	-5642
နွှဲ	-5643
▁ဝဝဝ	-5644
▁အလဲ	-5645
တန်ဆာ	-5646
ဓမ္မာ	-5647
▁ဒိုး	-5648
▁အမှာ	-5649
စားစား	-5650
▁ကာရန်	-5651
▁မဲဆန္ဒ	-5652
▁အက္ခရာ	-5653
အားဖြင့်	-5654
▁ကိုယ်စီ	-5655
▁ဆန်းစစ်	-5656
▁ဓမ္မာနံ	-5657
▁ပြတိုက်	-5658
▁မြေငှား	-5659
▁လမ်းခွဲ	-5660
▁ဥက္ကာခဲ	-5661
▁နွားနို့	-5662
▁ကမ္ဘာကြီး	-5663
▁ကမ်းလှမ်း	-5664
▁တပည့်တော်	-5665
▁ပန်းတိုင်	-5666
▁လင်းလွန်း	-5667
▁အကျဉ်းသား	-5668
▁မောင်မောင်တင်	-5669
▁လုပ်ပိုင်ခွင့်	-5670
ဖွ	-5671
ပူရ	-5672
▁ပွ	-5673
▁၃၃	-5674
ight	-5675
ဒိုး	-5676
ဘိုး	-5677
▁ဖေဖ	-5678
စောင်	-5679
▁အဖတ်	-5680
ဓိရာဇ်	-5681
▁တိမ်း	-5682
▁သတို့	-5683
▁ဟင်္သာ	-5684
▁အလှည့်	-5685
▁အလိုရှိ	-5686
▁တကယ်တမ်း	-5687
▁တစ်မျိုး	-5688
▁ဖွားမြင်	-5689
▁ခရိုင်ဝန်	-5690
▁လှုံ့ဆော်	-5691
▁ပေါင်းစည်း	-5692
▁ဘုန်းမောက်	-5693
▁သီချင်းလေး	-5694
▁အွန်လိုင်း	-5695
အံ	-5696
▁💞	-5697
act	-5698
ပ်အ	-5699
ကမ္ဘာ	-5700
▁ပင့်	-5701
▁မအေး	-5702
▁ပါတယ်	-5703
▁မားစ်	-5704
▁ဆန္ဒပြ	-5705
▁ဆောင့်	-5706
▁တစ်နေ့	-5707
▁တမျိုး	-5708
▁နီးကပ်	-5709
▁ပုဆိုး	-5710
▁စီးဆင်း	-5711
▁ပုန်ကန်	-5712
▁ရွှေထူး	-5713
▁အနီးကပ်	-5714
▁တိုးပွား	-5715
▁ဇာတ်ဆောင်	-5716
▁ရုပ်သိမ်း	-5717
▁အဆက်အသွယ်	-5718
▁ပျိုးထောင်	-5719
ci	-5720
၇၅	-5721
ကတိ	-5722
တ်ဇ	-5723
သဓာ	-5724
ကြက်	-5725
ချီး	-5726
တင့်	-5727
နှော	-5728
▁ဓါး	-5729
▁မင်	-5730
များ၊	-5731
အယှက်	-5732
▁ညဉ့်	-5733
▁နေမာ	-5734
▁မသက်	-5735
▁ရန်၊	-5736
▁ရှူး	-5737
▁အေဒီ	-5738
ထောင့်	-5739
▁ခလုတ်	-5740
▁စင်စစ်	-5741
▁တင်တင်	-5742
▁လန်ဒန်	-5743
▁ဝန်းရံ	-5744
▁အပိုင်	-5745
▁ဘာသာဝင်	-5746
▁သမိန်ဗြ	-5747
▁ကျယ်ဝန်း	-5748
▁အဆင်သင့်	-5749
▁လူတန်းစား	-5750
▁အင်္ဂလိပ်စာ	-5751
▁ကိုယ်ဝန်ဆောင်	-5752
ဆဲ	-5753
၂၃	-5754
▁×	-5755
ဒေသ	-5756
ဝပ်	-5757
ရန်း	-5758
လာမ်	-5759
သိပ်	-5760
အုံး	-5761
▁အမ်	-5762
ခန္ဓာ	-5763
လိုနီ	-5764
▁ဟိဟိ	-5765
▁သီဆို	-5766
▁ခရိုနီ	-5767
▁ပူးတွဲ	-5768
▁သိုင်း	-5769
▁ကာချုပ်	-5770
▁နှစ်ဆယ်	-5771
▁မက္ကဋ္ဌ	-5772
▁မဟာမိတ်	-5773
▁ယူဆောင်	-5774
▁ကူးစက်ခံ	-5775
▁ခင်မောင်	-5776
▁ဆိုးရွား	-5777
▁ထပ်တူထပ်	-5778
▁မဟော်သဓာ	-5779
▁မြင့်မား	-5780
▁မျိုးရိုး	-5781
▁ကွန်မြူနစ်	-5782
▁စွယ်စုံကျမ်း	-5783
▁÷	-5784
ust	-5785
ကရီ	-5786
ွှေ	-5787
▁:'	-5788
▁တလ	-5789
▁ဟီ	-5790
ညင်း	-5791
ပွန်	-5792
ထရွန်	-5793
ထဲရေး	-5794
▁ဘယ့်	-5795
▁မှေး	-5796
▁တာမွေ	-5797
▁ပျဉ်း	-5798
ဝန်ကြီး	-5799
▁လရောင်	-5800
▁ဦးဇင်း	-5801
▁Myanmar	-5802
▁စီးကရက်	-5803
▁နက်ဖြန်	-5804
▁ပန်းသီး	-5805
▁မူကြမ်း	-5806
▁ယောက္ခမ	-5807
▁အာဇာနည်	-5808
▁ကလေးသူငယ်	-5809
▁ထူးခကျွန်	-5810
▁ပေါင်းသင်း	-5811
▁ရာဇာဓိရာဇ်	-5812
▁ထပ်တူထပ်မျှ	-5813
▁အကြောင်းအရင်း	-5814
▁ဘင်္ဂလားဒေ့ရှ်	-5815
ill	-5816
နှမ	-5817
ကျစ်	-5818
ထိတ်	-5819
နှက်	-5820
မော့	-5821
ေးလျ	-5822
▁ကာဗ	-5823
▁ညင်	-5824
▁စွက်	-5825
▁ဇွတ်	-5826
▁အညို	-5827
စာရင်း	-5828
နှောင်	-5829
လွှမ်း	-5830
▁မန်နေ	-5831
▁ရှိုး	-5832
▁လှော်	-5833
▁သွန်း	-5834
▁အမြစ်	-5835
ချိုင်း	-5836
▁စုံတွဲ	-5837
▁အန်ကယ်	-5838
▁အအေးမိ	-5839
▁ငယ်ရွယ်	-5840
▁ဆင်နွှဲ	-5841
▁ပုံရိပ်	-5842
▁ဖိတ်ကြား	-5843
▁မင်းတရား	-5844
▁ရွှေမှုံ	-5845
▁ခြင်းလုံး	-5846
▁မိန်းမသား	-5847
▁ချောင်းဆိုး	-5848
▁ရှင်ဓမ္မဉာဏ	-5849
▁မင်္ဂလာဆောင်	-5850
တဲ	-5851
oun	-5852
▁ငှ	-5853
က္ခိ	-5854
ပျော	-5855
မုန်	-5856
▁ဖျာ	-5857
ယုတ္တ	-5858
▁ဘူမိ	-5859
▁မျို	-5860
▁သဇင်	-5861
▁ဇေယျာ	-5862
▁ပုဏ္ဏ	-5863
▁လိုဏ်	-5864
▁သိုက်	-5865
▁အဖမ်း	-5866
ကျေးဇူး	-5867
▁တပ်သား	-5868
▁ဘဘကြီး	-5869
▁လမ်းစဉ်	-5870
▁ကိုလိုနီ	-5871
▁ကြွက်သား	-5872
▁နုတ်ထွက်	-5873
▁မြစ်ကမ်း	-5874
▁အသုံးဝင်	-5875
▁ကီလိုမီတာ	-5876
▁သန်းခေါင်	-5877
တဆ	-5878
ical	-5879
န္တိ	-5880
ဝဏ္ဏ	-5881
ဂျီယံ	-5882
▁ပလက်	-5883
▁ရိတ်	-5884
▁၃၀၀၀	-5885
▁ညှိုး	-5886
▁ပို့စ်	-5887
▁မခိုင်	-5888
▁မြင်သာ	-5889
▁ရှိုက်	-5890
▁ဘူတာရုံ	-5891
▁ခေါက်ဆွဲ	-5892
▁တည့်တည့်	-5893
▁အနိုင်ယူ	-5894
▁အမတ်ကြီး	-5895
▁အမှုထမ်း	-5896
▁လက်ချောင်း	-5897
▁လျှောက်လွှာ	-5898
▁အိမ်နီးချင်း	-5899
▁😠	-5900
ပွတ်	-5901
မနား	-5902
▁၃၀၀	-5903
ကျင့်	-5904
▁ခြစ်	-5905
▁မျော	-5906
တံခွန်	-5907
သိက္ခာ	-5908
အတွင်း	-5909
▁စာဆို	-5910
▁နွားမ	-5911
▁မြဝတီ	-5912
▁ရှော်	-5913
▁အနော်	-5914
▁တန်းစီ	-5915
▁ထောင့်	-5916
▁အခြေချ	-5917
▁စက္ကန့်	-5918
▁ဈေးကြီး	-5919
▁ကြီးကြပ်	-5920
▁မြက်ခင်း	-5921
▁ရောင်စုံ	-5922
▁လုံးလုံး	-5923
▁နှိမ်နင်း	-5924
▁ပြည်ထဲရေး	-5925
▁စိုက်ကြည့်	-5926
▁တစ်ကိုယ်လုံး	-5927
▁အနောက်တိုင်း	-5928
ဓက	-5929
iss	-5930
ကျေ	-5931
ဂစ်	-5932
▁နဝ	-5933
▁ဗာ	-5934
▁၉၀	-5935
စ်တာ	-5936
▁မြူ	-5937
ိန္ဒူ	-5938
ွိုင်	-5939
▁ဝိုး	-5940
▁အလုံ	-5941
ဥက္ကလာ	-5942
▁ပေမဲ့	-5943
▁မနှစ်	-5944
▁ကြံစည်	-5945
▁မတ်တတ်	-5946
▁အယောက်	-5947
▁အေဂျင်	-5948
က်စ်လီဂါ	-5949
▁ခြေစမ်း	-5950
▁တော်ဝင်	-5951
▁နှောင်း	-5952
▁ကြက်သွန်	-5953
▁အစ္စလာမ်	-5954
▁အပေါင်းအ	-5955
▁ကောင်းစား	-5956
▁ပြန့်ပွား	-5957
▁သစ္စာဖောက်	-5958
ep	-5959
ယက	-5960
age	-5961
ast	-5962
est	-5963
မပြု	-5964
ိုဏ်း	-5965
▁ကိုစ	-5966
▁မာယု	-5967
▁ယေဘု	-5968
▁အမော	-5969
▁ပြုမူ	-5970
▁ဝုန်း	-5971
▁ကျွမ်း	-5972
▁နုပျို	-5973
▁ဘူးသီး	-5974
▁ရူပဗေဒ	-5975
▁လက်သီး	-5976
▁အိုင်း	-5977
မှူးကြီး	-5978
▁တစ်နည်း	-5979
▁ကိုထွန်း	-5980
▁မန်နေဂျာ	-5981
▁သွေးကြော	-5982
▁အသက်မွေး	-5983
▁အေဂျင်စီ	-5984
▁ဂိုးသွင်း	-5985
▁အခြေစိုက်	-5986
▁ကိုယ်ခန္ဓာ	-5987
▁တိုးမြှင့်	-5988
▁အထောက်အပံ့	-5989
▁ပြည်သူပြည်သား	-5990
▁ဘွန်ဒက်စ်လီဂါ	-5991
၇၇	-5992
erv	-5993
rad	-5994
ေါ့	-5995
▁ရံ	-5996
▁၄၂	-5997
ခရီး	-5998
ဆုပ်	-5999
ဝတ္ထု	-6000
အရုံး	-6001
▁စတဲ့	-6002
▁တိရိ	-6003
▁ဖုန်	-6004
▁မသိမ	-6005
▁မြမြ	-6006
▁လတ္တ	-6007
▁အတက်	-6008
▁ဦးလှ	-6009
▁မအူဝဲ	-6010
ရွှေရည်	-6011
▁စေ့စပ်	-6012
▁ဆင်ဖြူ	-6013
▁မာယုသာ	-6014
▁လေးလေး	-6015
▁အကဲခတ်	-6016
▁ကမ္ဘောဇ	-6017
▁ခွေးသား	-6018
▁နေ့ခင်း	-6019
▁ဖက်ဒရယ်	-6020
▁များသော	-6021
▁ရပ်တန့်	-6022
▁သဏ္ဍာန်	-6023
▁ချုပ်ဆို	-6024
▁ဖျော်ရည်	-6025
▁မောင်နှမ	-6026
▁သို့ဖြစ်	-6027
▁ကြမ်းတမ်း	-6028
▁ထိထိရောက်	-6029
▁တိရိစ္ဆာန်	-6030
▁သမ္မတနိုင်ငံ	-6031
▁e	-6032
မနေ	-6033
ထိန်	-6034
▁pro	-6035
▁အထာ	-6036
နိသင်	-6037
▁ကန်း	-6038
▁စန္ဒ	-6039
▁ပုလဲ	-6040
▁ပူတာ	-6041
▁ရုတ်	-6042
င်းပယ်	-6043
ရှိုက်	-6044
▁ကတော်	-6045
▁ဒက်ဒီ	-6046
▁ဖေဖေ့	-6047
▁မထွေး	-6048
▁ပေးချေ	-6049
▁ယေဘုယျ	-6050
▁အပ်ငွေ	-6051
ရိုးတန်း	-6052
▁စစ်တမ်း	-6053
▁တင်းနစ်	-6054
▁ပုဏ္ဏား	-6055
▁လိုက်လံ	-6056
▁လွှဲအပ်	-6057
▁သီးသန့်	-6058
▁ဟင်းလျာ	-6059
▁ငြင်းပယ်	-6060
▁စောက်ရမ်း	-6061
▁မျက်တောင်	-6062
▁လိုက်လျော	-6063
▁သောက်သုံး	-6064
▁ချီးမြှင့်	-6065
▁နိုင်စွမ်း	-6066
▁ကိုယ်စားပြု	-6067
ဓါ	-6068
ြေ	-6069
ass	-6070
မသာ	-6071
▁မထ	-6072
ရတနာ	-6073
▁for	-6074
▁ပကတိ	-6075
▁မာရီ	-6076
▁မြို	-6077
▁နှစ်သ	-6078
▁လွှဲခ	-6079
▁နေ့ရက်	-6080
▁မသိမသာ	-6081
▁ဟိန္ဒူ	-6082
▁ပိတ်ရက်	-6083
▁ပူတာအို	-6084
▁အသေးစား	-6085
▁တစ်သိန်း	-6086
▁မိုးသောက်	-6087
▁University	-6088
▁သမိန်ဗြတ်ဇ	-6089
▁ထိထိရောက်ရောက်	-6090
ရွ	-6091
လက	-6092
ဘုံ	-6093
တမန်	-6094
လှုံ	-6095
သူဇာ	-6096
▁အလာ	-6097
ဗုဒ္ဓ	-6098
▁ဖျတ်	-6099
▁ဘေဘီ	-6100
▁လဲကျ	-6101
▁သဝဏ်	-6102
▁သာဓက	-6103
ကျွန်း	-6104
သားသား	-6105
▁မတော်	-6106
▁ယိမ်း	-6107
▁ဂိုဏ်း	-6108
▁ဆင်းတု	-6109
▁မှတ်ယူ	-6110
▁အားဆေး	-6111
▁ခမ်းနား	-6112
▁လက်ခုပ်	-6113
▁သင်္ချာ	-6114
▁အာနိသင်	-6115
▁ငှက်ပျော	-6116
▁နောက်ဆက်	-6117
▁ဝတ်မှုန်	-6118
▁သိသိသာသာ	-6119
▁ကံထူးရှင်	-6120
▁ကျော်စိန်	-6121
▁ကျော်လွန်	-6122
▁ပွင့်လင်း	-6123
▁ကျေးဇူးရှင်	-6124
▁တပ်မတော်သား	-6125
qu	-6126
ဂေ	-6127
အဖ	-6128
ကာလ	-6129
ဗား	-6130
လျံ	-6131
▁ဖွ	-6132
▁၆၅	-6133
ခရို	-6134
ဗျူး	-6135
ေမန်း	-6136
▁မှု့	-6137
▁ရနံ့	-6138
▁လော်	-6139
▁အတော	-6140
ကိုကို	-6141
ဋ္ဌာန်	-6142
တစိုက်	-6143
▁ကျုံး	-6144
▁ညီမျှ	-6145
▁အမိုး	-6146
▁ဦးစွာ	-6147
▁ကိုမြတ်	-6148
▁စကားပုံ	-6149
▁ဆက်နွယ်	-6150
▁တော်ကြာ	-6151
▁တွေးတော	-6152
▁သက်ကြီး	-6153
▁သုံးဆယ်	-6154
▁စကားပြော	-6155
▁စွန့်ပစ်	-6156
▁ထောင်ဒဏ်	-6157
▁ရုပ်ပွား	-6158
▁မှားယွင်း	-6159
▁အလုပ်ရှင်	-6160
▁အဆင့်အတန်း	-6161
▁အောင်အောင်	-6162
▁အခွင့်အလမ်း	-6163
▁အသုံးအနှုန်း	-6164
ဒူ	-6165
၁၆	-6166
▁♡	-6167
are	-6168
ure	-6169
▁၃၄	-6170
စုတ်	-6171
▁ယက်	-6172
▁တသက်	-6173
▁ပထဝီ	-6174
▁မြူး	-6175
▁အထီး	-6176
▁ဥမင်	-6177
▁ကျိန်	-6178
▁တန်ဆာ	-6179
ယုတ္တကာ	-6180
▁ပြခန်း	-6181
▁ဘယ့်နှ	-6182
▁လဲလှယ်	-6183
▁အခိုက်	-6184
▁အေးစက်	-6185
▁ကောက်ခံ	-6186
▁လုံချည်	-6187
▁အတိုက်အ	-6188
▁အလားအလာ	-6189
▁ဒေါ့မွန်	-6190
▁လွတ်လွတ်	-6191
▁ဆင်းရဲသား	-6192
▁မြေတိုင်း	-6193
▁ရောင်ခြည်	-6194
▁အရေးမကြီး	-6195
▁နေရောင်ခြည်	-6196
▁ပုရောဟိတ်ကြီး	-6197
ဇေ	-6198
မသ	-6199
၈၂	-6200
art	-6201
ide	-6202
ညက်	-6203
▁An	-6204
▁ဗက	-6205
ဒ္ဓိ	-6206
သွပ်	-6207
▁လှဲ	-6208
ိန္ဒာ	-6209
▁ခိခိ	-6210
▁ဘုတ်	-6211
▁လူစု	-6212
▁ချက်၊	-6213
▁ဒီကရီ	-6214
▁ဖာသည်	-6215
▁ဆွဲငင်	-6216
▁ဒေးဗစ်	-6217
▁ရိပ်သာ	-6218
▁လပြည့်	-6219
▁စာတိုက်	-6220
▁တိုကျို	-6221
▁ထုတ်လွှ	-6222
▁သက်မွန်	-6223
▁အသံထွက်	-6224
▁တွေးခေါ်	-6225
▁ဒုက္ခပေး	-6226
▁လူကောင်း	-6227
▁အပြစ်တင်	-6228
▁ကုန်တိုက်	-6229
▁နားမထောင်	-6230
▁ရွှင်လန်း	-6231
▁သိန်းစိန်	-6232
▁အဆင့်အတန်း	-6233
▁ကမ်းရိုးတန်း	-6234
အပ	-6235
၆၇	-6236
▁”	-6237
▁😷	-6238
ock	-6239
one	-6240
our	-6241
ကုံး	-6242
နဉ္စ	-6243
န္ဒီ	-6244
ရုဏာ	-6245
▁ဒို	-6246
က္ခိဏ	-6247
ကျိန်	-6248
မွှား	-6249
▁ပုပ်	-6250
▁အကာအ	-6251
▁၂၀၁၃	-6252
▁ငါးရာ	-6253
▁တွန့်	-6254
▁ဘိက္ခ	-6255
▁သယ်ယူ	-6256
▁အကြပ်	-6257
▁တန်းတူ	-6258
▁ရေကြီး	-6259
▁အိမ်ရာ	-6260
▁ကောက်ယူ	-6261
▁ငွေချေး	-6262
▁ဖြစ်တည်	-6263
▁သီးသန့်	-6264
▁တရားမဝင်	-6265
▁နိဗ္ဗာန်	-6266
▁အနော်ရထာ	-6267
▁ဩစတြေးလျ	-6268
▁ကျယ်လောင်	-6269
▁စောက်ရှက်	-6270
▁နယူးယောက်	-6271
▁ပုံသဏ္ဌာန်	-6272
▁ရှေ့မှောက်	-6273
▁အမြင့်ဆုံး	-6274
▁လျှောက်ပြော	-6275
▁အက်သလက်တီကို	-6276
▁နိုင်ငံရေးသမား	-6277
၄၅	-6278
ial	-6279
ကြဲ	-6280
olog	-6281
▁and	-6282
▁ကက်	-6283
▁ဒေဝ	-6284
▁နပ်	-6285
လှည့်	-6286
အမြင်	-6287
▁ကိတ်	-6288
▁နှယ်	-6289
ဆတ်ဆတ်	-6290
▁-----	-6291
▁အသီးအ	-6292
▁စစ်ရေး	-6293
▁ပြည့်ဝ	-6294
▁ဝေးဝေး	-6295
▁ဦးသန်း	-6296
▁ပိတောက်	-6297
▁နွေးထွေး	-6298
▁အဘွားလေး	-6299
▁ကျင့်သုံး	-6300
▁ဖော်ဆောင်	-6301
▁ရေကြောင်း	-6302
▁ကျမ်းကျိန်	-6303
▁မိုက်မိုက်	-6304
▁ယောက်ျားလေး	-6305
▁ချန်ပီယံလိဂ်	-6306
▁မိုးညှင်းမင်း	-6307
▁လက်ဖက်ရည်ဆိုင်	-6308
ဘူ	-6309
၆၉	-6310
▁😱	-6311
lan	-6312
ငှာ	-6313
ဇ္ဈ	-6314
ရဲ့	-6315
▁၃၈	-6316
▁ခူး	-6317
▁ငှာ	-6318
▁၁၀ဝ	-6319
ကုလား	-6320
ဖီးလ်	-6321
▁ခြယ်	-6322
▁ပလတ်	-6323
▁မှို	-6324
ကန်ကန်	-6325
▁ငွေစု	-6326
▁ဒါဆို	-6327
▁ပါမစ်	-6328
▁ဘားအံ	-6329
▁မေမေ့	-6330
▁အလေးအ	-6331
▁အလျား	-6332
▁တက်တက်	-6333
▁အပ်နှံ	-6334
▁စင်္ကြံ	-6335
▁စွက်ဖက်	-6336
▁ပစ်မှတ်	-6337
▁ရိဃုပတိ	-6338
▁သဘောမတူ	-6339
ဆိတ်လောက်	-6340
▁ချိတ်ဆွဲ	-6341
▁ဆရာမကြီး	-6342
▁မနက်ခင်း	-6343
▁မွတ်စလင်	-6344
▁လန်းဆန်း	-6345
▁အနီးအနား	-6346
▁မဲဆန္ဒနယ်	-6347
▁အိမ်ကွင်း	-6348
သမ္ပယုတ္တကာ	-6349
▁ဆည်မြောင်း	-6350
▁ဘောလုံးသမား	-6351
▁မော်တော်ကား	-6352
▁သူတော်ကောင်း	-6353
ry	-6354
ဘဝ	-6355
ook	-6356
ဘား	-6357
သွက်	-6358
▁၆၀၀	-6359
ကြုတ်	-6360
အုန်း	-6361
▁bank	-6362
▁ကယား	-6363
▁ငြီး	-6364
▁စူပါ	-6365
▁ကရုဏာ	-6366
▁တွဲဖက်	-6367
▁နောင်တ	-6368
▁ဖြုန်း	-6369
▁မှီခို	-6370
▁အစီစဉ်	-6371
▁ခေတ်သစ်	-6372
▁စိတ်တို	-6373
▁စူးစမ်း	-6374
▁ဆည်းပူး	-6375
▁သေနင်္ဂ	-6376
▁အားတင်း	-6377
▁ချောချော	-6378
▁ငိုကြွေး	-6379
▁အပြီးသတ်	-6380
▁အိပ်ခန်း	-6381
▁နန်းဆောင်	-6382
▁မိုက်ခရို	-6383
▁အဆင့်ဆင့်	-6384
▁အဆုံးအဖြတ်	-6385
▁စာကြည့်တိုက်	-6386
ငါ	-6387
ene	-6388
ဇက်	-6389
▁၄၉	-6390
ပျံ့	-6391
အသတ်	-6392
ကြွယ်	-6393
ဖွင့်	-6394
▁ကျစ်	-6395
▁ဇင်း	-6396
▁ညှစ်	-6397
ဆင်းရဲ	-6398
ထောင့်	-6399
ဒေါင်း	-6400
ုတ်တုတ်	-6401
▁စစ်တွေ	-6402
▁တင်ဆက်	-6403
▁မဲဆွယ်	-6404
▁လက်ဆွဲ	-6405
▁အားငယ်	-6406
▁ဦးဖိုး	-6407
........	-6408
▁ခိုလှုံ	-6409
▁ချိုင့်	-6410
▁စိတ်မချ	-6411
▁လူနေမှု	-6412
▁အားမပေး	-6413
▁ငှားရမ်း	-6414
▁သတင်းစဉ်	-6415
▁အသက်ကြီး	-6416
▁ဖိုက်တင်း	-6417
▁အင်တာဗျူး	-6418
▁အရွယ်အစား	-6419
▁ဂုဏ်သိက္ခာ	-6420
▁ဖြစ်ကြောင်း	-6421
ဉ္	-6422
ack	-6423
ice	-6424
▁၄၈	-6425
ချား	-6426
တူဂီ	-6427
တ္တံ	-6428
ကြည်း	-6429
နန္ဒာ	-6430
ဖောင်	-6431
လ်ဒို	-6432
▁စွန်	-6433
▁မုတ်	-6434
▁သုဇာ	-6435
▁၂၀၁၂	-6436
မ်းမျှ	-6437
သေတ္တာ	-6438
▁ခံစစ်	-6439
▁ငိုက်	-6440
▁တစ်နေ	-6441
▁မမလေး	-6442
▁လိုးမ	-6443
▁အားသာ	-6444
▁စံတော်	-6445
▁တည်တည်	-6446
▁အထက်ပါ	-6447
▁အသတ်ခံ	-6448
ပြည်လုံး	-6449
▁အနိုင်ရ	-6450
▁ဒကာမကြီး	-6451
▁နေ့လယ်စာ	-6452
▁ပလတ်စတစ်	-6453
▁ပေါ်တူဂီ	-6454
▁လွှတ်တင်	-6455
▁အကွာအဝေး	-6456
▁စွန့်လွှတ်	-6457
▁ယာဉ်မောင်း	-6458
LD	-6459
ဒူး	-6460
ပျာ	-6461
ဗီး	-6462
ဆွတ်	-6463
လန့်	-6464
သာန်	-6465
▁ဇင်	-6466
▁အနိ	-6467
▁အသု	-6468
ကျဉ်း	-6469
ပိုဒ်	-6470
မွမ်း	-6471
▁ကိသက	-6472
▁သူနာ	-6473
▁အသင်	-6474
နိုင်း	-6475
▁မိသင်	-6476
▁ရိုးမ	-6477
▁ရွှံ့	-6478
▁------	-6479
▁ကိုရင်	-6480
▁ဂျာမန်	-6481
▁စာကျက်	-6482
▁တူရိယာ	-6483
▁ဒက္ခိဏ	-6484
▁အစီအမံ	-6485
▁အရိပ်အ	-6486
▁ကုန်စည်	-6487
▁တူးလော့	-6488
▁ပူပြင်း	-6489
▁မူလတန်း	-6490
▁မေခိုင်	-6491
▁မော်ရင်	-6492
▁တောင်းခံ	-6493
▁အကာအကွယ်	-6494
▁အပြည့်အဝ	-6495
▁ကိသကိန္ဒာ	-6496
▁ကျော်ဖြတ်	-6497
▁ကြီးပြင်း	-6498
▁သင်္ချိုင်း	-6499
▁စာရွက်စာတမ်း	-6500
▁Q	-6501
▁💛	-6502
ach	-6503
မဟာ	-6504
ဝေါ	-6505
▁st	-6506
ပုံး	-6507
▁ဂရိ	-6508
▁ငဲ့	-6509
▁တူမ	-6510
▁ပေ့	-6511
▁၂၅၀	-6512
iation	-6513
▁စူးရှ	-6514
▁ဓားပြ	-6515
▁လဆန်း	-6516
▁သမာဓိ	-6517
▁ဟဲလို	-6518
▁အရွက်	-6519
▁အဲလို	-6520
▁ဝတ်စား	-6521
▁ဂုဏ်ထူး	-6522
▁စိတ်အား	-6523
▁ညွှန်ပြ	-6524
▁မြေခွေး	-6525
▁သစ်ရွက်	-6526
▁စော်ဘွား	-6527
▁တစ်ချို့	-6528
▁တစ်ဝိုက်	-6529
▁နတ်ကွန်း	-6530
▁ရှော်ကေး	-6531
▁ချက်ပြုတ်	-6532
▁နောက်ကွယ်	-6533
▁ဖြည့်စွက်	-6534
▁အဆင့်ဆင့်	-6535
▁အနိုင်ကျင့်	-6536
▁ပိုင်ရှင်မဲ့	-6537
uc	-6538
ite	-6539
ငုံ	-6540
ညာဏ	-6541
လှူ	-6542
က္ကူ	-6543
ဂိတ်	-6544
▁ကျူ	-6545
▁ထစ်	-6546
▁ဆို့	-6547
▁တယော	-6548
▁တလော	-6549
▁သွန်	-6550
▁အစွဲ	-6551
▁သောင်	-6552
▁အကြွေ	-6553
▁အစဉ်အ	-6554
▁အဆန်း	-6555
▁အယူခံ	-6556
▁အိပ်မ	-6557
▁ခါးပတ်	-6558
▁ဂိတ်စ်	-6559
▁မော်လီ	-6560
▁ရဲရင့်	-6561
▁ဟိုင်း	-6562
▁မြစ်ဆုံ	-6563
▁ခိုင်မြဲ	-6564
▁ဂြိုဟ်တု	-6565
▁ငေးကြည့်	-6566
▁တင်တင်ဦး	-6567
▁တန်ဆောင်	-6568
▁တံတိုင်း	-6569
▁ပေါ့ပေါ့	-6570
▁သမီးတော်	-6571
▁သိမ်မွေ့	-6572
▁ကျယ်ပြန့်	-6573
▁ဘုရားကြီး	-6574
▁ရပ်ဆိုင်း	-6575
▁အကြီးကြီး	-6576
▁အလုပ်လုပ်	-6577
▁တဆိတ်လောက်	-6578
▁သင်္ဂြိုဟ်	-6579
▁စံတော်ချိန်	-6580
▁နောက်ဆက်တွဲ	-6581
▁တံသမ္ပယုတ္တကာ	-6582
ud	-6583
▁💪	-6584
ans	-6585
ron	-6586
ဘလူ	-6587
▁ch	-6588
~~~~	-6589
တည့်	-6590
▁ခရု	-6591
လွမ်း	-6592
▁၄၀၀၀	-6593
ထောင်း	-6594
▁စင်တာ	-6595
▁ဆက်ခံ	-6596
▁မွမ်း	-6597
▁ရေဘေး	-6598
▁အငွေ့	-6599
▁ညွှန်း	-6600
▁ပီပြင်	-6601
▁ရေပြင်	-6602
ဖိုင်နယ်	-6603
▁ကောင်တာ	-6604
▁ငွေလွှဲ	-6605
▁ဇာတ်ခုံ	-6606
▁ရွှေကစ်	-6607
▁နည်းစနစ်	-6608
▁မဏ္ဍိုင်	-6609
▁လှည့်လည်	-6610
▁သွေးတိုး	-6611
▁အစ်မတော်	-6612
▁တူးလော့စ်	-6613
▁လှည်းတန်း	-6614
▁အတိုက်အခံ	-6615
▁ကျောက်တန်း	-6616
▁မိုးကောင်း	-6617
▁မျက်မှောင်	-6618
▁အိပ်မပျော်	-6619
▁တော်တော်များ	-6620
▁စွမ်းဆောင်ရည်	-6621
▁ပရီးမီးယားလိဂ်	-6622
▁မျှော်လင့်ချက်	-6623
ge	-6624
ik	-6625
iz	-6626
ကိ	-6627
ain	-6628
ram	-6629
ဗမာ	-6630
အီး	-6631
▁Ph	-6632
ဆုန်	-6633
အသား	-6634
စိမ့်	-6635
▁ဂျူး	-6636
▁နီရဲ	-6637
▁အလျှ	-6638
▁ကလေးမ	-6639
▁စည်သူ	-6640
▁တဆင့်	-6641
▁ထိပါး	-6642
▁နံဘေး	-6643
▁Intern	-6644
▁ပို့ချ	-6645
▁ကိုကျင်	-6646
▁နှောင့်	-6647
▁ဖြောင့်	-6648
▁မှိုင်း	-6649
▁ရွှေဘို	-6650
▁သင်ရိုး	-6651
▁စာရင်းသေ	-6652
▁လွင်ပြင်	-6653
▁အဖိုးတန်	-6654
▁အမြောက်အ	-6655
ခမ်းလှိုင်	-6656
▁မြောင်းမြ	-6657
▁မြှင့်တင်	-6658
▁ရန်ပုံငွေ	-6659
▁ကျောက်မျက်	-6660
▁တင်မြှောက်	-6661
▁ထွန်းထွန်း	-6662
▁အစည်းအရုံး	-6663
▁အရင်းအမြစ်	-6664
▁ဦးခင်မောင်	-6665
▁မျိုးချစ်စိတ်	-6666
၄၆	-6667
တရာ	-6668
▁Al	-6669
▁စွ	-6670
ship	-6671
ဇွန်	-6672
မြက်	-6673
သုကာ	-6674
▁စေ၊	-6675
▁တစ်စ	-6676
▁ဒင်း	-6677
▁လက်ဖ	-6678
▁ဂျော်	-6679
▁ညင်သာ	-6680
▁နွေဦး	-6681
▁ရီးယဲ	-6682
▁လှံတံ	-6683
▁အပန်း	-6684
▁ဗိသုကာ	-6685
▁ရိက္ခာ	-6686
▁လတ္တံ့	-6687
▁သံတမန်	-6688
▁ထောင်ချ	-6689
▁ချောမွေ့	-6690
▁တစ်ကမ္ဘာ	-6691
▁သင်္ကန်း	-6692
▁သန်စွမ်း	-6693
▁ဧည့်ခန်း	-6694
▁ပျဉ်းမနား	-6695
▁ဖြတ်ကျော်	-6696
▁ဗိုလ်ကြီး	-6697
▁လှမ်းကြည့်	-6698
▁ဦးဇော်ဇော်	-6699
▁ဘုရားကျောင်း	-6700
၁၂	-6701
နိက	-6702
▁••	-6703
တိန်	-6704
ပျစ်	-6705
လိတ်	-6706
▁ပါဠိ	-6707
▁ဖုတ်	-6708
▁ဗမာ့	-6709
▁ရှန်	-6710
ခုက္ကူ	-6711
လပ်လပ်	-6712
▁ခွဲဝေ	-6713
▁ဆင်တူ	-6714
▁ထူထပ်	-6715
▁ပဉ္စမ	-6716
▁အဲသည်	-6717
▁စုရုံး	-6718
▁ဒြပ်ထု	-6719
▁နီးနီး	-6720
▁လပြည့်	-6721
▁အကျုံး	-6722
▁အာဂျင်	-6723
▁အောင့်	-6724
ကျော်စွာ	-6725
လိုက်စား	-6726
▁ထိပ်သီး	-6727
▁ထို့အတူ	-6728
▁မွေးစား	-6729
▁အားကြီး	-6730
▁လောကကြီး	-6731
▁ကျွမ်းကျင်	-6732
▁လျှောက်လှမ်း	-6733
▁အပေါင်းအသင်း	-6734
▁အကျိုးကျေးဇူး	-6735
▁လွတ်လွတ်လပ်လပ်	-6736
ဝသ	-6737
▁😐	-6738
ကုပ်	-6739
ကွေ့	-6740
စွယ်	-6741
ပါးရ	-6742
သွေ့	-6743
▁တကာ	-6744
▁သို	-6745
ဂျင်း	-6746
▁ညစ်ည	-6747
▁ပျို	-6748
▁ဝှေ့	-6749
▁၂၀၁၁	-6750
▁ကျော့	-6751
▁နိမ့်	-6752
▁အပြတ်	-6753
ကွန်ရက်	-6754
မက်ဒရစ်	-6755
▁နေခြည်	-6756
▁နှာဘူး	-6757
▁ပြတင်း	-6758
▁မင်းညီ	-6759
▁သံလွင်	-6760
▁အားလပ်	-6761
▁ဦးသန့်	-6762
▁တော်ရုံ	-6763
▁ပခုက္ကူ	-6764
▁ဖယောင်း	-6765
▁မွမ်းမံ	-6766
ကိုရီးယား	-6767
ရင်တီးနား	-6768
▁ခွေးမသား	-6769
▁အားရပါးရ	-6770
▁ကံမကောင်း	-6771
▁ချီးမွမ်း	-6772
▁တတ်မြောက်	-6773
▁ကျောင်းဆရာ	-6774
▁ဖုံးလွှမ်း	-6775
▁ရှုံးနိမ့်	-6776
▁လှိုင်ဘွား	-6777
▁ဆရာတော်ကြီး	-6778
▁အသုံးအဆောင်	-6779
▁တစ်ကမ္ဘာလုံး	-6780
▁မှန်မှန်ကန်ကန်	-6781
၉၆	-6782
ထုံ	-6783
ပနာ	-6784
ချန်	-6785
အမတ်	-6786
▁တရိ	-6787
▁ဒစ်	-6788
စ်လျူ	-6789
လ်ဟမ်	-6790
▁မာယာ	-6791
▁အတို	-6792
စောင့်	-6793
နီးယား	-6794
▁.....	-6795
▁တွေဝေ	-6796
▁မချော	-6797
▁ရှုံ့	-6798
▁အကြော	-6799
ိုးရင်း	-6800
▁စွဲဆို	-6801
▁တိုတို	-6802
▁ပစ်ထား	-6803
▁ပုဆိန်	-6804
▁မနက်စာ	-6805
▁မိုးလေ	-6806
▁ကန့်ဘလူ	-6807
▁ထက်မြတ်	-6808
▁ပြန်ဆို	-6809
▁ဖူလ်ဟမ်	-6810
▁လျစ်လျူ	-6811
▁ဟောကြား	-6812
▁တင်းကျပ်	-6813
▁တရားတော်	-6814
▁ထုတ်ကုန်	-6815
▁ပရိုတင်း	-6816
▁ပိုင်နက်	-6817
▁ပြေးသွား	-6818
▁တပ်မှူးလေး	-6819
▁အဂတိလိုက်စား	-6820
စွ	-6821
ရဏ	-6822
ကွပ်	-6823
တို့	-6824
မယ့်	-6825
မရှိ	-6826
▁ထွေ	-6827
▁ဗလာ	-6828
တကြား	-6829
မြင်း	-6830
သိုက်	-6831
သုဉ်း	-6832
ဟိန်း	-6833
▁ကိုဝ	-6834
▁ပါဝါ	-6835
▁လေလေ	-6836
▁ကျင်း	-6837
▁ထုချေ	-6838
▁နီကို	-6839
▁ဖူဆယ်	-6840
▁သမ္မာ	-6841
▁အခင်း	-6842
▁ကတိပေး	-6843
▁ကတ်ပြား	-6844
▁ကြက်သား	-6845
▁ချစ်ကစ်	-6846
▁မြန်ဆန်	-6847
▁ရီးယဲယ်	-6848
▁လျော့ကျ	-6849
▁အချုပ်အ	-6850
▁နန်းရင်း	-6851
▁ပြတ်ပြတ်	-6852
▁မြင်းစီး	-6853
▁မက်ဆေ့ချ်	-6854
▁သူဌေးကြီး	-6855
▁ကျန်းမာရေး	-6856
▁အာရုံစိုက်	-6857
▁ချန်ပီယံရှစ်	-6858
▁ပြိုင်ပွဲဝင်	-6859
မန	-6860
၅၅	-6861
၈၈	-6862
ern	-6863
omm	-6864
ကြူ	-6865
ညှာ	-6866
သူရ	-6867
▁ပဒ	-6868
▁ဗေ	-6869
ဒုံး	-6870
ပြယ်	-6871
ရှပ်	-6872
▁ပဝါ	-6873
▁မကျ	-6874
atter	-6875
မှုတ်	-6876
လျှော	-6877
▁ချုံ	-6878
▁စံပြ	-6879
▁ဆယ့်	-6880
▁ပုံး	-6881
▁ဘဂဝါ	-6882
▁အလွဲ	-6883
မှုန်း	-6884
▁ဂျီဒီ	-6885
▁ဇွန်း	-6886
▁ပုတီး	-6887
▁ဖီအို	-6888
▁မဖြစ်	-6889
▁ရီးရဲ	-6890
▁အားဖြ	-6891
▁ဆပ်ပြာ	-6892
▁ပွဲစား	-6893
▁ဘုရင့်	-6894
▁ရေတွက်	-6895
▁အမေရိက	-6896
▁မတော်တဆ	-6897
▁လက်ချက်	-6898
▁ပျမ်းမျှ	-6899
▁ခေါ်ဆောင်	-6900
▁အဘွားကြီး	-6901
▁ခန်းမဆောင်	-6902
▁စွန့်လွှတ်	-6903
▁ပျောက်ကင်း	-6904
န၊	-6905
ဖူ	-6906
▁😖	-6907
နရီ	-6908
ဟင်	-6909
▁Sh	-6910
evel	-6911
ညှပ်	-6912
ဖလား	-6913
ွှတ်	-6914
▁ကျဲ	-6915
▁ထဲက	-6916
▁ဘင်	-6917
▁မမြ	-6918
▁တီဗီ	-6919
▁ထိန်	-6920
ကြောက်	-6921
ဝင့်ဝါ	-6922
▁တခုခု	-6923
▁ရင်နာ	-6924
စတိုင်း	-6925
မင်းသား	-6926
▁ကလောင်	-6927
ဌာနချုပ်	-6928
▁ဂျီဒီပီ	-6929
▁နာကြည်း	-6930
▁အခုတလော	-6931
▁အစ်ကို့	-6932
▁ငြင်းဆန်	-6933
▁ဘိုးဘွား	-6934
▁မိုးလေဝသ	-6935
▁နံပါတ်ပြား	-6936
▁ဦးစီးချုပ်	-6937
▁ဖီအိုရင်တီးနား	-6938
ဟီ	-6939
ult	-6940
ဒေဝ	-6941
▁သြ	-6942
န္တု	-6943
▁ကြဲ	-6944
▁ဂန္ဓ	-6945
▁စွတ်	-6946
▁ဆူပူ	-6947
▁နေပူ	-6948
▁ဖြို	-6949
▁အဂ္ဂ	-6950
▁အရီး	-6951
▁အိုလ	-6952
မ္မော်	-6953
ိုင်ဘာ	-6954
▁စုဝေး	-6955
▁မျဉ်း	-6956
▁လက္ခဏ	-6957
▁အလှအပ	-6958
▁အဟုတ်	-6959
▁ငွေသား	-6960
▁သတိရှိ	-6961
▁သိကြား	-6962
▁ဟားဟား	-6963
▁တစ်ဝန်း	-6964
▁ရုပ်ရည်	-6965
▁ငြင်းဆို	-6966
▁ဆိုက်ကား	-6967
▁ဒေါ်ဒေါ်	-6968
▁ဖြစ်ပျက်	-6969
▁မီးရောင်	-6970
▁မှတစ်ပါး	-6971
▁ကျယ်ပြန့်	-6972
▁စိတ်ကောက်	-6973
▁ပန်းပွင့်	-6974
▁ရည်ညွှန်း	-6975
▁သုံးဆောင်	-6976
▁ခေါင်းအုံး	-6977
▁မော်ရင်ဟို	-6978
▁မျက်မှောက်	-6979
▁အဆင့်မြင့်	-6980
▁အရွယ်ရောက်	-6981
▁အသိအမှတ်ပြု	-6982
ပလ	-6983
သ်	-6984
ဟု	-6985
၄၃	-6986
၇၀	-6987
▁r	-6988
----	-6989
▁ဗကပ	-6990
မုန့်	-6991
အမှန်	-6992
▁တာတာ	-6993
▁ထွန်	-6994
▁ဟော့	-6995
▁၅၀၀၀	-6996
သတ္တဝါ	-6997
▁ဘယ်လ်	-6998
▁ကွာတား	-6999
▁စကားသံ	-7000
▁စစ်ဆင်	-7001
▁လွှင့်	-7002
▁အိုလဂါ	-7003
▁အံဝှက်	-7004
▁ဦးစိုး	-7005
▁တို့ဗမာ	-7006
▁နယ်ခြား	-7007
▁ပေါ့ပါး	-7008
▁မှာကြား	-7009
▁ဝင်ရိုး	-7010
▁သင်္ကေတ	-7011
▁အငြိမ်း	-7012
တီးရီးယား	-7013
▁ချစ်ကြည်	-7014
▁စုံထောက်	-7015
▁ဒေါ်သန်း	-7016
▁ကြက်တောင်	-7017
▁ပြေးလွှား	-7018
▁မျှော်စင်	-7019
▁အခွင့်ရေး	-7020
▁အပျိုကြီး	-7021
▁အရင်တုန်း	-7022
▁ကိုင်ဆောင်	-7023
▁အရင်းအနှီး	-7024
▁ဗိုလ်ချုပ်ကြီး	-7025
ost	-7026
ဖေး	-7027
အမေ	-7028
အံ့	-7029
▁၆၃	-7030
ခြယ်	-7031
ဈာန်	-7032
▁ကနေ	-7033
▁ဒါန	-7034
မိန့်	-7035
▁ကတ္တ	-7036
▁ဂျက်	-7037
▁နာယက	-7038
▁ဘဝင်	-7039
▁ဘာညာ	-7040
▁ရွံ့	-7041
▁အလတ်	-7042
စဖီးလ်	-7043
ဖို့ဒ်	-7044
မြိုက်	-7045
▁စံပယ်	-7046
▁ဗျည်း	-7047
▁ဟိန်း	-7048
ပိတ်ရက်	-7049
ပျောင်း	-7050
▁ငယ်စဉ်	-7051
▁ထူးထူး	-7052
▁နတ်ရွာ	-7053
▁ပေမယ့်	-7054
▁အားထား	-7055
ကွက်ကြီး	-7056
▁ကားသမား	-7057
▁တပေါင်း	-7058
▁ပုတ်ခတ်	-7059
▁ဘူမိဗေဒ	-7060
▁အရှိန်အ	-7061
▁တိတ်တိတ်	-7062
▁ဗန်းမော်	-7063
▁မီးတောက်	-7064
▁ရာစုနှစ်	-7065
▁သင့်တော်	-7066
▁အတွင်းဝန်	-7067
▁ခြောက်သွေ့	-7068
▁လူမှုကွန်ရက်	-7069
▁လွတ်လပ်ခွင့်	-7070
NE	-7071
ou	-7072
ys	-7073
ြာ	-7074
၉၅	-7075
▁5	-7076
▁a	-7077
▁😣	-7078
ဆည်	-7079
▁Ex	-7080
▁ဒူ	-7081
▁၅ဝ	-7082
▁၅၆	-7083
ထည့်	-7084
န္တရ	-7085
ဖျပ်	-7086
ယန်း	-7087
အိန်	-7088
▁ဂို	-7089
▁ပစိ	-7090
▁အုံ	-7091
▁ဥတု	-7092
ဇီလန်	-7093
ဖွင့်	-7094
မြုပ်	-7095
▁ငြား	-7096
▁သာသာ	-7097
▁အိုဇ	-7098
ကူးစက်	-7099
ို့မယ်	-7100
▁မြည်း	-7101
▁လက်ဝဲ	-7102
▁ဟွန်း	-7103
▁ဂကျွန်	-7104
▁ဆင်ခြေ	-7105
▁ဈေးဝယ်	-7106
▁တံခါးဝ	-7107
▁ရွှန်း	-7108
▁လက်ဝါး	-7109
▁ဝိညာဉ်	-7110
▁သပ်သပ်	-7111
▁ဟတ်ဒါး	-7112
▁အသိုက်	-7113
▁ခံတွင်း	-7114
▁စတုရန်း	-7115
▁ညစ်ညမ်း	-7116
▁တူးဖော်	-7117
▁ပစိဖိတ်	-7118
▁ပပျောက်	-7119
▁မှုခင်း	-7120
▁အပြိုင်	-7121
▁စွန့်ခွာ	-7122
▁မဖြစ်မနေ	-7123
▁မုန်းတီး	-7124
▁ရေကူးကန်	-7125
▁လိမ္မော်	-7126
▁တစ်ခါတည်း	-7127
▁နယူးဇီလန်	-7128
▁သင့်လျော်	-7129
▁အံဝှက်စင်	-7130
▁တိုးမြှင့်	-7131
▁သမိုင်းဝင်	-7132
▁အရှေ့မြောက်	-7133
▁အမြောက်အမြား	-7134
▁အာဂျင်တီးနား	-7135
၁၇	-7136
၂၄	-7137
▁💘	-7138
ခစ်	-7139
▁CB	-7140
▁မဒ	-7141
ပိန်	-7142
မကြာ	-7143
လဝန်	-7144
▁NLD	-7145
▁ထော	-7146
▁ဘီအ	-7147
ကတော်	-7148
သက်သာ	-7149
▁မိနဲ	-7150
ကြွင်း	-7151
နုမာန်	-7152
လျှော်	-7153
▁ခဏလေး	-7154
▁ထုန်း	-7155
▁ဖိုင်	-7156
ပ္ပတ္တိ	-7157
▁ကွဲလွဲ	-7158
▁ပုစွန်	-7159
▁ဗိလဝန်	-7160
▁မီးမီး	-7161
▁အဓိပတိ	-7162
▁အယူဝါဒ	-7163
▁ကလေးလေး	-7164
▁စာပိုဒ်	-7165
▁စွဲလမ်း	-7166
▁ပယ်ဖျက်	-7167
▁ပြုတ်ကျ	-7168
▁ဟင်းသီး	-7169
▁အပြင်းအ	-7170
▁ချို့တဲ့	-7171
▁စီးချင်း	-7172
▁ထမင်းစား	-7173
မောင်မောင်	-7174
▁ကျင့်သုံး	-7175
▁ခရီးဆောင်	-7176
▁ဂရုတစိုက်	-7177
▁ပေါ်ထွန်း	-7178
▁ဖြည့်ဆည်း	-7179
▁မိကျောင်း	-7180
▁မိုးကြိုး	-7181
▁မိန်းမပျို	-7182
▁လည်ချောင်း	-7183
▁စစ်ဌာနချုပ်	-7184
▁ဟတ်ဒါးစဖီးလ်	-7185
pl	-7186
ဘဲ	-7187
▁k	-7188
ခြာ	-7189
ဒ္ဒ	-7190
▁Ap	-7191
▁KI	-7192
▁ဆွ	-7193
စကို	-7194
ဖုတ်	-7195
▁မာရ	-7196
▁သျှ	-7197
ယွန်း	-7198
ို့စ်	-7199
▁ငိုး	-7200
▁စိမ်	-7201
▁ဝိဒေ	-7202
▁အခွံ	-7203
▁ဣန္ဒ	-7204
ကြိုင်	-7205
လှိုက်	-7206
▁ကိုရဲ	-7207
▁ခြေရာ	-7208
▁ပယ်ချ	-7209
▁ဖျော့	-7210
▁ရမှတ်	-7211
ဟင်းခါး	-7212
▁ဆော်ဒီ	-7213
▁ဈေးသည်	-7214
▁မင်းရဲ	-7215
▁သုဝဏ္ဏ	-7216
▁သုသာန်	-7217
▁ခြေလျင်	-7218
▁ဆန်းသစ်	-7219
▁ဇင်းမယ်	-7220
▁တပ်ရင်း	-7221
▁ဖိနှိပ်	-7222
▁အခိုင်အ	-7223
▁အောက်ဆီ	-7224
▁စွန့်ပစ်	-7225
▁ရှေ့တန်း	-7226
▁သတင်းပေး	-7227
▁ဟာနုမာန်	-7228
▁အဆောက်အဦ	-7229
▁အဘိဓမ္မာ	-7230
▁အဘိုးအို	-7231
▁တောင်ထိပ်	-7232
▁ထိုးဖောက်	-7233
▁သို့ပေမဲ့	-7234
▁အကျိုးပေး	-7235
▁အကြပ်မှူး	-7236
▁ကိုစဝ်နေဗလ	-7237
▁ကျော်လွှား	-7238
▁ကြောက်လန့်	-7239
▁ဆိုရှယ်လစ်	-7240
▁တရားပြိုင်	-7241
▁ဘယ်လ်ဂျီယံ	-7242
▁အပြင်းအထန်	-7243
▁နန်းရင်းဝန်ကြီး	-7244
ဓရ	-7245
ind	-7246
ong	-7247
ood	-7248
တနံ	-7249
မှာ	-7250
ရတီ	-7251
သေသ	-7252
ေရ်	-7253
▁ဒိ	-7254
လှည်း	-7255
ွိုက်	-7256
▁ကာတာ	-7257
▁ဂီယာ	-7258
▁နော့	-7259
▁သတိမ	-7260
ထိုင်း	-7261
▁ဂေါက်	-7262
▁ထွင်း	-7263
▁ပိန်း	-7264
▁အစွန်	-7265
မြူးနစ်	-7266
▁ကတိပြု	-7267
▁တစ်ဆယ်	-7268
▁ထက်သန်	-7269
▁ပလ္လင်	-7270
▁ပါးပါး	-7271
▁အတူတကွ	-7272
▁အတော်အ	-7273
▁ကိုက်ခဲ	-7274
▁စက္ကန့်	-7275
▁ဆေးကြော	-7276
▁ထိုးသတ်	-7277
▁သက်ရှည်	-7278
▁သုသျှင်	-7279
▁သူနာပြု	-7280
▁အစောင့်	-7281
▁ကြံ့ဖွတ်	-7282
▁ခရစ္စမတ်	-7283
▁တိုက်ခတ်	-7284
▁ရောက်ရှိ	-7285
▁လမ်းကြား	-7286
▁ကိုအောင်လ	-7287
▁ကျန်ရစ်သူ	-7288
▁စိတ်ကြိုက်	-7289
▁ဟောပြောပွဲ	-7290
▁ကျောင်းတိုက်	-7291
▁မြန်မာတိုင်း	-7292
enc	-7293
ဏှာ	-7294
ယပ်	-7295
လီး	-7296
▁20	-7297
▁re	-7298
▁ဥဒ	-7299
ator	-7300
osit	-7301
ress	-7302
ကျော	-7303
တ္တရ	-7304
တ္ထိ	-7305
န္ဓေ	-7306
နှေး	-7307
မြည်	-7308
▁ငုံ	-7309
ဖြုတ်	-7310
လီမန်	-7311
သာလန်	-7312
▁ကွေး	-7313
▁ညိတ်	-7314
▁ညီညီ	-7315
▁တလွဲ	-7316
▁မယ်၊	-7317
▁ဝှက်	-7318
စက်စက်	-7319
စိုးဦး	-7320
သိဒ္ဓိ	-7321
▁ငိုင်	-7322
▁စင်တီ	-7323
▁နာဂစ်	-7324
▁နှမ်း	-7325
▁ပရော်	-7326
▁လက်ပံ	-7327
▁သဒ္ဒါ	-7328
ပ်အတည်း	-7329
▁ဒိုင်း	-7330
▁ပုထိုး	-7331
▁ရေယာဉ်	-7332
▁လက်မှု	-7333
▁အလှည့်	-7334
မွန်ထော်	-7335
▁ချာတိတ်	-7336
▁စသဖြင့်	-7337
▁တစ်စိတ်	-7338
▁မင်းဆက်	-7339
▁မန်ချက်	-7340
▁သိမ်းယူ	-7341
▁အလေ့အကျ	-7342
▁အဝိုင်း	-7343
▁ကော်မတီ၊	-7344
▁စီမံချက်	-7345
▁တလျှောက်	-7346
▁တိုးရင်း	-7347
▁တွေ့ကြုံ	-7348
▁နယ်သာလန်	-7349
▁ဖုံးကွယ်	-7350
▁အသုံးမကျ	-7351
▁စိတ်မဆိုး	-7352
▁နိုင်ငံသူ	-7353
▁အကျုံးဝင်	-7354
▁အဆက်မပြတ်	-7355
▁ခြေစွမ်းပြ	-7356
▁ပင်လယ်ပြင်	-7357
▁အငြိမ်းစား	-7358
▁ကိုကွက်ကြီး	-7359
▁ကျောင်းအုပ်	-7360
▁တစ်ပြည်လုံး	-7361
▁ဗညားမွန်ထော်	-7362
▁သီတင်းကကျွတ်	-7363
▁ဘိုင်ယန်မြူးနစ်	-7364
အထ	-7365
၆၅	-7366
▁4	-7367
per	-7368
ဗရီ	-7369
▁AT	-7370
▁၇၅	-7371
atio	-7372
ဂေါ်	-7373
ဆလင်	-7374
ဒိတ်	-7375
ပြူး	-7376
▁ဗလီ	-7377
▁မမေ	-7378
▁အထက	-7379
▁၂၀ဝ	-7380
ပုန်း	-7381
▁ဂုတ်	-7382
▁အဖက်	-7383
▁၂၀၀၇	-7384
န္တရား	-7385
ပလ္လင်	-7386
အောင်း	-7387
▁ဌာပနာ	-7388
▁တစ်ဦး	-7389
▁ဒဿနိက	-7390
▁ပရိတ်	-7391
▁သဒ္ဓါ	-7392
▁အဖုံး	-7393
စောရှင်	-7394
▁တံတွေး	-7395
▁ရေပန်း	-7396
▁လက်ဝယ်	-7397
▁အသဲလေး	-7398
▁ဦးသန့်	-7399
▁ကင်းမဲ့	-7400
▁တောအုပ်	-7401
▁နွေရာသီ	-7402
▁ပါလီမန်	-7403
▁ဝတ္တရား	-7404
▁အိပ်စက်	-7405
▁ခါတိုင်း	-7406
▁မိုးလင်း	-7407
▁ရင့်ကျက်	-7408
▁သင့်တော်	-7409
▁အလေးအနက်	-7410
▁ကြေးတိုက်	-7411
▁စာသင်ခန်း	-7412
▁မြင်ယောင်	-7413
▁ချောက်ချား	-7414
▁မြောက်မြား	-7415
▁အောက်ဆီဂျင်	-7416
▁သောင်းကျန်းသူ	-7417
▁မျှော်လင့်ချက်	-7418
ff	-7419
အူ	-7420
၃၅	-7421
▁💝	-7422
uri	-7423
ဂီတ	-7424
ဖွဲ	-7425
▁Ar	-7426
စေတီ	-7427
စွပ်	-7428
ေးလ်	-7429
▁ဒါယ	-7430
▁ရာ၌	-7431
▁အပု	-7432
▁၁၂၀	-7433
▁ကွဲ့	-7434
▁ခွင်	-7435
▁အမှီ	-7436
ကို့စ်	-7437
▁Space	-7438
▁ပျို့	-7439
▁ပြေစာ	-7440
▁မကျေမ	-7441
▁မြုပ်	-7442
▁လာအို	-7443
▁ခက်ထန်	-7444
▁ဆံတော်	-7445
▁ထောင်း	-7446
▁ဓာတုယာ	-7447
▁မာရီယာ	-7448
▁အခေါက်	-7449
========	-7450
ဟင်းရွက်	-7451
▁ကူးသန်း	-7452
▁ကြာရှည်	-7453
▁ခြေရင်း	-7454
▁ဇီးကွက်	-7455
▁ဒေါ်အေး	-7456
▁ပုံဖော်	-7457
▁ပြည်သား	-7458
▁ဖန်ခွက်	-7459
▁ဖန်ဆင်း	-7460
▁လက်စွပ်	-7461
▁အပေါ်ယံ	-7462
▁ဦးပိုင်	-7463
▁ကိုဝလုံး	-7464
▁နွမ်းနယ်	-7465
▁လှည်းကူး	-7466
▁မေတ္တာရပ်	-7467
▁ရက္ခိုင့်	-7468
▁သို့ဖြင့်	-7469
▁လျှောက်တင်	-7470
▁အမြင့်ဆုံး	-7471
▁သန့်စင်ခန်း	-7472
၉၀	-7473
▁7	-7474
chn	-7475
ies	-7476
yst	-7477
န္ထ	-7478
ဖား	-7479
▁sp	-7480
▁၆၆	-7481
ပြက်	-7482
▁ဆံ့	-7483
▁ပျူ	-7484
▁ဝေလ	-7485
ကျည်း	-7486
ဂရိတ်	-7487
ဒေါင်	-7488
▁ကြော	-7489
▁ဆွယ်	-7490
▁ဇုန်	-7491
▁နန္ဒ	-7492
▁မွှေ	-7493
▁အဆစ်	-7494
▁ဦးနု	-7495
မတ်မတ်	-7496
▁ဂျော့	-7497
▁ဆိုဒ်	-7498
▁တုန့်	-7499
▁နရပတိ	-7500
▁ပိုဒ်	-7501
▁ဝိဟာရ	-7502
▁သတ္တမ	-7503
▁အပျက်	-7504
▁တောင့်	-7505
▁ကွန်ရက်	-7506
▁တခါတည်း	-7507
▁နယ်ချဲ့	-7508
▁အတတ်ပညာ	-7509
▁စီးရီးအေ	-7510
▁စွန့်စား	-7511
▁ဇေယျာဒီပ	-7512
▁ဒရိုင်ဘာ	-7513
▁ပျက်ပြယ်	-7514
▁ရုပ်ဆိုး	-7515
▁ရွှေပြည်	-7516
▁ဝိတ်တန်း	-7517
▁ဟုတ်ဟုတ်	-7518
▁အထီးကျန်	-7519
▁ထုတ်လွှတ်	-7520
▁ပြီးလျှင်	-7521
▁သက်ပြင်းချ	-7522
▁မေတ္တာရပ်ခံ	-7523
▁ရော်နယ်လ်ဒို	-7524
▁ဟင်းသီးဟင်းရွက်	-7525
CA	-7526
၄၂	-7527
ork	-7528
မ္ဗ	-7529
ရသူ	-7530
အယ်	-7531
စင်း	-7532
သိုး	-7533
▁ပဟေ	-7534
▁ယီး	-7535
မကမ်း	-7536
လှော်	-7537
ဝိညာဏ	-7538
▁ချေပ	-7539
▁တင့်	-7540
▁တနေ့	-7541
▁ပိဿာ	-7542
▁အမြှ	-7543
ပုထိုး	-7544
ဝါးဝါး	-7545
▁ဗေဒင်	-7546
▁ယူနန်	-7547
▁ကိုအငဲ	-7548
▁ကဲ့ရဲ့	-7549
▁ညောင်း	-7550
▁တစ်ပါး	-7551
▁ဒေါ်မြ	-7552
▁နှောက်	-7553
▁မိုးရေ	-7554
▁ယောက်ဖ	-7555
▁ရပ်ရွာ	-7556
▁သယောင်	-7557
▁သံအမတ်	-7558
▁အတောင်	-7559
▁အရိုက်	-7560
▁အီဂျစ်	-7561
▁ကျန်စစ်	-7562
▁ရင်ပြင်	-7563
▁သံလိုက်	-7564
▁ဟင်္သာတ	-7565
▁ပရော်ဖက်	-7566
▁မျိုးစေ့	-7567
▁ယာဉ်ကြော	-7568
▁လိုးမသား	-7569
▁လွယ်အိတ်	-7570
▁ကိုကျောက်	-7571
▁မော့ကြည့်	-7572
▁မြင့်မြတ်	-7573
▁အကျိုးဆက်	-7574
▁အမှတ်အသား	-7575
▁အားကောင်း	-7576
▁ကျောင်းတက်	-7577
▁ချော်ချော်	-7578
▁စိတ်တိုင်း	-7579
▁တစ်ခါတစ်ခါ	-7580
▁လျစ်လျူရှု	-7581
▁ဥမ္မာအောင်	-7582
▁တော်တော်လေး	-7583
▁သပိတ်မှောက်	-7584
▁ကိုကြီးစိုင်း	-7585
ဗွီ	-7586
သယ်	-7587
သို	-7588
သဲ့	-7589
▁အအ	-7590
▁၄၆	-7591
book	-7592
ဋ္ဌမ	-7593
ရှန်	-7594
▁ဆော	-7595
▁ထုံ	-7596
▁နမ်	-7597
▁ပီအ	-7598
ology	-7599
▁ဂွတ်	-7600
▁ဆက်သ	-7601
▁ပင့်	-7602
▁ပုရိ	-7603
▁မေစု	-7604
▁မွေ့	-7605
▁လျှံ	-7606
▁ဦးစံ	-7607
စရိုက်	-7608
ထန်ထန်	-7609
ယုတ်မာ	-7610
▁တနှစ်	-7611
▁နျူကလ	-7612
▁ပစ်ချ	-7613
▁ဘရိတ်	-7614
▁ရေတပ်	-7615
▁အလိုအ	-7616
▁စဉ်ဆက်	-7617
▁စူးစူး	-7618
▁ပေးစား	-7619
▁ဗြဟ္မာ	-7620
▁ဘော်ဒါ	-7621
▁ရေအိမ်	-7622
▁ဟယ်လို	-7623
▁အဲ့ဒီ့	-7624
▁ကျင်လည်	-7625
▁ကျမ်းစာ	-7626
▁စစ်ခွေး	-7627
▁ဆရာချစ်	-7628
▁ဓာတုဗေဒ	-7629
▁မထွေးရီ	-7630
▁မိုဒရစ်	-7631
▁ယန္တရား	-7632
▁ရတနာပုံ	-7633
▁ရိုက်တာ	-7634
▁ရူးသွပ်	-7635
▁အထပ်ထပ်	-7636
▁ကိုမျိုး	-7637
▁ငြီးငွေ့	-7638
▁ဆန်းကြယ်	-7639
▁တောင်ခြေ	-7640
▁ဒူးထောက်	-7641
▁အငယ်ဆုံး	-7642
▁အိုင်ဗရီ	-7643
▁မှောင်ခို	-7644
▁လိုက်ပို့	-7645
▁လူမျိုးစု	-7646
▁ကြွေးကြော်	-7647
▁ဆင်းတုတော်	-7648
▁မင်းသားလေး	-7649
▁အဆင့်မြင့်	-7650
▁အရှင်ဘုရား	-7651
▁တိမ်းရှောင်	-7652
▁ဘုန်းတော်ကြီး	-7653
▁မင်းရဲကျော်စွာ	-7654
ai	-7655
ဇူ	-7656
ဋီ	-7657
ရရ	-7658
၄၈	-7659
▁😳	-7660
ခပ်	-7661
ဗူး	-7662
မဏီ	-7663
▁or	-7664
▁၅၂	-7665
▁၆၂	-7666
စွတ်	-7667
ယဉ်း	-7668
လောက	-7669
▁ငြိ	-7670
▁ဖအေ	-7671
▁အမရ	-7672
မှိတ်	-7673
ိုင့်	-7674
▁ယမန်	-7675
▁ကတ္တီ	-7676
▁မိဖြူ	-7677
▁ဟယ်ရီ	-7678
▁အစပြု	-7679
▁အတ္ထု	-7680
▁အမျက်	-7681
▁ကွက်တိ	-7682
▁တောသား	-7683
▁ထက်ထက်	-7684
▁လိုအင်	-7685
▁သီးသီး	-7686
▁သံချပ်	-7687
▁အမိုက်	-7688
▁ဆိုးဝါး	-7689
▁နှောင့်	-7690
▁ပတ်လုံး	-7691
▁ဘတ်ဂျက်	-7692
▁ရောနှော	-7693
▁ရဲတိုက်	-7694
▁အဆိုပြု	-7695
▁စစ်ဗိုလ်	-7696
▁လမ်းပန်း	-7697
▁သစ်ပင်လှ	-7698
ရွှင်ရွှင်	-7699
▁ခင်ဝင့်ဝါ	-7700
▁သွယ်ဝိုက်	-7701
▁အချိန်အခါ	-7702
▁အဓိဋ္ဌာန်	-7703
▁ခြေစမ်းပွဲ	-7704
▁နက်ရှိုင်း	-7705
▁နိုင်ငံကူး	-7706
▁သုံးနှုန်း	-7707
▁အကျပ်အတည်း	-7708
▁အချုပ်အခြာ	-7709
▁အစ်ကိုကြီး	-7710
▁အစ်ကိုတော်	-7711
▁အစွမ်းကုန်	-7712
▁အသည်းနှလုံး	-7713
▁မြို့တော်ဝန်	-7714
▁လွတ်လပ်ခွင့်	-7715
TE	-7716
၁၁	-7717
own	-7718
ကီး	-7719
ပီး	-7720
▁ဖဆ	-7721
▁သဟ	-7722
ခန့်	-7723
ဂရက်	-7724
တပါး	-7725
တ္တမ	-7726
အမ်း	-7727
▁ပါ၊	-7728
န္တော	-7729
မန်းက	-7730
ော်လီ	-7731
▁Comp	-7732
▁ဘွား	-7733
▁၂၀၀၆	-7734
ရောင်း	-7735
▁ဆိုဖီ	-7736
▁တာချီ	-7737
▁ဖေါက်	-7738
▁ရွာသူ	-7739
▁လရိပ်	-7740
▁ကမန်းက	-7741
▁ထင်ဟပ်	-7742
▁ပုံလေး	-7743
▁ဘိသိက်	-7744
▁မမွှေး	-7745
▁မှတ်စု	-7746
▁မှန်းဆ	-7747
▁ဝတ်ရုံ	-7748
▁အပိုဒ်	-7749
တုပ်ကွေး	-7750
▁ပူလောင်	-7751
▁ဦးမြင့်	-7752
▁ကင်းလွတ်	-7753
▁မခင်စိန်	-7754
▁သွေးလွန်	-7755
▁တစ်နေကုန်	-7756
▁တာချီလိတ်	-7757
▁ဖောက်ပြန်	-7758
▁ဦးစီးဌာန၊	-7759
▁ဆေးရုံကြီး	-7760
▁နှစ်ခြိုက်	-7761
▁မျက်နှာသစ်	-7762
▁အားကစားကွင်း	-7763
ဉ့်	-7764
ဏာမ	-7765
ဒုံ	-7766
ပြဲ	-7767
ဟက်	-7768
ဟော	-7769
▁အည	-7770
ater	-7771
▁ဇက်	-7772
lanet	-7773
ဒုန်း	-7774
▁ဂန္ထ	-7775
▁ဖဆပလ	-7776
▁ဖီဖာ	-7777
▁ဘာလီ	-7778
ampion	-7779
ission	-7780
▁တိတ်တ	-7781
▁မြေပဲ	-7782
▁ယူနစ်	-7783
▁ရေစက်	-7784
▁ရေစီး	-7785
▁သီပေါ	-7786
▁ခိုးယူ	-7787
▁ငါးဆယ်	-7788
▁တေးဂီတ	-7789
▁တံခွန်	-7790
▁နိမိတ်	-7791
▁ပင်လုံ	-7792
▁မလှမ်း	-7793
▁လွိုင်	-7794
▁သက်ထား	-7795
▁အနိစ္စ	-7796
▁အဖွင့်	-7797
▁အားတက်	-7798
▁အော့စ်	-7799
▁ဧည့်ခံ	-7800
မြတ်နိုး	-7801
▁မီးခြစ်	-7802
▁လက်သည်း	-7803
▁သယ်ပိုး	-7804
▁သီလရှင်	-7805
▁အောင်သူ	-7806
▁စက်ကွင်း	-7807
▁နတ်ရွာစံ	-7808
▁ဘယ့်နှယ်	-7809
▁ဘုရားဖူး	-7810
▁မိုးကုတ်	-7811
▁မြင့်တက်	-7812
▁ရှည်ရှည်	-7813
▁အရာဝတ္ထု	-7814
▁ကျောက်ကပ်	-7815
▁ဖောက်ဖျက်	-7816
▁မိုးတွင်း	-7817
▁လေယာဉ်ပျံ	-7818
▁တစ်စိတ်တစ်	-7819
▁ကြက်သွန်ဖြူ	-7820
▁ခေါင်းကိုက်	-7821
▁မလှမ်းမကမ်း	-7822
▁စောင့်ဆိုင်း	-7823
▁အောက်တန်းစား	-7824
▁အိုင်ဗရီကို့စ်	-7825
၇၉	-7826
၈၃	-7827
▁9	-7828
▁👌	-7829
ame	-7830
eng	-7831
man	-7832
ကြေ	-7833
ဇီဝ	-7834
မုံ	-7835
သမ်	-7836
▁ကန	-7837
▁မဘ	-7838
▁၄ဝ	-7839
▁၅၉	-7840
▁၇၃	-7841
မျော	-7842
▁ကျီ	-7843
▁ခရေ	-7844
▁ဗန်	-7845
ယိုင်	-7846
▁Cent	-7847
▁ကျို	-7848
▁ကွာဟ	-7849
▁ငလူး	-7850
▁ထွား	-7851
▁ဒွေး	-7852
▁ယူလာ	-7853
▁အညစ်	-7854
▁လုယက်	-7855
▁လောကီ	-7856
▁အိုကေ	-7857
▁အီးယူ	-7858
▁လက်စား	-7859
▁လက်ရေး	-7860
▁သဘာဝကျ	-7861
▁အဓိကကျ	-7862
********	-7863
စည်းကမ်း	-7864
လျော်စွာ	-7865
▁ဆန်ချို	-7866
▁နံနက်စာ	-7867
▁ပိုးသတ်	-7868
▁ပြေပြစ်	-7869
▁မေမြို့	-7870
▁လက်ဖဝါး	-7871
▁ဝန်ဇင်း	-7872
▁အက်ဥပဒေ	-7873
▁အကြောက်	-7874
▁အစာအိမ်	-7875
▁အားမငယ်	-7876
▁ကိုဖြိုး	-7877
▁ခရီးလမ်း	-7878
▁ဆီးနှင်း	-7879
▁မကျေမနပ်	-7880
▁မြို့သစ်	-7881
▁ယွန်းမှီ	-7882
▁သွက်သွက်	-7883
▁အရှိဆုံး	-7884
▁ကိုယ်လုံး	-7885
▁နှစ်သိမ့်	-7886
▁မြစ်ဝှမ်း	-7887
▁ရသေ့တောင်	-7888
▁ကောင်းချီး	-7889
▁ငြိမ်ငြိမ်	-7890
▁စျေးနှုန်း	-7891
▁နှစ်သစ်ကူး	-7892
▁ပေါင်မုန့်	-7893
▁မိန့်ခွန်း	-7894
▁သင်တန်းသား	-7895
▁အပြည့်အစုံ	-7896
▁မျက်နှာဖုံး	-7897
▁ဖယောင်းတိုင်	-7898
▁အိုင်းစတိုင်း	-7899
YA	-7900
oy	-7901
▁🤔	-7902
ian	-7903
ဆူး	-7904
နုဿ	-7905
▁ဗလ	-7906
▁၈၈	-7907
▁၉၅	-7908
စကီး	-7909
တန့်	-7910
▁ညား	-7911
ကြိတ်	-7912
အမြန်	-7913
▁ကညန၊	-7914
▁အသာအ	-7915
▁၁၉၈၈	-7916
လူကြီး	-7917
▁ဂွမ်း	-7918
▁တစ်ခု	-7919
▁တစ်စု	-7920
▁ဖတ်ပြ	-7921
▁မြေယာ	-7922
▁လေးလံ	-7923
▁အတုယူ	-7924
▁အလို့	-7925
ဆက်သွယ်	-7926
▁စာတန်း	-7927
▁ဆုကြေး	-7928
▁ပစ္စယာ	-7929
▁ဘက်စုံ	-7930
▁ရည်စူး	-7931
▁သိမြင်	-7932
▁ဦးမင်း	-7933
▁ကားချပ်	-7934
▁ခရိုင်၊	-7935
▁တိုးဝင်	-7936
▁ထပ်ဆင့်	-7937
▁မကြာသေး	-7938
▁မိန့်ဇ်	-7939
▁လင်းလက်	-7940
▁လွဲမှား	-7941
▁အကြွင်း	-7942
▁အထင်သေး	-7943
▁ငွေတိုက်	-7944
▁တောင်တက်	-7945
▁ဖြစ်ဖြစ်	-7946
▁မောင်နှံ	-7947
▁အချိန်မီ	-7948
▁နှိုးဆော်	-7949
▁အခိုင်အမာ	-7950
▁အောင်မလေး	-7951
▁ကျောက်တော်	-7952
▁မျက်စောင်း	-7953
▁အသုံးစရိတ်	-7954
▁ကိုခင်မောင်	-7955
▁အခွင့်အလမ်း	-7956
▁အလိုအလျောက်	-7957
▁ဦးမောင်မောင်	-7958
▁ကျမ်းကျိန်လွှာ	-7959
ef	-7960
ပန	-7961
▁v	-7962
▁😓	-7963
ary	-7964
ens	-7965
ထော	-7966
ဒ္ဓ	-7967
▁၀၂	-7968
ကာမူ	-7969
ဂုဏ်	-7970
ဆွေး	-7971
ဒဂုံ	-7972
ဘွတ်	-7973
ောဓိ	-7974
▁con	-7975
▁စေတ	-7976
▁ဒီဃ	-7977
▁မဘသ	-7978
▁ဥပါ	-7979
ystem	-7980
င်္ဂါ	-7981
▁စန်း	-7982
▁ပူပူ	-7983
▁ပျဉ်	-7984
▁ရင့်	-7985
▁သွပ်	-7986
▁ဟင့်	-7987
နှိုက်	-7988
▁ကင်ညာ	-7989
▁ရာသက်	-7990
▁ဝက်ဘ်	-7991
▁ဝလုံး	-7992
▁သလွန်	-7993
▁ကြိမ်း	-7994
▁ဘယ်သူ့	-7995
▁အင်စတာ	-7996
▁ကိုဇော်	-7997
▁ကြက်သီး	-7998
▁စီးနင်း	-7999
▁တီးတိုး	-8000
▁တောင်ယာ	-8001
▁လမ်းဆုံ	-8002
▁အမောင့်	-8003
▁ကြွရောက်	-8004
▁နှင်ထုတ်	-8005
▁ဖောက်သည်	-8006
▁ဗိုလ်စွဲ	-8007
▁မုတ်ဆိတ်	-8008
▁ရုပ်မြင်	-8009
▁လှည့်လည်	-8010
▁ဝန်ထောက်	-8011
▁အပန်းဖြေ	-8012
▁စစ်သူကြီး	-8013
▁အောင်လအန်	-8014
▁ကကျွန်တော့	-8015
▁တရားစွဲဆို	-8016
▁ပြီးမြောက်	-8017
▁ဆိုင်းမိုင်	-8018
▁နေပြည်တော်၊	-8019
▁ရှင်းလင်းပွဲ	-8020
▁ခင်မောင်ကျော်	-8021
SS	-8022
ma	-8023
ဂု	-8024
၆၀	-8025
၆၃	-8026
▁☝	-8027
ung	-8028
▁As	-8029
▁ကလ	-8030
port	-8031
ကဗျာ	-8032
တစား	-8033
မြီး	-8034
မွတ်	-8035
၂၀၁၉	-8036
▁ကပြ	-8037
▁ဇော	-8038
▁ပုရ	-8039
▁အခံ	-8040
▁၈၀၀	-8041
▁Bank	-8042
▁ဂျင်	-8043
▁နာတာ	-8044
▁နွဲ့	-8045
▁လား၊	-8046
▁လှီး	-8047
▁သရဖူ	-8048
▁သွင်	-8049
▁၂၀၁၀	-8050
တံဆိပ်	-8051
▁ပဟေဠိ	-8052
▁မရွေး	-8053
▁မောက်	-8054
▁လက်ယာ	-8055
▁အရွေး	-8056
▁အီလက်	-8057
▁ခကျွန်	-8058
▁တခါတလေ	-8059
▁နက္ခတ်	-8060
▁ဖေါ်ပြ	-8061
▁အမဲသား	-8062
▁အသာအယာ	-8063
▁ကိုချစ်	-8064
▁နားရွက်	-8065
▁နုနုငယ်	-8066
▁ဗိုက်ဆာ	-8067
▁မမေကြည်	-8068
▁ရင်သွေး	-8069
▁ရေးမှတ်	-8070
▁ရွတ်ဖတ်	-8071
▁သန်လျင်	-8072
▁အထူးတင်	-8073
▁စိုးဝင်း	-8074
▁ဌာနချုပ်	-8075
▁ထွက်ကုန်	-8076
▁ဘိုးဘိုး	-8077
▁မြမြနွယ်	-8078
▁ရုံးတော်	-8079
▁ရွှေနန်း	-8080
▁သန်းရွှေ	-8081
▁အစုအဖွဲ့	-8082
▁အနှောင့်	-8083
▁အလယ်တန်း	-8084
▁ချေမှုန်း	-8085
▁ဆောင်ပုဒ်	-8086
▁နောက်ဆုတ်	-8087
▁မှော်ဝန်း	-8088
▁အစစ်အမှန်	-8089
▁ချုပ်ကိုင်	-8090
▁ဆိုက်ရောက်	-8091
▁ထုတ်လွှင့်	-8092
▁ချက်လက်မှတ်	-8093
▁ဘူးသီးတောင်	-8094
▁အကျိုးအကြောင်း	-8095
▁များသောအားဖြင့်	-8096
မရ	-8097
ဝု	-8098
▁🎂	-8099
ale	-8100
ဝေ့	-8101
သုခ	-8102
▁ငမ	-8103
▁ငံ	-8104
ကျည်	-8105
ဝီစိ	-8106
သဘင်	-8107
▁ဆွာ	-8108
▁နဒီ	-8109
▁လျာ	-8110
ကီတစ်	-8111
ပျော့	-8112
ဟောက်	-8113
အက်ဖ်	-8114
▁လန့်	-8115
▁အမ်း	-8116
▁ဦးရဲ	-8117
ဘိုင်း	-8118
လည်လည်	-8119
▁စလင်း	-8120
▁စိမ့်	-8121
▁ဆင်ဒီ	-8122
▁ဇာမဏီ	-8123
▁ညွန့်	-8124
▁ပရိယာ	-8125
▁ဖေ့စ်	-8126
▁ဘိလပ်	-8127
▁သူရိယ	-8128
acebook	-8129
▁ခြေစစ်	-8130
▁ပုခုံး	-8131
▁ပေါက်စ	-8132
▁မဏ္ဍပ်	-8133
▁လေးဆယ်	-8134
▁လှိုဏ်	-8135
▁ဝတ်ဝတ်	-8136
▁အချမ်း	-8137
▁ချိုင်း	-8138
▁ဂန္ထဝင်	-8139
▁မော်ဒန်	-8140
▁မှုံလေး	-8141
▁လောင်စာ	-8142
▁သန့်စင်	-8143
▁အောက်ခံ	-8144
▁စောက်ပေါ	-8145
▁တွင်ကျယ်	-8146
▁နယ်ပိုင်	-8147
▁အောင်ထက်	-8148
ခိုင်ဖြိုး	-8149
▁စောက်ခွက်	-8150
▁ပန်းရောင်	-8151
▁ပေါက်ဖွား	-8152
▁သို့ဖြစ်၍	-8153
▁အများသုံး	-8154
▁ကော်မတီဝင်	-8155
▁ချို့ယွင်း	-8156
▁ဒေါ်ခင်နက်	-8157
▁မန်ချက်စတာ	-8158
▁မောင်းထုတ်	-8159
▁ရောက်ရောက်	-8160
▁အနှံ့အပြား	-8161
▁အလုပ်ရှုပ်	-8162
▁ဘာသာပြန်ဆို	-8163
▁မော်တော်ယာဉ်	-8164
▁လမ်းပန်းဆက်သွယ်	-8165
တဩ	-8166
န္န	-8167
အမိ	-8168
▁KB	-8169
▁မရ	-8170
▁ရရ	-8171
▁၄၄	-8172
စဉ်း	-8173
▁ATM	-8174
▁ညှာ	-8175
▁နလက	-8176
▁နော	-8177
▁ရေ့	-8178
ကြင်း	-8179
တိမ်း	-8180
▁ဖြူး	-8181
▁ဘူး၊	-8182
▁လင့်	-8183
▁သထုံ	-8184
▁ဟိတ်	-8185
▁အနစ်	-8186
▁အနူး	-8187
▁အပါး	-8188
▁အမူအ	-8189
သံကြား	-8190
ိုင်အေ	-8191
▁ရှင်ဘ	-8192
▁အစုတ်	-8193
▁အဟုန်	-8194
▁ကျိန်း	-8195
▁ရိပ်မိ	-8196
▁လခွမ်း	-8197
▁လူကုန်	-8198
▁အနိမ့်	-8199
▁အပျင်း	-8200
ဒေးရှင်း	-8201
▁ကန့်သတ်	-8202
▁ခံနိုင်	-8203
▁ချောမော	-8204
▁ထုတ်ပယ်	-8205
▁ပီအက်စ်	-8206
▁ရွှေစင်	-8207
▁သက်သေခံ	-8208
▁အချောင်	-8209
▁ကမ္ဘာမြေ	-8210
▁ကိုနေကို	-8211
▁ချစ်တုံး	-8212
▁သဘာဝတရား	-8213
▁အစောကြီး	-8214
▁အစ်ကိုက်	-8215
ampionship	-8216
▁ကွင်းဆင်း	-8217
▁ပြိုင်ဖက်	-8218
▁ပြောခွင့်	-8219
▁ဝန်ခံချက်	-8220
▁သက်ထားသူဇာ	-8221
▁အင်စတာဂရမ်	-8222
▁မိဖုရားကြီး	-8223
▁ဘက်တီးရီးယား	-8224
▁နည်းနည်းပါးပါး	-8225
▁ပြည်ခိုင်ဖြိုး	-8226
▁ပြတ်ပြတ်သားသား	-8227
▁ရုပ်မြင်သံကြား	-8228
ဏိ	-8229
ပက	-8230
သ္	-8231
ုး	-8232
▁&	-8233
ဂူး	-8234
စရာ	-8235
ုံအ	-8236
▁He	-8237
▁ac	-8238
▁ယံ	-8239
ဒင်း	-8240
ဓာန်	-8241
ပါဒိ	-8242
မ္ဗူ	-8243
▁For	-8244
▁ကာမ	-8245
▁ဗို	-8246
▁ဦး၊	-8247
ချွန်	-8248
ဆိုဒ်	-8249
ဒဏ်ရာ	-8250
မှိန်	-8251
▁ကပ္ပ	-8252
▁ကာရံ	-8253
▁ခဲတံ	-8254
▁စမတ်	-8255
▁အချီ	-8256
ခိုင်း	-8257
စ္စတန်	-8258
စ်လီဂါ	-8259
နည်းစု	-8260
ပတ်လည်	-8261
သမ်တန်	-8262
အမေရိက	-8263
▁စိတ္တ	-8264
▁ဆေးကု	-8265
▁သားရဲ	-8266
▁အဆုတ်	-8267
▁၁၀၀၀၁	-8268
ဆိုသော်	-8269
ဝန်ထမ်း	-8270
▁တစ်တွေ	-8271
▁နည်းတူ	-8272
▁ပက်လက်	-8273
▁ပညာပေး	-8274
▁ပုဇွန်	-8275
▁မည်သူ့	-8276
▁ဥဒပါဒိ	-8277
▁ကျူရှင်	-8278
▁စာစောင်	-8279
▁ဇာတ်ရုံ	-8280
▁တစ်ချက်	-8281
▁နတ်ပြည်	-8282
▁မောပန်း	-8283
▁လွှဲငွေ	-8284
▁အဘိဓာန်	-8285
မြင့်မြတ်	-8286
▁ကြေးနန်း	-8287
▁စူးစိုက်	-8288
▁ညံ့ဖျင်း	-8289
▁မသက်မွန်	-8290
▁မြို့စား	-8291
▁လမ်းထိပ်	-8292
▁လူနည်းစု	-8293
▁သံဃာတော်	-8294
▁အတော်လေး	-8295
▁အဖွဲ့သား	-8296
▁စစ်ရှောင်	-8297
▁ဖူးမျှော်	-8298
▁လုံးချင်း	-8299
▁သရုပ်ဖော်	-8300
ဝမ်းကျောင်း	-8301
▁ချက်ဖောင်း	-8302
▁စားပွဲထိုး	-8303
▁နီကိုလိုင်	-8304
▁လှောင်အိမ်	-8305
▁နှောင့်ယှက်	-8306
▁ပြောင်းပြန်	-8307
▁အကောင်းမြင်	-8308
▁ကိုနေကိုတိုး	-8309
▁အိမ်ထောင်ပြု	-8310
▁အများအားဖြင့်	-8311
LA	-8312
ib	-8313
ky	-8314
ဟဟ	-8315
ဟ်	-8316
ျာ	-8317
end	-8318
ode	-8319
စဝ်	-8320
ဏ်း	-8321
ဗက်	-8322
▁UN	-8323
▁xx	-8324
▁တရ	-8325
▁၆၇	-8326
ကန့်	-8327
ဆွယ်	-8328
သမျှ	-8329
အုတ်	-8330
▁AYA	-8331
▁Res	-8332
▁rad	-8333
▁ရေင	-8334
ကျုံး	-8335
စကုတ်	-8336
ဒွန်း	-8337
ရိတ္တ	-8338
ဟေကို	-8339
အကြေး	-8340
▁ကညင်	-8341
▁ပစ္ဆ	-8342
▁ပါပါ	-8343
▁ပုပ္	-8344
▁ဝင့်	-8345
▁ဝှီး	-8346
ဟိုင်း	-8347
▁ကဆုန်	-8348
▁ဝိုက်	-8349
▁သန္တာ	-8350
▁အလိမ်	-8351
▁အဝီစိ	-8352
ဒီယိုလာ	-8353
မားဆုံး	-8354
▁ဆည်းဆာ	-8355
▁တင်စား	-8356
▁နေ့လေး	-8357
▁မြသီတာ	-8358
▁မြားတံ	-8359
▁လိမ်ညာ	-8360
▁သာသနာ့	-8361
▁အနစ်နာ	-8362
ပြည့်စုံ	-8363
▁ကြပ်မတ်	-8364
▁ညောင်ဦး	-8365
▁တင့်တယ်	-8366
▁မှူးမတ်	-8367
▁ရာကီတစ်	-8368
▁လိုဏ်ဂူ	-8369
▁ဝင်ကြေး	-8370
▁သွက်လက်	-8371
▁အခြေပြု	-8372
မွန်ခေါက်	-8373
▁ကန့်လန့်	-8374
▁ကျပ်တည်း	-8375
▁မြင့်တက်	-8376
▁ရာသက်ပန်	-8377
▁သိပ်သည်း	-8378
▁ဟင့်အင်း	-8379
▁ရှေးဦးစွာ	-8380
▁လျော်ကြေး	-8381
အောင်လှိုင်	-8382
▁စင်တီဂရိတ်	-8383
▁စည်ပင်သာယာ	-8384
▁ပြောခွင့်ရ	-8385
▁ရှောင်ရှား	-8386
▁အလျင်အမြန်	-8387
▁ကုန်ကျစရိတ်	-8388
▁ဆောက်သမ်တန်	-8389
▁ဘွန်ဒစ်လီဂါ	-8390
▁ရှင်ဘို့မယ်	-8391
▁အစ်ကိုက်တန်	-8392
▁ကိုထွန်းထွန်း	-8393
▁ဆီမီးဖိုင်နယ်	-8394
▁ဘိုးမွန်ခေါက်	-8395
▁တိုင်းမင်းကြီး	-8396
;;	-8397
ox	-8398
ဇံ	-8399
တမ	-8400
ွါ	-8401
▁क	-8402
▁👎	-8403
ase	-8404
ond	-8405
uct	-8406
ခနဲ	-8407
မမာ	-8408
ဝံသ	-8409
▁ခန	-8410
▁ငိ	-8411
▁ဒလ	-8412
▁ဝူ	-8413
ance	-8414
ငင်း	-8415
သုန်	-8416
အာဏာ	-8417
▁ခေါ	-8418
▁ဦးပ	-8419
ချိတ်	-8420
ရှော့	-8421
လိမ်း	-8422
သတ္တိ	-8423
အံ့တဩ	-8424
ုဒ္ဓယ	-8425
▁ကွမ်	-8426
▁ခြေဥ	-8427
▁တဏှာ	-8428
▁တုပ်	-8429
▁ပင်မ	-8430
▁ဘောဂ	-8431
▁မရှိ	-8432
▁မာမီ	-8433
▁သထက်	-8434
▁အလဲ့	-8435
▁၂၀၀၉	-8436
cience	-8437
ကကျွန်	-8438
တောင့်	-8439
▁ငိုးမ	-8440
▁ဘီလျံ	-8441
▁မကြည်	-8442
▁အကန့်	-8443
▁အာလူး	-8444
▁ဦးစော	-8445
ational	-8446
ထပ်တည်း	-8447
ိုးရိပ်	-8448
▁ခွဲခွာ	-8449
▁ငေးမော	-8450
▁တအံ့တဩ	-8451
▁ဓာတ်ဆီ	-8452
▁ရက်စွဲ	-8453
▁လေပြည်	-8454
▁အမွှေး	-8455
မွန်မွန်	-8456
▁ကတ္တီပါ	-8457
▁ကိုကို့	-8458
▁ကျက်စား	-8459
▁ကွမ်းယာ	-8460
▁ခွဲထွက်	-8461
▁စိတ်အေး	-8462
▁ဆီးချို	-8463
▁တပ်မင်း	-8464
▁ဒုံးပျံ	-8465
▁သားအိမ်	-8466
▁ကိုဖောင်	-8467
▁ခန့်ချော	-8468
▁ပင်တိုင်	-8469
▁သတို့သား	-8470
▁အိုဇေးလ်	-8471
▁ဂြိုဟ်သား	-8472
▁တန်ဆောင်း	-8473
▁သစ်ကိုင်း	-8474
▁သတို့သမီး	-8475
▁အညစ်အကြေး	-8476
▁ကျန်စစ်သား	-8477
▁စစ်ကြောင်း	-8478
▁ပိုင်းခြား	-8479
▁ပီအက်စ်ဂျီ	-8480
▁အတောအတွင်း	-8481
▁ဝန်ကြီးဌာန၊	-8482
▁အစွန်းရောက်	-8483
▁ဆိုင်းဝိုင်း	-8484
▁ရုပ်ပွားတော်	-8485
▁အတ္ထုပ္ပတ္တိ	-8486
▁တန်ဆောင်မုန်း	-8487
▁ဗိုလ်မှူးချုပ်	-8488
Ch	-8489
မဝ	-8490
့လ	-8491
▁−	-8492
▁💚	-8493
ert	-8494
ထရီ	-8495
ရွေ	-8496
ိမာ	-8497
့စ်	-8498
ွီး	-8499
▁Ad	-8500
▁မ်	-8501
▁၄၁	-8502
ဋ္ဌိ	-8503
ဒန်း	-8504
နေရာ	-8505
ပုပ်	-8506
မို့	-8507
ယတနံ	-8508
ယွန်	-8509
အဆို	-8510
▁Mar	-8511
▁NCA	-8512
▁ထွီ	-8513
▁ဖရဲ	-8514
▁ရွဲ	-8515
earch	-8516
နိမ့်	-8517
ဗီနမ်	-8518
မဖြစ်	-8519
ရိန်း	-8520
▁ကနဦး	-8521
▁စဉ့်	-8522
▁သလော	-8523
▁အပေး	-8524
▁အသုဘ	-8525
စီးစီး	-8526
ဖျောက်	-8527
လင်္ကာ	-8528
▁ကလိမ်	-8529
▁ကြည်း	-8530
▁ဂစ်တာ	-8531
▁တမ်းတ	-8532
▁ဒါနဲ့	-8533
▁ဖျန်း	-8534
▁မီးပွ	-8535
▁လူစား	-8536
▁သီဟသူ	-8537
▁သံစဉ်	-8538
▁အရေးမ	-8539
ication	-8540
▁ကာဗွန်	-8541
▁စုံလင်	-8542
▁တင်ပါး	-8543
▁လူလိမ်	-8544
▁လူအုပ်	-8545
▁သတ်ပစ်	-8546
▁အထူးကု	-8547
▁အရှုပ်	-8548
▁ခန့်အပ်	-8549
▁စစ်မှန်	-8550
▁စေတသိက်	-8551
▁ဆင်းကဒ်	-8552
▁ပရိယာယ်	-8553
▁ဟော်တယ်	-8554
▁အပတ်စဉ်	-8555
▁အမျိုးအ	-8556
▁ကျော်ဟန်	-8557
▁ခေါ်တွင်	-8558
▁နီးစပ်ရာ	-8559
▁ဘိုးတော်	-8560
▁မှော်ရုံ	-8561
▁လမ်းခရီး	-8562
▁အပေါ်ထပ်	-8563
▁အလိုမရှိ	-8564
▁ခင်းကျင်း	-8565
▁စက်ဝိုင်း	-8566
▁တုန့်ပြန်	-8567
▁တောင်းစား	-8568
▁နေရှင်နယ်	-8569
▁မင်းတုန်း	-8570
▁မော်ကွန်း	-8571
▁လူကုန်ကူး	-8572
▁သာသနာတော်	-8573
▁အော့စ်ဘတ်	-8574
▁တစ်ခါတစ်လေ	-8575
▁လက်အောက်ခံ	-8576
▁လောင်းကစား	-8577
▁အကောင်းစား	-8578
▁အလုံးအရင်း	-8579
▁တောင်ပိုင်း	-8580
▁ဖျော်ဖြေပွဲ	-8581
▁ကျဉ်းမြောင်း	-8582
▁တက္ကသိုလ်ဝင်	-8583
▁ဝင်ရိုးစွန်း	-8584
▁အနှောင့်အယှက်	-8585
▁ဝတ်မှုံရွှေရည်	-8586
ဒံ	-8587
ဝက	-8588
▁👇	-8589
▁😈	-8590
ave	-8591
int	-8592
red	-8593
ကက်	-8594
ရှီ	-8595
▁Pr	-8596
▁စန	-8597
▁ဇန	-8598
▁တဝ	-8599
▁၈၂	-8600
▁☺️	-8601
ဆော့	-8602
တုံ့	-8603
ထွတ်	-8604
ဒေသာ	-8605
ဖမ်း	-8606
ဝဝဝဝ	-8607
ဝိတ်	-8608
▁New	-8609
▁တကွ	-8610
▁ဓမ္	-8611
ကြွား	-8612
တံတား	-8613
နယ်တီ	-8614
ရီဒူး	-8615
▁Star	-8616
▁တံငါ	-8617
▁ပအို	-8618
▁ဗေဒါ	-8619
▁လာလာ	-8620
▁ဟန်း	-8621
evelop	-8622
ကျွမ်း	-8623
ဆန်ဆန်	-8624
ဝမ်းသာ	-8625
▁ဆွဲယူ	-8626
▁ဗဟန်း	-8627
▁မရမ်း	-8628
▁ရွှေမ	-8629
▁လုပ်ခ	-8630
▁လုံ့လ	-8631
▁သံဃာ့	-8632
▁ဟေဝန်	-8633
▁အကြည်	-8634
▁အာရပ်	-8635
▁အဲဒီ့	-8636
ထီးရိုး	-8637
မျက်နှာ	-8638
▁ခုန်ချ	-8639
▁စစ်ဘေး	-8640
▁နေဝင်း	-8641
▁နှစ်ရာ	-8642
▁မာရဇ္ဇ	-8643
▁	-8644
်	-8645
း	-8646
ာ	-8647
ေ	-8648
က	-8649
ု	-8650
တ	-8651
ိ	-8652
မ	-8653
င	-8654
ပ	-8655
န	-8656
့	-8657
လ	-8658
ြ	-8659
ရ	-8660
သ	-8661
စ	-8662
အ	-8663
ွ	-8664
ှ	-8665
ျ	-8666
ခ	-8667
ဲ	-8668
ယ	-8669
ည	-8670
ါ	-8671
ီ	-8672
ူ	-8673
။	-8674
ဆ	-8675
ံ	-8676
ဖ	-8677
ထ	-8678
ဘ	-8679
ဒ	-8680
ဝ	-8681
ဟ	-8682
၊	-8683
္	-8684
ဂ	-8685
.	-8686
ဗ	-8687
၏	-8688
ဦ	-8689
၀	-8690
၁	-8691
ဇ	-8692
ဉ	-8693
)	-8694
၂	-8695
(	-8696
ဓ	-8697
ဏ	-8698
-	-8699
e	-8700
၍	-8701
a	-8702
i	-8703
o	-8704
n	-8705
၅	-8706
၃	-8707
r	-8708
t	-8709
၉	-8710
၄	-8711
ဥ	-8712
s	-8713
၌	-8714
၆	-8715
😍	-8716
၈	-8717
😂	-8718
ဌ	-8719
၇	-8720
l	-8721
😘	-8722
c	-8723
m	-8724
u	-8725
d	-8726
😁	-8727
ဈ	-8728
h	-8729
:	-8730
p	-8731
C	-8732
A	-8733
g	-8734
ဤ	-8735
y	-8736
ဧ	-8737
S	-8738
=	-8739
👍	-8740
ဋ	-8741
ဿ	-8742
?	-8743
/	-8744
'	-8745
M	-8746
I	-8747
D	-8748
,	-8749
b	-8750
P	-8751
T	-8752
ဩ	-8753
k	-8754
v	-8755
❤	-8756
B	-8757
၎	-8758
N	-8759
f	-8760
ဃ	-8761
O	-8762
ဍ	-8763
*	-8764
E	-8765
😝	-8766
1	-8767
!	-8768
L	-8769
F	-8770
w	-8771
R	-8772
V	-8773
G	-8774
😜	-8775
ဠ	-8776
9	-8777
H	-8778
😊	-8779
~	-8780
ဪ	-8781
U	-8782
☺	-8783
😒	-8784
😭	-8785
☑	-8786
•	-8787
😢	-8788
x	-8789
0	-8790
😃	-8791
️	-8792
%	-8793
K	-8794
W	-8795
😄	-8796
2	-8797
😏	-8798
–	-8799
😌	-8800
👏	-8801
😚	-8802
😪	-8803
J	-8804
😀	-8805
z	-8806
♥	-8807
Y	-8808
ဣ	-8809
’	-8810
😅	-8811
า	-8812
😎	-8813
😉	-8814
😡	-8815
5	-8816
‘	-8817
3	-8818
😔	-8819
💕	-8820
🙏	-8821
น	-8822
💦	-8823
💖	-8824
😛	-8825
8	-8826
✌	-8827
💓	-8828
💜	-8829
😙	-8830
+	-8831
;	-8832
😆	-8833
ร	-8834
🤣	-8835
😬	-8836
4	-8837
😕	-8838
ั	-8839
😋	-8840
7	-8841
💙	-8842
#	-8843
6	-8844
j	-8845
🙌	-8846
่	-8847
$	-8848
💗	-8849
ก	-8850
😥	-8851
😗	-8852
ม	-8853
🙄	-8854
อ	-8855
“	-8856
👋	-8857
”	-8858
"	-8859
×	-8860
💋	-8861
🤗	-8862
ค	-8863
Q	-8864
😑	-8865
😞	-8866
ง	-8867
າ	-8868
X	-8869
Z	-8870
q	-8871
😇	-8872
ນ	-8873
💞	-8874
☝	-8875
÷	-8876
😠	-8877
ส	-8878
้	-8879
ท	-8880
ี	-8881
ะ	-8882
♡	-8883
😷	-8884
້	-8885
😱	-8886
ว	-8887
บ	-8888
ย	-8889
>	-8890
💛	-8891
&	-8892
ด	-8893
💪	-8894
😐	-8895
😖	-8896
र	-8897
💘	-8898
😣	-8899
ล	-8900
ອ	-8901
ं	-8902
क	-8903
💝	-8904
ा	-8905
🏻	-8906
👌	-8907
😳	-8908
เ	-8909
ห	-8910
จ	-8911
🤔	-8912
😓	-8913
−	-8914
🎂	-8915
ิ	-8916
。	-8917
म	-8918
แ	-8919
ุ	-8920
ະ	-8921
ເ	-8922
👎	-8923
👇	-8924
💚	-8925
🇲	-8926
😈	-8927
😩	-8928
_	-8929
พ	-8930
😰	-8931
ກ	-8932
⚽	-8933
ไ	-8934
ต	-8935
ํ	-8936
👆	-8937
@	-8938
े	-8939
ो	-8940
ช	-8941
ລ	-8942
🎶	-8943
🙈	-8944
💄	-8945
न	-8946
द	-8947
😤	-8948
😟	-8949
😫	-8950
🙂	-8951
ງ	-8952
ມ	-8953
ຫ	-8954
່	-8955
ใ	-8956
✔	-8957
🌹	-8958
💏	-8959
ी	-8960
👀	-8961
🔫	-8962
😨	-8963
ป	-8964
❣	-8965
त	-8966
ै	-8967
ຂ	-8968
ົ	-8969
い	-8970
§	-8971
🤓	-8972
ह	-8973
ข	-8974
の	-8975
°	-8976
★	-8977
的	-8978
💟	-8979
と	-8980
🎵	-8981
🙊	-8982
स	-8983
ຈ	-8984
ບ	-8985
ພ	-8986
ັ	-8987
ື	-8988
ໍ	-8989
◠	-8990
ब	-8991
♪	-8992
す	-8993
人	-8994
🌚	-8995
🎤	-8996
💐	-8997
😻	-8998
🙃	-8999
<	-9000
्	-9001
お	-9002
💔	-9003
🖤	-9004
😲	-9005
‿	-9006
☹	-9007
💃	-9008
を	-9009
🌸	-9010
🏼	-9011
ຊ	-9012
ຍ	-9013
て	-9014
助	-9015
는	-9016
😧	-9017
🙁	-9018
ณ	-9019
ဎ	-9020
႔	-9021
う	-9022
し	-9023
🎉	-9024
👉	-9025
ื	-9026
ま	-9027
🍀	-9028
ธ	-9029
ๆ	-9030
์	-9031
你	-9032
ज	-9033
ู	-9034
、	-9035
🎼	-9036
👄	-9037
👊	-9038
ए	-9039
‍	-9040
め	-9041
我	-9042
🐷	-9043
औ	-9044
प	-9045
।	-9046
ດ	-9047
ວ	-9048
ສ	-9049
ີ	-9050
ູ	-9051
ແ	-9052
け	-9053
私	-9054
나	-9055
및	-9056
🌼	-9057
🍭	-9058
😮	-9059
😯	-9060
|	-9061
́	-9062
好	-9063
🎧	-9064
โ	-9065
្	-9066
▄	-9067
✿	-9068
た	-9069
で	-9070
[	-9071
]	-9072
य	-9073
ญ	-9074
็	-9075
រ	-9076
♧	-9077
は	-9078
る	-9079
다	-9080
🎊	-9081
👈	-9082
💑	-9083
भ	-9084
ल	-9085
ु	-9086
ฉ	-9087
ា	-9088
是	-9089
🌻	-9090
🏽	-9091
👿	-9092
💸	-9093
🤪	-9094
±	-9095
ू	-9096
✈	-9097
ヅ	-9098
友	-9099
援	-9100
	-9101
🌟	-9102
🍓	-9103
🎈	-9104
🏃	-9105
🙆	-9106
🤘	-9107
🤠	-9108
🤤	-9109
Ö	-9110
̧	-9111
ຕ	-9112
ທ	-9113
ິ	-9114
ຼ	-9115
ໃ	-9116
◦	-9117
☆	-9118
さ	-9119
ン	-9120
付	-9121
兄	-9122
妹	-9123
始	-9124
寄	-9125
帮	-9126
弟	-9127
捐	-9128
支	-9129
水	-9130
要	-9131
기	-9132
니	-9133
도	-9134
부	-9135
요	-9136
을	-9137
의	-9138
제	-9139
합	-9140
💍	-9141
💩	-9142
ត	-9143
ន	-9144
ស	-9145
有	-9146
👧	-9147
💎	-9148
📻	-9149
🔪	-9150
🖒	-9151
😴	-9152
😹	-9153
^	-9154
`	-9155
ई	-9156
ग	-9157
႕	-9158
—	-9159
▪	-9160
っ	-9161
に	-9162
甸	-9163
缅	-9164
🌠	-9165
💯	-9166
😸	-9167
ö	-9168
ษ	-9169
❆	-9170
ー	-9171
웃	-9172
유	-9173
	-9174
🌝	-9175
🍎	-9176
🐸	-9177
👃	-9178
👨	-9179
🖕	-9180
🤕	-9181
ि	-9182
ង	-9183
ម	-9184
ែ	-9185
《	-9186
》	-9187
ご	-9188
べ	-9189
マ	-9190
做	-9191
	-9192
🎁	-9193
🐜	-9194
👣	-9195
👦	-9196
👹	-9197
🤧	-9198
🤨	-9199
\	-9200
Ω	-9201
अ	-9202
इ	-9203
थ	-9204
ध	-9205
़	-9206
ถ	-9207
ក	-9208
ុ	-9209
ើ	-9210
ោ	-9211
ះ	-9212
➳	-9213
く	-9214
ざ	-9215
だ	-9216
ミ	-9217
ャ	-9218
一	-9219
国	-9220
大	-9221
很	-9222
朋	-9223
爱	-9224
真	-9225
谁	-9226
需	-9227
하	-9228
🇭	-9229
🇹	-9230
👅	-9231
👯	-9232
👸	-9233
👻	-9234
💌	-9235
📱	-9236
😶	-9237
🤩	-9238
🤭	-9239
}	-9240
¡	-9241
¥	-9242
»	-9243
ä	-9244
ā	-9245
͡	-9246
ढ	-9247
श	-9248
ผ	-9249
ฟ	-9250
ຖ	-9251
ປ	-9252
ຜ	-9253
ຮ	-9254
ຸ	-9255
ຽ	-9256
ໄ	-9257
⁠	-9258
≤	-9259
≥	-9260
♀	-9261
♂	-9262
♬	-9263
⚘	-9264
✅	-9265
✋	-9266
々	-9267
あ	-9268
こ	-9269
与	-9270
个	-9271
及	-9272
困	-9273
姉	-9274
姐	-9275
开	-9276
必	-9277
所	-9278
款	-9279
民	-9280
洪	-9281
淹	-9282
烦	-9283
美	-9284
行	-9285
请	-9286
赠	-9287
開	-9288
麻	-9289
가	-9290
구	-9291
금	-9292
대	-9293
두	-9294
들	-9295
람	-9296
마	-9297
말	-9298
매	-9299
모	-9300
문	-9301
물	-9302
미	-9303
사	-9304
세	-9305
수	-9306
시	-9307
얀	-9308
에	-9309
와	-9310
움	-9311
원	-9312
있	-9313
자	-9314
작	-9315
주	-9316
지	-9317
친	-9318
필	-9319
한	-9320
형	-9321
홍	-9322
	-9323
🇷	-9324
🎀	-9325
🐕	-9326
👩	-9327
👫	-9328
👼	-9329
😦	-9330
😵	-9331
🙋	-9332
🤐	-9333
🤑	-9334
ê	-9335
ñ	-9336
α	-9337
ر	-9338
ึ	-9339
ព	-9340
យ	-9341
✂	-9342
❓	-9343
か	-9344
な	-9345
ん	-9346
事	-9347
什	-9348
哈	-9349
多	-9350
心	-9351
日	-9352
本	-9353
아	-9354
	-9355
	-9356
🌷	-9357
🍃	-9358
🎸	-9359
🏾	-9360
🐂	-9361
🐒	-9362
🐟	-9363
🐧	-9364
🖐	-9365
Ñ	-9366
á	-9367
è	-9368
í	-9369
ó	-9370
š	-9371
а	-9372
м	-9373
ا	-9374
ي	-9375
்	-9376
ภ	-9377
ศ	-9378
ฯ	-9379
ច	-9380
ប	-9381
ី	-9382
◉	-9383
☕	-9384
✨	-9385
つ	-9386
よ	-9387
わ	-9388
么	-9389
吉	-9390
啦	-9391
喜	-9392
外	-9393
导	-9394
恭	-9395
没	-9396
生	-9397
陈	-9398
이	-9399
	-9400
	-9401
	-9402
	-9403
	-9404
🇫	-9405
🍺	-9406
🍻	-9407
👽	-9408
💀	-9409
💉	-9410
📢	-9411
🔑	-9412
🖋	-9413
😽	-9414
😿	-9415
®	-9416
·	-9417
¿	-9418
ç	-9419
é	-9420
ë	-9421
î	-9422
ō	-9423
Ś	-9424
ʖ	-9425
ː	-9426
͜	-9427
ب	-9428
م	-9429
୪	-9430
ப	-9431
ฝ	-9432
ၢ	-9433
ទ	-9434
វ	-9435
ហ	-9436
ំ	-9437
៉	-9438
≦	-9439
≧	-9440
♕	-9441
⛵	-9442
が	-9443
も	-9444
り	-9445
ウ	-9446
何	-9447
加	-9448
南	-9449
啊	-9450
女	-9451
春	-9452
言	-9453
	-9454
	-9455
	-9456
	-9457
	-9458
	-9459
	-9460
🇨	-9461
🇪	-9462
🇼	-9463
🍸	-9464
🎄	-9465
🎥	-9466
🎹	-9467
🎻	-9468
🐘	-9469
🐣	-9470
🐮	-9471
👑	-9472
👪	-9473
💇	-9474
💤	-9475
💥	-9476
💨	-9477
📡	-9478
🔥	-9479
🙀	-9480
🤦	-9481
©	-9482
Ô	-9483
Ø	-9484
ô	-9485
û	-9486
č	-9487
ĝ	-9488
Ĵ	-9489
ř	-9490
Ŵ	-9491
ˆ	-9492
γ	-9493
ο	-9494
И	-9495
К	-9496
Н	-9497
и	-9498
н	-9499
о	-9500
ع	-9501
ك	-9502
ل	-9503
आ	-9504
க	-9505
ங	-9506
ச	-9507
ர	-9508
ி	-9509
ฆ	-9510
ዞ	-9511
Ꮍ	-9512
Ꮬ	-9513
ខ	-9514
ជ	-9515
ដ	-9516
ណ	-9517
ិ	-9518
ូ	-9519
៊	-9520
់	-9521
℘	-9522
⋯	-9523
■	-9524
▲	-9525
◕	-9526
◡	-9527
◤	-9528
☎	-9529
♫	-9530
⚒	-9531
⚠	-9532
⛏	-9533
✆	-9534
➡	-9535
〷	-9536
じ	-9537
せ	-9538
ね	-9539
み	-9540
ィ	-9541
グ	-9542
サ	-9543
ジ	-9544
ナ	-9545
ハ	-9546
ピ	-9547
ム	-9548
ュ	-9549
ョ	-9550
ル	-9551
ワ	-9552
不	-9553
为	-9554
之	-9555
也	-9556
了	-9557
亲	-9558
以	-9559
们	-9560
假	-9561
八	-9562
发	-9563
可	-9564
合	-9565
向	-9566
吧	-9567
呵	-9568
在	-9569
妈	-9570
学	-9571
对	-9572
島	-9573
帥	-9574
年	-9575
应	-9576
張	-9577
成	-9578
救	-9579
星	-9580
昭	-9581
望	-9582
李	-9583
母	-9584
源	-9585
琴	-9586
石	-9587
纷	-9588
联	-9589
誕	-9590
語	-9591
这	-9592
頑	-9593
领	-9594
름	-9595
쉿	-9596
운	-9597
웅	-9598
	-9599
	-9600
	-9601
	-9602
	-9603
	-9604
	-9605
🇧	-9606
🇮	-9607
🇱	-9608
🇾	-9609
🌛	-9610
🌜	-9611
🌲	-9612
🌶	-9613
🍄	-9614
🍉	-9615
🍗	-9616
🍲	-9617
🍷	-9618
🎷	-9619
🏛	-9620
🏠	-9621
🏡	-9622
🏢	-9623
🏦	-9624
🏫	-9625
🏬	-9626
🐆	-9627
🐛	-9628
🐢	-9629
🐦	-9630
👚	-9631
👭	-9632
💊	-9633
💣	-9634
💧	-9635
💿	-9636
📖	-9637
📚	-9638
📷	-9639
📹	-9640
📺	-9641
🔧	-9642
🔨	-9643
🔩	-9644
🔸	-9645
🔹	-9646
🕣	-9647
🖊	-9648
🗡	-9649
😼	-9650
🙎	-9651
🚗	-9652
🚙	-9653
🚩	-9654
🚫	-9655
🚶	-9656
🤒	-9657
🤝	-9658
🤡	-9659
🤢	-9660
🤥	-9661
🤫	-9662
🥊	-9663
🧝	-9664
£	-9665
à	-9666
ã	-9667
å	-9668
æ	-9669
õ	-9670
ü	-9671
Đ	-9672
ī	-9673
Ķ	-9674
Ř	-9675
ş	-9676
Š	-9677
Ū	-9678
ū	-9679
Ÿ	-9680
ż	-9681
Ž	-9682
ɑ	-9683
ɛ	-9684
ʈ	-9685
ʔ	-9686
ʾ	-9687
ʿ	-9688
ˈ	-9689
ˌ	-9690
Ι	-9691
Μ	-9692
ί	-9693
δ	-9694
η	-9695
λ	-9696
ν	-9697
ς	-9698
ό	-9699
أ	-9700
ح	-9701
خ	-9702
س	-9703
ش	-9704
ن	-9705
ه	-9706
و	-9707
उ	-9708
ट	-9709
ण	-9710
ष	-9711
ॐ	-9712
உ	-9713
ம	-9714
ய	-9715
ள	-9716
வ	-9717
ு	-9718
ூ	-9719
ே	-9720
ை	-9721
ฅ	-9722
ซ	-9723
ฒ	-9724
ฤ	-9725
๊	-9726
ၗ	-9727
ၥ	-9728
ၼ	-9729
ႊ	-9730
ᄏ	-9731
ᗬ	-9732
ធ	-9733
ល	-9734
អ	-9735
ឱ	-9736
ៀ	-9737
េ	-9738
ៅ	-9739
៍	-9740
។	-9741
៕	-9742
ṃ	-9743
ṇ	-9744
ṯ	-9745
ệ	-9746
∪	-9747
⏩	-9748
⏰	-9749
▽	-9750
☘	-9751
☜	-9752
☠	-9753
⛄	-9754
✉	-9755
✖	-9756
❀	-9757
〃	-9758
え	-9759
ぞ	-9760
ど	-9761
へ	-9762
ゃ	-9763
ら	-9764
ァ	-9765
イ	-9766
ェ	-9767
ク	-9768
ダ	-9769
ッ	-9770
ノ	-9771
ビ	-9772
フ	-9773
・	-9774
ヾ	-9775
三	-9776
下	-9777
世	-9778
仙	-9779
代	-9780
令	-9781
会	-9782
传	-9783
信	-9784
候	-9785
其	-9786
内	-9787
军	-9788
分	-9789
务	-9790
势	-9791
勇	-9792
化	-9793
北	-9794
压	-9795
参	-9796
又	-9797
叶	-9798
司	-9799
吃	-9800
名	-9801
吓	-9802
吗	-9803
吹	-9804
告	-9805
和	-9806
咯	-9807
哥	-9808
哦	-9809
喔	-9810
坡	-9811
壁	-9812
处	-9813
子	-9814
守	-9815
安	-9816
客	-9817
害	-9818
尤	-9819
屁	-9820
帅	-9821
希	-9822
干	-9823
廣	-9824
张	-9825
得	-9826
応	-9827
总	-9828
悲	-9829
想	-9830
感	-9831
慈	-9832
慧	-9833
才	-9834
扬	-9835
披	-9836
放	-9837
政	-9838
新	-9839
方	-9840
早	-9841
时	-9842
時	-9843
晚	-9844
权	-9845
来	-9846
梦	-9847
梨	-9848
棒	-9849
様	-9850
歌	-9851
比	-9852
求	-9853
沙	-9854
油	-9855
泉	-9856
派	-9857
海	-9858
消	-9859
涉	-9860
無	-9861
牵	-9862
狠	-9863
王	-9864
玲	-9865
理	-9866
由	-9867
皮	-9868
盛	-9869
目	-9870
着	-9871
祝	-9872
祷	-9873
章	-9874
管	-9875
緒	-9876
老	-9877
而	-9878
耻	-9879
肖	-9880
自	-9881
臭	-9882
苦	-9883
菩	-9884
蔡	-9885
薩	-9886
虎	-9887
西	-9888
覚	-9889
觀	-9890
议	-9891
论	-9892
说	-9893
貌	-9894
赛	-9895
超	-9896
趙	-9897
过	-9898
连	-9899
郎	-9900
部	-9901
酷	-9902
關	-9903
陷	-9904
難	-9905
靈	-9906
音	-9907
项	-9908
风	-9909
麼	-9910
龍	-9911
너	-9912
무	-9913
뻐	-9914
예	-9915
좋	-9916
	-9917
	-9918
	-9919
	-9920
	-9921
	-9922
	-9923
	-9924
	-9925
🇩	-9926
🇰	-9927
🇳	-9928
🇴	-9929
🇸	-9930
🇺	-9931
🇻	-9932
🌂	-9933
🌎	-9934
🌞	-9935
🌳	-9936
🌺	-9937
🌾	-9938
🌿	-9939
🍇	-9940
🍌	-9941
🍏	-9942
🍐	-9943
🍔	-9944
🍚	-9945
🍜	-9946
🍝	-9947
🍣	-9948
🍧	-9949
🍮	-9950
🍹	-9951
🎅	-9952
🎋	-9953
🎎	-9954
🎓	-9955
🏅	-9956
🏆	-9957
🐀	-9958
🐅	-9959
🐇	-9960
🐌	-9961
🐐	-9962
🐔	-9963
🐖	-9964
🐚	-9965
🐝	-9966
🐱	-9967
🐴	-9968
🐶	-9969
🐺	-9970
🐻	-9971
🐿	-9972
👁	-9973
👂	-9974
👰	-9975
👲	-9976
👶	-9977
👷	-9978
👺	-9979
💁	-9980
💅	-9981
💼	-9982
📝	-9983
📮	-9984
📲	-9985
🔔	-9986
🕊	-9987
🙅	-9988
🙉	-9989
🚃	-9990
🚐	-9991
🚘	-9992
🚳	-9993
🚷	-9994
🤜	-9995
🤟	-9996
