<unk>	0
<s>	0
</s>	0
▁။	-3.45114
▁ပါ	-3.79536
▁က	-3.90281
▁ကို	-3.94574
▁တယ်	-4.01196
▁မ	-4.17243
▁သည်	-4.28984
▁နေ	-4.4063
▁တာ	-4.43202
▁ရ	-4.45613
▁မှာ	-4.47882
▁တွေ	-4.48757
▁၊	-4.71495
▁များ	-4.77366
▁တဲ့	-4.78053
▁ဖြစ်	-4.84158
▁	-4.87455
▁တော့	-4.8789
▁ပြီး	-4.93293
▁ရှိ	-4.95602
▁နဲ့	-4.97208
▁လို့	-5.04327
▁တစ်	-5.05977
▁တို့	-5.08235
▁ခဲ့	-5.13649
▁လည်း	-5.19857
▁သူ	-5.19914
▁ဘူး	-5.20555
▁ပဲ	-5.23139
▁ဆို	-5.26598
▁လာ	-5.32323
▁မှ	-5.33049
▁လိုက်	-5.33524
▁ပေး	-5.33915
▁ကြ	-5.37457
▁၏	-5.37951
▁သွား	-5.40882
▁နိုင်	-5.4303
▁ပြော	-5.5068
▁ရင်	-5.50895
▁လား	-5.52126
▁သော	-5.52643
▁မယ်	-5.5725
▁ထား	-5.60845
▁တွင်	-5.67391
▁နှင့်	-5.70438
▁မှု	-5.76938
▁ရဲ့	-5.80259
▁လဲ	-5.81249
▁ဒီ	-5.81654
▁လေ	-5.82239
▁ရေး	-5.83092
▁လုပ်	-5.85803
▁ပြီ	-5.86153
▁(	-5.86581
▁လေး	-5.87748
▁)	-5.89861
▁ချင်	-5.90344
▁ဘာ	-5.98051
▁လို	-5.99773
▁နှစ်	-6.00367
▁ဟာ	-6.00471
▁သိ	-6.0167
▁ကောင်း	-6.01954
▁ကျွန်တော်	-6.02627
▁ဟုတ်	-6.05262
▁ဦး	-6.0689
▁ဖို့	-6.07151
▁အတွက်	-6.11522
▁ချစ်	-6.15357
▁ခု	-6.15715
▁ပါစေ	-6.1599
▁ပြန်	-6.18571
▁ခြင်း	-6.18973
▁နော်	-6.19374
▁၍	-6.19639
▁ကြီး	-6.20967
▁ထဲ	-6.21158
▁လူ	-6.22902
▁မြန်မာ	-6.26627
▁အောင်	-6.27861
▁အရမ်း	-6.28237
▁နိုင်ငံ	-6.28249
▁သို့	-6.35139
▁အားပေး	-6.35667
▁ပေါ့	-6.40121
့	-6.4166
▁ယောက်	-6.42014
ကြီး	-6.42447
▁ဘယ်	-6.42525
▁-	-6.43845
၊	-6.47568
▁ကြည့်	-6.48507
▁ရေ	-6.50163
▁...	-6.52353
▁သေး	-6.52506
▁မင်း	-6.53296
▁သူ့	-6.5395
▁အ	-6.54922
▁ရောက်	-6.58704
▁မည်	-6.58742
▁သာ	-6.59092
▁စေ	-6.5953
▁ဟု	-6.6116
▁ရာ	-6.62475
▁ကလေး	-6.69383
▁ရန်	-6.71119
▁ဒါ	-6.71492
▁စရာ	-6.71972
▁တောင်	-6.72656
▁မိ	-6.73332
▁တတ်	-6.74788
▁အား	-6.74973
▁ပေါ်	-6.75521
▁လောက်	-6.7635
▁တွေ့	-6.76369
▁မျိုး	-6.77606
▁ချက်	-6.77614
▁ကျ	-6.78553
▁လှ	-6.7912
▁စွာ	-6.79442
▁ကြောင်း	-6.81401
▁နေ့	-6.82369
▁စိတ်	-6.82476
▁ရယ်	-6.83111
▁ပေ	-6.83425
▁ပြ	-6.83466
▁၌	-6.85067
▁ကြိုက်	-6.86589
▁နေရာ	-6.89321
▁😍	-6.89337
▁ထို	-6.89872
▁နောက်	-6.90607
▁အခု	-6.90936
▁ဗျာ	-6.91443
▁လ	-6.92415
▁မင်္ဂလာ	-6.92453
မ	-6.92455
▁အချိန်	-6.92808
▁ကား	-6.93361
▁သုံး	-6.93631
▁😂	-6.9416
▁စ	-6.94568
▁ကိုယ်	-6.95072
▁ယူ	-6.95447
▁တိုင်း	-6.96428
လေး	-6.96527
▁ပင်	-6.96795
▁သည့်	-6.96958
▁ခံ	-6.97021
▁သည့်	-6.97173
▁ကာ	-6.97838
▁သား	-6.97924
▁ငါ	-6.98448
▁ရက်	-6.98587
▁သာဓု	-6.9978
▁ဘယ်လို	-7.00474
▁စား	-7.01224
▁ထက်	-7.02384
▁အသင်း	-7.03448
▁ခေါ်	-7.03876
▁ဝင်	-7.04001
▁ပို	-7.04112
▁ငွေ	-7.04466
▁အိမ်	-7.04957
▁စကား	-7.06407
▁ဘက်	-7.0692
▁၂	-7.07488
▁မြို့	-7.08288
▁😘	-7.09637
▁ဝယ်	-7.09696
▁ထွက်	-7.11066
▁လုံး	-7.11633
▁အားလုံး	-7.12359
▁လျှင်	-7.12754
း	-7.12874
▁အဲဒီ	-7.15437
▁ခင်ဗျား	-7.1575
▁အတွင်း	-7.16182
▁လျက်	-7.17955
▁ပုံ	-7.19429
▁ကိုစိုင်း	-7.1997
▁၁	-7.20123
▁ကြောင့်	-7.21336
▁တင်	-7.21707
်	-7.21813
▁ထင်	-7.21818
▁ပွဲ	-7.21834
▁မလဲ	-7.23114
▁ဖြင့်	-7.2401
▁လက်	-7.24617
▁ရော	-7.25829
▁ကွာ	-7.27564
▁မြင်	-7.28805
▁ကြား	-7.29307
အ	-7.31264
▁သလို	-7.32738
▁အလုပ်	-7.33423
▁တ	-7.33941
▁အစိုးရ	-7.35305
▁စာ	-7.3769
▁လမ်း	-7.37717
▁ဆီ	-7.3821
▁အဖြစ်	-7.39206
▁အောင်မြင်	-7.39755
▁ဘဝ	-7.41774
▁အမြဲ	-7.43416
▁ဖူး	-7.43708
▁ဆောင်ရွက်	-7.45781
တော်	-7.46119
▁ရင်း	-7.46781
▁ဘဲ	-7.46908
ဆုံး	-7.47277
▁ရှင်	-7.48495
▁၃	-7.48581
▁ဖြင့်	-7.49269
▁😁	-7.50014
▁ကောင်	-7.50094
▁ခင်ဗျာ	-7.50554
▁မလား	-7.5109
▁မှန်	-7.51263
▁ကြည့်	-7.51845
▁ထုတ်	-7.51958
▁ကြောင့်	-7.52296
▁တုန်း	-7.52862
▁နည်း	-7.53456
▁ကုန်	-7.53472
▁တရား	-7.53617
▁တက်	-7.5424
▁ချ	-7.54398
▁တော်	-7.54814
▁ဆရာ	-7.54991
▁ခုနှစ်	-7.55215
▁စု	-7.55316
▁တကယ်	-7.55336
▁ဒေသ	-7.55528
▁ရှင့်	-7.55867
▁မျက်နှာ	-7.57262
စား	-7.57674
▁ကျန်းမာ	-7.57703
▁ပြည်သူ	-7.58023
▁စစ်	-7.58127
ယူ	-7.58445
▁မမ	-7.58505
▁ကြာ	-7.58803
▁ဆိုင်	-7.60406
▁ချော	-7.621
▁ဘယ်လောက်	-7.62106
▁မိုက်	-7.62162
ရာ	-7.62442
▁အထိ	-7.62481
▁ရွှေ	-7.62906
▁အကြောင်း	-7.63023
▁ဘုရား	-7.63027
▁ပြု	-7.63286
▁မေး	-7.63319
▁ပေါင်း	-7.63377
▁ကျွန်တော့	-7.63524
▁သင့်	-7.63644
▁အသက်	-7.63684
▁အဖွဲ့	-7.64061
သား	-7.64616
▁သီချင်း	-7.65574
▁ပြည်	-7.65785
ုပ်	-7.66275
▁ထိ	-7.6661
▁ပညာ	-7.66866
▁ပိုင်း	-7.66866
▁သေ	-7.67189
▁ချိန်	-7.67514
▁ကျော်	-7.67822
▁ပျော်	-7.68839
▁သိပ်	-7.69022
▁ကျောင်း	-7.69064
▁ဒီလို	-7.69192
▁အမေ	-7.69226
တ	-7.69465
▁သမီး	-7.69573
▁အခါ	-7.69871
▁မယ့်	-7.69872
▁ရန်ကုန်	-7.70183
▁အောက်	-7.70207
▁ပြိုင်ပွဲ	-7.70855
▁မိမိ	-7.71391
▁ကြိုးစား	-7.74054
▁တူ	-7.74199
▁ရရှိ	-7.74537
▁အတိုင်း	-7.74541
▁တည်း	-7.74575
▁ဤ	-7.75048
▁ကိုယ့်	-7.75108
▁ဖုန်း	-7.75152
▁ကျေးဇူး	-7.75613
▁တိုက်	-7.76136
▁ရပ်	-7.76496
▁ဥပဒေ	-7.76531
▁ဆက်	-7.76856
▁မောင်	-7.77069
▁ဗျ	-7.77328
▁သတင်း	-7.77458
▁ငါ့	-7.7755
▁လျှောက်	-7.77793
▁ဘယ်သူ	-7.77957
▁နား	-7.78401
▁ဟုတ်ကဲ့	-7.78864
▁သောက်	-7.79961
▁နာရီ	-7.80195
▁ကျွန်မ	-7.80447
▁အရ	-7.8094
▁ည	-7.80944
▁မူ	-7.81057
ကျ	-7.81243
▁ကစား	-7.81546
▁တာဝန်	-7.8171
ခံ	-7.81878
▁သလဲ	-7.82141
▁ပစ်	-7.82849
ဝ	-7.82944
▁ရွာ	-7.82993
▁၄	-7.8324
ဝင်	-7.83469
▁👍	-7.8405
▁ရဲ	-7.84202
▁ပေါက်	-7.84395
ဆို	-7.84679
▁ပါဝင်	-7.84923
က	-7.85067
▁ရှာ	-7.8537
▁လုပ်ငန်း	-7.85636
▁ရှေ့	-7.85843
▁ဆေး	-7.86056
▁ဒါပေမဲ့	-7.86527
▁အပေါ်	-7.87465
▁လေးစား	-7.894
▁ဆု	-7.89975
▁ခါ	-7.89997
▁မယ့်	-7.90132
▁ကျေးဇူးတင်	-7.90637
▁စိုင်း	-7.90878
▁စာအုပ်	-7.9095
▁သလား	-7.91324
▁ပျော်ရွှင်	-7.9141
▁ယခု	-7.91448
▁တရုတ်	-7.91703
▁အပြင်	-7.91868
▁ထပ်	-7.91914
ရ	-7.92091
▁ကိစ္စ	-7.92129
▁အဲ့	-7.92283
▁လိမ့်	-7.92397
စ	-7.92605
▁နာမည်	-7.92712
▁အသံ	-7.9342
▁နှင့်	-7.93499
▁မြေ	-7.93708
▁ပရိသတ်	-7.94071
▁၅	-7.94149
▁ရိုက်	-7.94339
သူ	-7.95773
▁မို့	-7.96026
▁အရင်	-7.96187
▁စီး	-7.96415
▁ချင်း	-7.96909
▁အေး	-7.97078
သ	-7.97603
▁လေ့လာ	-7.97631
▁ငါး	-7.9865
▁ဒုန်း	-7.98846
▁ကွ	-7.98991
▁ပါ့	-7.9908
▁ပစ္စည်း	-7.9937
▁ခေတ်	-7.99556
▁ဘာသာ	-8.01458
▁ဟို	-8.01483
▁စဉ်းစား	-8.01822
▁ကမ္ဘာ	-8.01875
ထား	-8.01934
▁သော်လည်း	-8.02258
▁ကိုကြီး	-8.02881
▁မှီ	-8.02984
စ်	-8.03074
▁ပြန်လည်	-8.04167
▁လိုအပ်	-8.04359
▁မျှ	-8.04486
)	-8.04541
▁အကို	-8.05096
▁ကျွန်	-8.05759
▁ထိုး	-8.06153
ဦး	-8.06374
▁မီး	-8.07452
▁ခွေး	-8.07514
တ်	-8.0753
▁အဖေ	-8.08449
▁အခြား	-8.08648
▁ဖတ်	-8.08662
▁စိုင်းစိုင်း	-8.08685
▁ခံစား	-8.09342
▁ပြုလုပ်	-8.09505
▁အမည်	-8.09526
▁ကျင်းပ	-8.09948
▁အမှတ်	-8.10058
▁ထိုင်	-8.10214
▁လူမျိုး	-8.103
တင်	-8.10745
▁ပတ်သက်	-8.10774
▁ကျန်	-8.10858
ချ	-8.11118
▁ဈေး	-8.1151
▁ဘေး	-8.1211
▁ပြည်နယ်	-8.12282
▁သ	-8.12353
▁အဲဒါ	-8.12381
▁၆	-8.12684
▁သင့်	-8.13506
▁မဲ့	-8.13715
▁မန္တလေး	-8.14065
▁မိန်းမ	-8.1449
▁မြန်	-8.14584
▁ခင်	-8.14692
▁တိုးတက်	-8.14823
လာ	-8.14992
▁အများကြီး	-8.15409
▁ဖက်	-8.1576
▁မြို့နယ်	-8.15916
▁မိုး	-8.1596
▁၁၉	-8.16197
▁အိပ်	-8.16597
▁ထည့်	-8.16675
▁ကစ်	-8.16711
တာ	-8.16823
▁ဆိုင်ရာ	-8.16847
▁အစ်ကို	-8.17199
▁ပို့	-8.17624
ပါ	-8.1828
စာ	-8.18422
▁ဝန်ထမ်း	-8.18763
▁ငယ်	-8.18981
▁ကစားသမား	-8.19388
ပွဲ	-8.1941
▁ကိုနေတိုး	-8.19419
▁ခေါင်း	-8.19544
▁နင်	-8.19855
.	-8.20098
▁အနေနဲ့	-8.20209
▁အမြဲတမ်း	-8.20623
▁ဆိုး	-8.20651
▁အခြေအနေ	-8.20833
▁?	-8.21171
▁သံ	-8.2127
▁သောအခါ	-8.21394
▁ဘုရင်	-8.21616
▁ရောဂါ	-8.21889
ရောက်	-8.22115
▁သို့သော်	-8.22221
▁ကိုယ်တိုင်	-8.2236
ာ	-8.22945
သံ	-8.22984
▁ကာကွယ်	-8.23386
▁ကြိမ်	-8.23524
▁ဖော်ပြ	-8.23785
s	-8.23935
▁ဝမ်းသာ	-8.24399
▁သင်	-8.24433
▁စတင်	-8.24493
▁ခွဲ	-8.2495
▁စမ်း	-8.25078
▁ဒုတိယ	-8.25078
▁သေချာ	-8.25145
▁ကိုယ့်	-8.25443
▁..	-8.25649
▁မြောက်	-8.25945
ပေး	-8.26231
န	-8.26277
▁ဟ	-8.26342
▁ပျက်	-8.26531
▁စဉ်	-8.26634
▁အတူ	-8.27229
▁=	-8.27253
▁ထောင်	-8.27433
▁ပ	-8.27586
▁သူငယ်ချင်း	-8.27606
▁စောင့်	-8.2766
▁အခန်း	-8.27677
▁တော်တော်	-8.27865
▁ကာလ	-8.28339
▁တပ်	-8.28418
▁သူမ	-8.28428
▁ဟေ့	-8.28611
▁အရေး	-8.28732
▁ဆွဲ	-8.28823
▁ရှင်း	-8.29202
▁ဖြေ	-8.29652
▁ကျပ်	-8.29867
▁ပိုက်ဆံ	-8.29947
▁တိုး	-8.29973
▁ခွင့်	-8.3005
့်	-8.30087
▁ဆုတောင်း	-8.30266
▁ဝတ်	-8.30441
▁ရောင်	-8.3049
▁တောင်း	-8.30643
▁လွန်း	-8.30765
▁နားလည်	-8.30779
▁အမှန်	-8.30789
▁သဘော	-8.30796
▁ပန်း	-8.30875
က်	-8.30926
▁တည်	-8.31164
▁ပိတ်	-8.31448
▁မိသားစု	-8.31645
▁ထ	-8.31968
▁နံပါတ်	-8.3211
▁အဆင်ပြေ	-8.32218
မင်း	-8.3246
▁ခိုင်း	-8.3251
▁အော်	-8.3261
▁နိုင်ငံတော်	-8.32787
▁၁၀	-8.32819
▁ဘောလုံး	-8.32863
▁ကိုင်	-8.33021
▁ရောင်း	-8.331
▁အမျိုးသား	-8.33454
▁သစ်	-8.33643
▁အရာ	-8.33763
▁ဆရာမ	-8.3392
▁၇	-8.34137
လ	-8.34467
▁စနစ်	-8.345
▁ကြောက်	-8.34615
▁အပ်	-8.35081
အောင်	-8.35324
▁ကူညီ	-8.35395
▁ပြောင်းလဲ	-8.35402
▁တိုင်းပြည်	-8.3568
▁စီးပွား	-8.35714
▁ခ	-8.35911
▁ပြောင်း	-8.36023
ံ	-8.36434
▁မှန်း	-8.36783
နာ	-8.37005
▁နည်းနည်း	-8.37074
▁လွှဲ	-8.37082
ဆက်	-8.37288
▁အလွန်	-8.37307
▁ကော	-8.37728
▁သတ်	-8.38015
▁အဓိက	-8.38063
▁အစ	-8.38093
ဆောင်	-8.38186
▁တိုင်	-8.38314
▁လက်ရှိ	-8.38328
▁ဒုက္ခ	-8.38352
▁နာ	-8.38645
▁၎င်း	-8.38673
▁ဌာန	-8.39228
▁အမြန်	-8.39259
▁တပ်မတော်	-8.39773
▁:-	-8.39774
▁ကွယ်	-8.39794
▁သမ္မတ	-8.40105
▁အထူး	-8.40129
▁ပြေး	-8.40217
▁သဖြင့်	-8.40346
▁ဆင်း	-8.40424
▁ဝ	-8.40607
▁မှား	-8.40803
▁မည့်	-8.40885
▁ပြင်	-8.41019
▁ဖြတ်	-8.41813
▁ရခိုင်	-8.41816
▁ထာဝရ	-8.42066
▁၉	-8.42093
န်	-8.42256
▁စစ်ဆေး	-8.42508
▁ပတ်	-8.4252
ရီ	-8.42532
▁ဖွင့်	-8.42598
▁သွေး	-8.42607
▁တခြား	-8.43196
▁ရက်နေ့	-8.43568
▁လက်ခံ	-8.43614
▁နောက်ဆုံး	-8.44032
▁သတ်မှတ်	-8.4407
▁ယင်း	-8.44585
ပင်	-8.44597
▁ထိုင်း	-8.44662
▁ကျောင်းသား	-8.45023
▁ဒေါ်	-8.45841
▁ကတည်းက	-8.46132
လုံး	-8.46235
/	-8.46507
ပြ	-8.46631
▁မက	-8.46658
▁ပြဿနာ	-8.46675
▁မိဘ	-8.47101
▁ပါး	-8.4725
▁ပိုင်ဆိုင်	-8.47421
ကာ	-8.47539
▁သမျှ	-8.47677
▁အမေရိကန်	-8.47788
▁ဟင်	-8.47833
▁ပြည့်	-8.48036
▁မတ်	-8.48277
▁ဂိုး	-8.4838
▁ဝေ	-8.48668
▁ပါတီ	-8.4874
▁ခန့်	-8.48792
▁ဆဲ	-8.49103
▁ထံ	-8.49118
▁မီ	-8.49158
▁ရုံ	-8.49234
▁အားကစား	-8.49354
▁အပြစ်	-8.49417
နီ	-8.50226
▁ကျုပ်	-8.50311
ပ	-8.50399
▁ပုံစံ	-8.50615
▁မဲ	-8.50626
▁နေထိုင်	-8.50709
▁ရုံး	-8.50959
သဖြင့်	-8.51316
မကောင်း	-8.51486
▁အများ	-8.51618
▁စောက်	-8.518
▁ခဏ	-8.51851
▁ဘဏ်	-8.5204
စဉ်	-8.52175
ခ	-8.52197
ရှိ	-8.52253
▁ကမ္ဘာ့	-8.52318
▁ထမင်း	-8.52699
▁ယုံကြည်	-8.52763
▁ပထမ	-8.52837
▁သန်း	-8.5297
▁မေ	-8.53122
▁ရာသီ	-8.53135
သာ	-8.53229
▁အကျိုး	-8.53304
▁ပြီးနောက်	-8.53367
▁မြန်မာ့	-8.53444
တော့	-8.53477
▁အသုံးပြု	-8.53625
-	-8.53645
▁အချစ်	-8.53751
▁ကိုကို	-8.53871
▁တန်း	-8.54453
့်	-8.54608
▁စာရင်း	-8.54881
▁အသစ်	-8.55034
▁၈	-8.55099
▁လွန်	-8.55107
▁ကင်း	-8.5526
▁ဂုဏ်ယူ	-8.55396
▁လွှတ်တော်	-8.555
o	-8.55589
▁သိန်း	-8.56094
▁လက်မှတ်	-8.56135
▁အခြေခံ	-8.5619
▁လုံးဝ	-8.56425
ပေါင်း	-8.56451
▁ဆုံး	-8.56479
▁အဲ့လို	-8.57067
▁ပြောကြား	-8.57305
▁ဆက်လက်	-8.57433
▁ပျောက်	-8.57786
▁သွင်း	-8.57947
▁စီ	-8.57981
▁လွတ်	-8.58092
▁ဆယ်	-8.58302
▁ခန့်	-8.58603
င်	-8.58777
▁😝	-8.59064
▁မွေး	-8.59509
▁ချေ	-8.60066
▁လှည့်	-8.60255
ယာ	-8.60324
▁အရွယ်	-8.60657
▁၁၂	-8.6075
▁အင်း	-8.60773
▁အကောင်းဆုံး	-8.60841
▁အမျိုးသမီး	-8.60913
▁ဟား	-8.6096
▁ယောက်ျား	-8.60996
▁၂၀	-8.61036
▁ဖမ်း	-8.61168
▁လည်းကောင်း	-8.61894
t	-8.61904
▁ဆင်	-8.62053
▁ဆွေးနွေး	-8.62253
▁မျက်လုံး	-8.62372
▁အချို့	-8.62392
▁လောက	-8.62593
ချက်	-8.62842
▁ခြေ	-8.62871
▁❤	-8.62979
▁ပြင်ဆင်	-8.62984
မာ	-8.63228
▁ဆန်	-8.63326
▁အဆင့်	-8.63386
▁ပညာရှင်	-8.63627
ကျော်	-8.63632
င်း	-8.6369
▁အထက်	-8.639
▁ဘ	-8.63908
ိ	-8.64239
▁တချို့	-8.64282
▁အချက်	-8.64422
▁တွဲ	-8.64568
▁သိပ္ပံ	-8.64634
ရှင်	-8.6473
▁တွေး	-8.64915
▁ကျေနပ်	-8.64989
▁'	-8.65001
▁အဖွဲ့အစည်း	-8.65788
▁လှမ်း	-8.6625
▁အကုန်	-8.6628
ပြု	-8.66473
▁တင်ပြ	-8.66501
ထွက်	-8.66617
န်း	-8.6665
▁ခြောက်	-8.66726
▁နားထောင်	-8.66804
▁ရုပ်	-8.66942
▁တော	-8.6701
▁တွင်း	-8.67015
▁မကစ်	-8.67109
e	-8.67217
▁ဟန်	-8.67463
▁ကြေညာ	-8.6768
▁ညီမ	-8.6771
▁အဲ့ဒါ	-8.67795
▁အကယ်ဒမီ	-8.68136
▁နေပြည်တော်	-8.68227
▁ဟူ	-8.68244
▁လုပ်ဆောင်	-8.68338
▁ခရီး	-8.6834
▁ပါရစေ	-8.6841
▁အစီအစဉ်	-8.68413
▁ဝင်ရောက်	-8.68734
▁၁၅	-8.68839
▁တက္ကသိုလ်	-8.68883
▁နတ်	-8.69259
▁တန်	-8.69397
▁အသား	-8.69433
ကြည့်	-8.69552
ဂ	-8.69674
ဝင်း	-8.70128
▁မှတ်	-8.70232
ု	-8.70342
▁ဂျပန်	-8.70354
▁ယုံ	-8.70387
▁ဆုံးဖြတ်	-8.70548
▁ခိုး	-8.70694
▁ချမ်းသာ	-8.70779
▁ကဲ	-8.70992
▁အတော်	-8.71147
▁ကဗျာ	-8.71158
▁.	-8.71194
,	-8.71861
သမား	-8.72028
▁ငို	-8.72249
▁နယ်	-8.72453
▁အမ	-8.72467
▁!	-8.72578
လ်	-8.7267
▁ကျေးရွာ	-8.73008
အေး	-8.7307
ကြောင်း	-8.73119
▁မေမေ	-8.73206
▁မေ့	-8.73232
▁ကပ်	-8.73263
ပန်း	-8.73313
y	-8.73616
▁သနား	-8.73691
▁ခပ်	-8.73892
တန်း	-8.7416
▁အုပ်ချုပ်	-8.74176
ငယ်	-8.74404
▁ခက်	-8.7461
▁လူငယ်	-8.7465
▁ကဲ့သို့	-8.74745
▁အို	-8.74827
▁လွှတ်	-8.74929
▁မည့်	-8.75074
▁လက်နက်	-8.75458
သွင်း	-8.75646
▁ပြုံး	-8.75696
▁ဆန္ဒ	-8.75795
▁ကျွန်တော့်	-8.75838
▁ချောင်း	-8.75841
▁၂၀၁၉	-8.76203
▁ဂရုစိုက်	-8.76323
▁လေ့	-8.76335
▁ကုလား	-8.76363
စု	-8.7641
▁ခေါင်းဆောင်	-8.76865
▁ထည့်	-8.76955
▁ရေးသား	-8.7702
ဝါ	-8.77297
▁ကန်	-8.77362
▁ဖေဖေ	-8.77371
▁ပြည်ထောင်စု	-8.77416
ဒ	-8.7765
▁မောင်း	-8.77694
▁လူ့	-8.77972
▁ခင်ဗျ	-8.77991
ရေး	-8.78377
ရည်	-8.78426
▁ညီမလေး	-8.78531
▁သဘာဝ	-8.78609
ပြင်	-8.78919
ပါး	-8.78923
▁င	-8.78958
▁ဆောင်	-8.7937
▁ရှည်	-8.79381
▁အနေဖြင	-8.79387
▁အင်နီ	-8.7955
▁ရထား	-8.79588
▁အနီး	-8.79699
▁ရုပ်ရှင်	-8.79975
▁ဖွယ်	-8.80009
▁မိန်းကလေး	-8.80018
လီ	-8.80089
မြတ်	-8.80377
▁အမှု	-8.80481
▁အာ	-8.80544
▁လိမ့်	-8.80551
ရပ်	-8.80755
ပေါက်	-8.80837
▁ယဉ်ကျေး	-8.81013
ကို	-8.81144
▁စက်	-8.81147
▁ဝတ္ထု	-8.81185
▁ဆက်သွယ်	-8.8141
▁ဝိုင်း	-8.81468
▁အမေစု	-8.8187
▁မဟာ	-8.81879
▁ချန်ပီယံ	-8.82092
ဖြူ	-8.82282
▁တန်ဖိုး	-8.82352
▁လူကြီး	-8.82856
▁အဲ့ဒီ	-8.83122
▁မွေးနေ့	-8.83304
▁ရွေး	-8.8356
ပြေ	-8.83818
▁ရွေးချယ်	-8.84047
▁အရောင်	-8.84086
▁ကိုး	-8.84146
▁၁၆	-8.84279
▁ပြည်သူ့	-8.84296
▁သိမ်း	-8.84385
▁ကောက်	-8.84655
မီ	-8.84662
▁သို့မဟုတ်	-8.84708
တကာ	-8.84861
▁တိုင်းရင်းသား	-8.84908
▁တည်ဆောက်	-8.85017
▁စာပေ	-8.85064
▁မိနစ်	-8.85174
▁အရပ်	-8.85239
▁အစ်မ	-8.85284
ထွန်း	-8.85545
▁ထို့နောက်	-8.85558
▁နောင်	-8.85588
မောင်	-8.85677
▁ညီ	-8.86136
▁ထောက်ခံ	-8.86426
▁အဘ	-8.86731
▁ဆိုင်ကယ်	-8.86771
ဇ	-8.86971
▁ပထမဆုံး	-8.87062
▁ဖွံ့ဖြိုး	-8.87203
သီး	-8.8721
▁ကျွေး	-8.87443
▁မြစ်	-8.87468
▁မကြာ	-8.87726
ဒီ	-8.87788
▁၁၈	-8.87859
▁ကုမ္ပဏီ	-8.8798
▁ဝန်ကြီး	-8.88019
ဝေ	-8.88294
ထ	-8.88307
▁စသည်	-8.88516
▁ဂ	-8.88734
▁အင်္ဂလိပ်	-8.88763
▁ခွင့်	-8.88767
▁ဓာတ်	-8.8914
▁လွတ်လပ်	-8.8941
▁သော်	-8.89431
▁အုပ်စု	-8.89562
u	-8.89762
▁ဗုဒ္ဓ	-8.89851
▁လွဲ	-8.90008
၍	-8.90057
▁ယာဉ်	-8.90179
d	-8.9021
▁လွယ်	-8.90317
မှတ်	-8.90378
▁တိုက်ခိုက်	-8.90467
▁😜	-8.9047
▁ဇာတ်	-8.90654
▁ရပ်ကွက်	-8.90683
စီ	-8.90791
ဟ	-8.90962
▁A	-8.91229
လတ်	-8.916
▁ပိုမို	-8.91636
▁နွား	-8.91714
ပတ်	-8.91848
▁ယှဉ်ပြိုင်	-8.91959
▁ညနေ	-8.92006
▁အရေးကြီး	-8.9203
i	-8.9209
ရေ	-8.92096
▁အာဏာ	-8.92101
လို	-8.92213
▁သတိရ	-8.92689
လက်	-8.92697
ီ	-8.92857
▁မင်းသား	-8.92908
▁အနောက်	-8.92916
▁စိတ်ဝင်စား	-8.93007
▁တွက်	-8.93305
ခန်း	-8.93955
▁ပူ	-8.94172
▁ငြိမ်းချမ်း	-8.94187
▁အဆိုပါ	-8.94318
▁တံဆိပ်	-8.94451
▁ပူး	-8.94621
▁သာယာ	-8.9482
ော	-8.95038
ာက်ထပ်	-8.95053
▁အိတ်	-8.95079
▁သမိုင်း	-8.95218
▁အနက်	-8.95295
တစ်	-8.95396
▁၁၁	-8.9551
သည်	-8.95563
l	-8.95662
လင်း	-8.95709
▁ဝေး	-8.95878
▁၃၀	-8.95986
ကောင်း	-8.96013
ဆ	-8.96019
▁ဆေးရုံ	-8.96084
▁ကူးစက်	-8.96192
▁😊	-8.96231
ငွေ	-8.96403
ခွဲ	-8.96746
▁လိဂ်	-8.96863
▁အကြိမ်	-8.97202
▁ကံကောင်း	-8.97205
▁တံခါး	-8.97364
ထိုး	-8.97374
▁ကျောက်	-8.97458
ပြား	-8.97545
▁လုံခြုံ	-8.9771
▁M	-8.97896
▁မနက်	-8.98032
ပုံ	-8.98135
မှူး	-8.98178
▁တွေ့ဆုံ	-8.98193
▁ကွင်း	-8.98203
▁ဟောင်း	-8.9829
▁အစား	-8.98528
ယ	-8.98554
တက်	-8.99121
▁နန်း	-8.99317
▁နိုင်ငံခြား	-8.99481
ချုပ်	-8.99511
▁စီစဉ်	-8.99573
▁ရှက်	-8.99577
တိုက်	-8.99585
▁စလုံး	-8.99706
▁ရှုံး	-8.99729
ကြည်	-8.9982
▁အတိုး	-8.99883
▁မြင်း	-8.99894
▁ဗိုင်းရပ်စ်	-9.00164
ခင်	-9.00278
▁ဝမ်းနည်း	-9.00301
▁ရှမ်း	-9.0033
▁စိုက်	-9.00375
တောင်	-9.00802
▁လှုပ်ရှား	-9.00931
ချိန်	-9.00973
▁ချည်း	-9.00984
▁အရှေ့	-9.01171
▁သက်ဆိုင်	-9.01191
▁လန်း	-9.01662
▁အနည်းငယ်	-9.02077
▁ထုတ်ပြန်	-9.02121
စိုး	-9.02212
▁ကိုယ်စားလှယ်	-9.02462
▁ဪ	-9.02978
ရောင်	-9.03015
▁နိုင်ငံသား	-9.03075
▁ဖြစ်ပေါ်	-9.03268
▁ပိုင်	-9.03289
▁ဝါး	-9.03605
ကား	-9.03634
▁ဝေဖန်	-9.03638
▁စွဲ	-9.03858
▁ဟော	-9.0409
▁အမျိုးမျိုး	-9.04286
▁လည်	-9.04304
▁သလောက်	-9.04688
▁ဒါကြောင့်	-9.04716
▁စစ်တပ်	-9.04825
▁လှူ	-9.0483
▁၁၄	-9.04835
▁အနုပညာ	-9.04836
နေ	-9.04843
▁တံတား	-9.04865
▁သင်တန်း	-9.05058
ထွေး	-9.05104
▁မာ	-9.05186
▁န	-9.05268
▁အနိုင်	-9.05312
▁သရုပ်ဆောင်	-9.05604
▁အရက်	-9.05607
▁လုပ်ကိုင်	-9.05644
▁သက်သာ	-9.0575
▁ပြတ်	-9.05783
▁ကိုမြင့်မြတ်	-9.05867
a	-9.0592
▁ဗိုလ်ချုပ်	-9.05966
▁ကူး	-9.0605
ဆိုင်	-9.06058
▁စာချုပ်	-9.06067
▁ကွဲ	-9.06156
▁ချစ်သူ	-9.06373
▁,	-9.06398
တီ	-9.06473
ဒါ	-9.06526
▁အပါအဝင်	-9.06535
▁စီမံ	-9.06539
▁😒	-9.0681
ရိုး	-9.06829
▁ကြော်ငြာ	-9.06939
▁😭	-9.07074
▁ဆံပင်	-9.07079
▁လေယာဉ်	-9.07099
▁ကန့်ကွက်	-9.0721
▁စကားလုံး	-9.0723
▁မျက်ရည်	-9.07621
er	-9.07661
ဖက်	-9.07917
▁ခန်း	-9.0798
▁ဒေါက်တာ	-9.08298
▁ကိုယ်ပိုင်	-9.0835
▁အေ	-9.08469
▁ချက်ချင်း	-9.08538
▁စိုးရိမ်	-9.08568
တူ	-9.08613
▁ထိန်းသိမ်း	-9.08845
ရင်း	-9.08902
လှ	-9.08963
☑	-9.09117
ယ်	-9.09356
▁ဂြိုဟ်	-9.09384
ကပ်	-9.09392
ခတ်	-9.09486
▁ထိခိုက်	-9.09538
ယနေ့	-9.09722
▁ကောင်းကောင်း	-9.09806
▁လိုင်း	-9.09837
▁မမမေ	-9.09918
▁ကြွေ	-9.09929
▁အင်အား	-9.0995
နိုင်	-9.10239
ဘ	-9.10277
ပ်	-9.10447
▁ကော်မတီ	-9.10448
▁ဆ	-9.10523
▁ကံ	-9.10569
နှံ	-9.10615
ထုတ်	-9.10866
ရံ	-9.10942
▁သင်ကြား	-9.10948
စင်	-9.11044
ရဲ	-9.11269
▁😢	-9.11356
▁စခန်း	-9.11375
▁ဦးစိုင်း	-9.11457
▁စီမံကိန်း	-9.11486
အခါ	-9.11526
▁နေတိုး	-9.1175
▁နံနက်	-9.11762
▁ဖြေရှင်း	-9.11777
လည်	-9.12015
▁ဝန်ကြီးဌာန	-9.12194
▁အဖြေ	-9.12215
▁ငှက်	-9.12482
▁ဖွဲ့	-9.12564
▁သေဆုံး	-9.12577
▁ပတ်ဝန်းကျင်	-9.1262
▁ဇာတ်ကား	-9.12634
တိုင်	-9.12648
▁သဘောကျ	-9.12712
▁တိုက်ပွဲ	-9.12727
▁စိုး	-9.12753
▁မျက်စိ	-9.12764
▁အန္တရာယ်	-9.12904
▁ဟင်း	-9.12912
▁မေတ္တာ	-9.13054
▁ပါးစပ်	-9.13209
▁☺	-9.13478
▁ဟူသော	-9.13491
▁ဟယ်	-9.13609
▁ဝါ	-9.13707
စိုက်	-9.1382
▁ကိုလေးဖြူ	-9.13924
ကြား	-9.13972
လမ်း	-9.14302
▁ပြုပြင်	-9.14413
န့်	-9.14579
▁၁၃	-9.14669
▁နီး	-9.14678
▁လူသား	-9.1479
▁ခွက်	-9.14815
တည်း	-9.14854
▁အတွေး	-9.14937
▁စိတ်ဓာတ်	-9.15401
▁ရှောင်	-9.15491
▁မီဒီယာ	-9.15511
▁ရာခိုင်နှုန်း	-9.15511
▁သတိထား	-9.15688
▁ဘယ်နှ	-9.15695
▁လျော့	-9.1573
▁C	-9.15906
ချင်း	-9.15921
ကန်	-9.16027
ကွက်	-9.16089
မြင့်	-9.16094
▁နားမလည်	-9.16102
▁ခနဲ	-9.16364
▁ဆက်ဆံ	-9.16703
▁😃	-9.16703
▁လှေ	-9.16739
▁ရည်ရွယ်	-9.16842
▁ဖလား	-9.16844
▁သစ်ပင်	-9.17188
▁စောင့်	-9.17461
▁လှပ	-9.17471
▁အလှ	-9.1754
▁ရှေး	-9.17576
▁သိရှိ	-9.17605
မိုး	-9.17726
▁ပြင်သစ်	-9.17756
မြ	-9.17767
▁/	-9.17778
▁ချီ	-9.18067
▁တောင်းဆို	-9.18152
▁အသိ	-9.18288
▁ဝက်	-9.18386
▁ပုဂ္ဂိုလ်	-9.18641
▁ဖွင့်	-9.18736
▁စည်းကမ်း	-9.18795
▁ဒီမိုကရေစီ	-9.18944
▁ဖင်	-9.18964
▁ဆရာဝန်	-9.18976
▁ချေး	-9.19083
ဆယ်	-9.19143
▁စိုက်ပျိုး	-9.19249
တိုင်း	-9.19252
ပြန်	-9.19253
▁ဖျက်	-9.19264
▁စောင်	-9.19319
▁လျှော့	-9.19586
▁မင်းသမီး	-9.19617
▁ဒေါ်လာ	-9.1963
▁ကြေး	-9.19658
▁ရှင့်	-9.19687
▁လိမ်း	-9.19716
▁အင်္ကျီ	-9.19753
စက်	-9.19817
▁အိန္ဒိယ	-9.20013
▁*	-9.2006
▁နှလုံး	-9.20119
▁ကြိုတင်	-9.20195
▁အဲ	-9.20324
▁လက်ဆောင်	-9.20329
▁စပါး	-9.20775
▁အမြင်	-9.21036
▁ပေါ	-9.21126
▁ယူဆ	-9.21178
▁ပေါင်	-9.21262
ပိုင်း	-9.21479
▁ခရိုင်	-9.21606
မ်	-9.2163
▁ဓာတ်ပုံ	-9.21733
▁အဆင့်	-9.21759
▁နှုန်း	-9.2176
ာတွင်	-9.21821
ဘာ	-9.22109
▁သက်	-9.2212
▁၁၇	-9.22125
▁၂၅	-9.22163
ဘက်	-9.22303
p	-9.22519
▁ကြုံ	-9.22522
▁ဖြစ်စေ	-9.22543
▁မူရင်း	-9.22546
▁ကြိုး	-9.22552
▁သွားရောက်	-9.22623
▁သမား	-9.22663
▁နင့်	-9.22667
▁အိုး	-9.22839
▁ရူး	-9.22851
▁သဘောတူ	-9.22888
▁အမတ်	-9.23081
▁ပြည့်	-9.23121
လုပ်	-9.23126
▁အလယ်	-9.23331
▁စားပွဲ	-9.23427
ing	-9.23433
S	-9.2344
▁နည်းပြ	-9.23551
▁မျှော်လင့်	-9.23608
▁သတင်းစာ	-9.23685
▁ကလပ်	-9.23712
▁B	-9.23728
▁သတိ	-9.23763
▁ဖန်တီး	-9.2377
ဆင်	-9.23826
▁မေးခွန်း	-9.23941
▁စေတနာ	-9.2411
▁ပုဂံ	-9.24246
▁ရန်သူ	-9.24366
▁မြင့်မြတ်	-9.24419
▁နန်းတော်	-9.2448
▁မိခင်	-9.24557
ရွှေ	-9.24617
▁ကိုက်	-9.24868
▁ဈေးနှုန်း	-9.24909
▁ထုတ်လုပ်	-9.24944
al	-9.24956
▁အကြံ	-9.25202
▁:)	-9.25236
ဆင့်	-9.25623
▁သူခိုး	-9.25697
▁သင်း	-9.26021
▁အာရှ	-9.26075
ရင်	-9.26107
▁အပြီး	-9.26118
▁ဦးဆောင်	-9.26186
▁လွမ်း	-9.26264
▁ရှာဖွေ	-9.26349
▁ဖြစ်ပွား	-9.26503
ူ	-9.26559
▁လစာ	-9.26639
ကလေး	-9.26749
▁ကြယ်	-9.27104
▁မိုင်	-9.27112
▁ဆင်းရဲ	-9.27133
▁ပင်ပန်း	-9.27332
လေ	-9.27456
▁ဖွဲ့စည်း	-9.27494
▁မန်ယူ	-9.2768
▁ထိန်း	-9.2768
▁ကြို	-9.27761
▁၅၀	-9.27823
▁ဥ	-9.27933
▁ကြီးမား	-9.28216
ကွင်း	-9.28234
m	-9.28252
▁မိတ်ဆွေ	-9.28332
▁S	-9.28463
▁အကောင့်	-9.28834
▁အခွန်	-9.28924
▁ထိပ်	-9.28936
မြင့်	-9.29011
▁ရှင်းလင်း	-9.29204
▁ဒေါသ	-9.29305
▁အတူတူ	-9.29369
ထောင်	-9.29388
▁မစ္စတာ	-9.29528
လွှတ်	-9.29824
▁19	-9.29914
▁သက်ရှိ	-9.30035
▁ဆောက်	-9.30062
နည်း	-9.30084
ဆာ	-9.30154
တော	-9.3034
▁အရာရှိ	-9.30432
▁ဦးစီးဌာန	-9.30695
▁ဒါပေမယ့်	-9.30729
▁ဂုဏ်	-9.30874
စီး	-9.30929
မ်း	-9.30975
▁ရောင်းချ	-9.30989
ချင်းချင်း	-9.31102
c	-9.31157
ပျက်	-9.31207
▁အားဖြင့်	-9.31224
▁ပျက်စီး	-9.31234
▁ကကျွန်း	-9.3142
ဗ	-9.31454
▁ဖောက်	-9.31691
▁ဒ	-9.31804
သုံး	-9.31844
▁အချက်အလက်	-9.31897
▁ဖိုး	-9.31902
▁အဓိပ္ပာယ်	-9.3207
▁ထင်ရှား	-9.32132
ခဏ	-9.32229
▁လီး	-9.32277
▁မှတ်ပုံတင်	-9.32417
▁လု	-9.32455
▁ပြည်တွင်း	-9.3263
ူး	-9.32708
မိ	-9.33048
▁ညာ	-9.33304
ရုံ	-9.33645
▁အရည်	-9.3368
▁အမျိုးအစား	-9.33817
▁စျေး	-9.3387
▁ကောင်မလေး	-9.33881
▁ချုပ်	-9.34126
▁မျှော်	-9.34177
▁အမျိုး	-9.34221
ေး	-9.34258
တံ	-9.34359
တိ	-9.34461
▁အနီ	-9.34492
▁အဆင်မ	-9.34568
▁ပြိုင်	-9.34662
▁သက်တမ်း	-9.34711
စပ်	-9.34729
စိန်	-9.34942
▁ခြံ	-9.35004
▁ခေါက်	-9.35125
ဗေဒ	-9.3517
n	-9.35218
▁တက်ရောက်	-9.35223
သစ်	-9.35248
▁စုံ	-9.35257
င့်	-9.35277
▁ဘွဲ့	-9.35484
▁ဝေ့	-9.35485
▁နည်းပညာ	-9.35531
▁အစည်းအဝေး	-9.35595
▁ကောင်းမွန်	-9.35757
▁ဆရာတော်	-9.35781
▁အုပ်	-9.35821
=	-9.35923
▁များ၊	-9.3593
▁သနည်း	-9.35986
▁ဓား	-9.36031
▁အသဲ	-9.36037
လဲ	-9.36403
▁ပုဒ်	-9.36656
ဖြင့်	-9.36769
ဆေး	-9.3682
▁ပြသ	-9.36845
▁ယခင်	-9.36865
▁ပုံမှန်	-9.36912
▁လူမှု	-9.37033
▁အေးချမ်း	-9.37054
တွင်း	-9.37168
စံ	-9.37586
▁ဆောင်း	-9.37658
▁ကြောင်း၊	-9.37758
▁စေတီ	-9.37821
▁သခင်	-9.3789
▁မမကစ်	-9.37921
သက်	-9.37999
▁တောင်းပန်	-9.38148
နု	-9.38209
ဝေး	-9.38346
လူ	-9.38383
ည	-9.38516
▁ဧရာဝတီ	-9.38692
▁ဥက္ကဋ္ဌ	-9.38694
r	-9.39056
▁အဝေး	-9.39113
▁ပြုစု	-9.39153
▁လင်	-9.39293
▁ပိုး	-9.39448
ခါ	-9.39457
▁အိပ်မက်	-9.39641
▁အားကျ	-9.39782
မေ	-9.39893
ထက်	-9.39903
▁အိမ်ထောင်	-9.39975
▁လက်တွေ့	-9.40038
▁မြင့်	-9.40231
ကောင်	-9.40246
▁ခုန်	-9.40528
▁ပေတလူ	-9.40559
▁အလို	-9.40696
▁COVID	-9.40937
▁ပုဒ်မ	-9.41038
▁ပင်လယ်	-9.41506
▁အခွင့်အရေး	-9.41532
▁နေကောင်း	-9.41684
▁မနက်ဖြန်	-9.41696
▁မေးမြန်း	-9.41706
▁သယ်	-9.41798
တို	-9.41847
ွ	-9.41852
လန်	-9.4189
တန်	-9.42074
ကုန်	-9.42137
▁ကိုလေး	-9.42203
အို	-9.42227
▁ညီလေး	-9.42245
▁စုစုပေါင်း	-9.4227
▁နည်းလမ်း	-9.42341
ဆန်	-9.42493
g	-9.42964
▁မနေ့	-9.43084
▁အလုပ်သမား	-9.43367
▁မြဲ	-9.43376
လောင်း	-9.43384
▁အံ့ဩ	-9.43429
▁ကုသ	-9.43509
▁နီ	-9.43524
ချို	-9.43614
▁ဇနီး	-9.43623
▁အူဝဲ	-9.43624
▁ရပ်တည်	-9.43844
▁သစ္စာ	-9.43868
ပြောင်း	-9.43883
b	-9.44022
တမ်း	-9.4405
▁ဝမ်း	-9.44073
▁လယ်	-9.44113
▁သဘောထား	-9.44114
▁ဝယ်ယူ	-9.4415
▁ရတနာ	-9.44173
၁	-9.4419
▁ပမာဏ	-9.44207
▁အာမခံ	-9.44209
▁အကြား	-9.44458
▁ဉာဏ်	-9.44541
ညီ	-9.44645
▁တီး	-9.44676
၂	-9.44771
▁လက်ထက်	-9.44869
▁ကဒ်	-9.44906
▁အကူအညီ	-9.44991
▁အထောက်အထား	-9.44991
▁အပင်	-9.45038
▁အညီ	-9.4508
k	-9.45265
၅	-9.45385
မြင်	-9.45414
▁ဗမာ	-9.45433
က္ခ	-9.45616
ဖ	-9.4577
▁တတိယ	-9.45785
▁အသုံး	-9.4591
▁ဥရောပ	-9.45981
▁အာရုံ	-9.45997
▁ဒါမှမဟုတ်	-9.46025
▁နေမင်း	-9.46043
▁😄	-9.46184
▁မွန်	-9.46219
▁မြို့တော်	-9.46246
▁နှစ်သက်	-9.46247
ar	-9.46553
▁မည်သူ	-9.46601
မူ	-9.4663
▁စိတ်ကူး	-9.46655
လွင်	-9.46725
▁သင်္ဘော	-9.46827
▁အဘိုးကြီး	-9.46836
▁ပု	-9.46972
▁အထဲ	-9.47004
▁ဆရာကြီး	-9.4708
▁အပေါင်း	-9.47128
▁အခက်အခဲ	-9.47183
▁ဥပမာ	-9.47187
▁ဝန်ကြီးချုပ်	-9.47407
▁အလိုက်	-9.47523
▁ကစ်ကစ်	-9.47591
ဆင်း	-9.47885
ဆီ	-9.47905
▁လှူဒါန်း	-9.47991
▁ပါဒ	-9.4819
▁ရင်ဆိုင်	-9.48195
သွား	-9.48226
▁ရှစ်	-9.48326
▁ဖမ်းဆီး	-9.48403
မြေ	-9.48543
▁မော	-9.48592
▁မှတ်တမ်း	-9.4862
▁တရားရုံး	-9.48625
မှု	-9.48866
▁လိမ်	-9.48891
▁စို့	-9.48969
▁ဝန်ဆောင်	-9.49115
▁နှင်း	-9.49154
▁အိမ်ရှင်	-9.49214
in	-9.49276
ရှား	-9.49427
▁ဗျို့	-9.49432
▁လိုက်နာ	-9.49455
▁အတု	-9.49601
▁စည်ပင်	-9.49636
▁ဖြူ	-9.49638
နား	-9.49971
▁ဗဟို	-9.50043
▁သေဒဏ်	-9.50074
ရစ်	-9.50149
▁ညွှန်ကြား	-9.50298
စုံ	-9.50405
ညို	-9.50477
▁သုံးသပ်	-9.50495
▁ဒဏ်	-9.50512
▁%	-9.50642
▁လေ့ကျင့်	-9.50661
▁ရည်းစား	-9.50667
▁ကြိုးပမ်း	-9.50668
▁F	-9.50708
▁P	-9.50743
လင်	-9.50853
▁ရေးဆွဲ	-9.50855
▁ခန်းမ	-9.50862
ဒ်	-9.50996
▁အများဆုံး	-9.51029
▁ဆီးဂိမ်း	-9.51084
▁ဖခင်	-9.51096
▁ယောင်	-9.51164
▁ပွင့်	-9.51199
၀၀၀	-9.51314
▁၁၀၀	-9.51413
▁သဲ	-9.51533
ကြေး	-9.51576
▁အရစ်ကျ	-9.51715
▁အနေအထား	-9.51715
▁အသေ	-9.51736
▁အနား	-9.51778
▁~	-9.51778
▁ပြည့်စုံ	-9.51799
▁အလှူ	-9.51824
ခိုင်	-9.52029
▁အစာ	-9.52034
ေ	-9.5209
▁အလကား	-9.52137
ဖြတ်	-9.52196
ဥ	-9.52222
သန်း	-9.52287
▁ဖ	-9.52388
▁ငှား	-9.52571
အား	-9.5267
▁ဒဏ်ရာ	-9.52824
▁နောက်ကျ	-9.52891
▁ကဏ္ဍ	-9.52896
▁ဆူ	-9.52994
or	-9.53005
▁:	-9.53029
▁ကမ်း	-9.53246
▁စုံစမ်း	-9.53419
ွေ	-9.53542
▁နှုတ်ခမ်း	-9.53828
▁စာမေးပွဲ	-9.5406
▁လိပ်စာ	-9.5408
▁သတ္တဝါ	-9.54198
၂၀၁၈	-9.5428
▁ဦးလေး	-9.54291
ချောင်း	-9.54414
နှစ်	-9.54435
သိန်း	-9.54475
▁စာရေးဆရာ	-9.54496
▁အကြိုက်ဆုံး	-9.54518
▁လက်ထပ်	-9.54549
▁၂၁	-9.54739
▁ပြည်ပ	-9.54803
▁ကုသိုလ်	-9.54927
▁ခရီးသွား	-9.54945
▁မစ္စ	-9.5497
▁အမိန့်	-9.55092
ပူ	-9.55245
▁G	-9.55262
မှတ်မိ	-9.55306
တိုး	-9.55359
▁ပိုင်ရှင်	-9.55606
▁၀၉	-9.55648
▁😏	-9.55804
▁နွေ	-9.55922
:	-9.56144
▁ငြိမ်း	-9.5631
▁ငွေကြေး	-9.56333
၀၀	-9.5646
▁အပိုင်း	-9.56502
▁အဖွဲ့ချုပ်	-9.56547
ရမ်း	-9.56704
▁အများစု	-9.56728
မျိုး	-9.56846
▁ထီး	-9.57266
▁နောက်ပိုင်း	-9.57271
▁၀	-9.57288
▁ဆုံ	-9.57379
▁အမှား	-9.57438
▁သို့ရ	-9.57441
▁ဦးနှောက်	-9.57573
▁ဗိုလ်	-9.57781
သီ	-9.57956
▁ဖာ	-9.5797
တ္တ	-9.58005
▁ထို့ကြောင့်	-9.58033
▁ကုန်း	-9.58036
▁အင်္ဂလန်	-9.58246
▁အောင်ဆန်း	-9.58382
ဇာ	-9.58405
▁ဦးထင်ကျော်	-9.58471
▁တီထွင်	-9.58472
▁သာသနာ	-9.58476
▁ရိုးရာ	-9.5852
▁ကစ်လေး	-9.58645
▁လက္ခဏာ	-9.58702
▁ခွဲခြား	-9.58713
▁နယ်မြေ	-9.58715
▁ကချင်	-9.59175
▁ပြောင်	-9.59302
ခင်း	-9.59345
▁😌	-9.59383
▁ထောက်	-9.59421
▁သုံးစွဲ	-9.59433
▁နို့	-9.59485
အိမ်	-9.5956
▁စီရင်	-9.59631
A	-9.59665
▁ရိုး	-9.59736
▁ဒီပါ	-9.59916
▁အကြောင်းအရာ	-9.60062
ဝတ်	-9.60258
le	-9.60294
▁ငယ်ငယ်	-9.60357
▁စာရေး	-9.60395
▁သားတော်	-9.60397
ုတ်	-9.6048
▁ဇာတ်လမ်း	-9.60538
▁မှန်ကန်	-9.60607
နှုန်း	-9.60637
သတ်	-9.60685
▁အနာဂတ်	-9.60752
▁ထူးခြား	-9.60756
ဖော်	-9.60839
▁•	-9.60904
ဿ	-9.61147
▁ဒီဇင်ဘာ	-9.61214
▁မင်းကြီး	-9.61392
နွယ်	-9.61465
▁သင်္ကြန်	-9.61472
▁မောင့်	-9.61504
▁ကော်ဖီ	-9.6168
▁အဆို	-9.6169
▁–	-9.61721
ရန်	-9.61765
ွတ်	-9.61831
▁ရာသီဥတု	-9.61912
▁အကြီး	-9.61928
▁ဖယ်	-9.61937
▁N	-9.62228
on	-9.62312
▁ကြောင်	-9.62532
▁ဇွန်	-9.62617
ိန်	-9.62809
ခဲ	-9.62932
ခွက်	-9.63041
▁ခြင်း၊	-9.63176
င	-9.63262
an	-9.63326
ပိုင်	-9.63487
▁အစားအစာ	-9.63559
▁နှုတ်	-9.63585
ကွဲ	-9.63647
▁ကြံ	-9.6365
▁ကိုရီးယား	-9.6366
▁ပို့ပေး	-9.63671
▁ချည်	-9.63984
▁ဘော	-9.64058
▁အားကိုး	-9.64103
▁နေ့စဉ်	-9.64136
▁ထွက်ခွာ	-9.64315
▁စပ်	-9.644
▁ကိုရိုနာ	-9.64513
▁ရုတ်တရက်	-9.64514
f	-9.64591
တုံး	-9.64904
▁ခေါ်ယူ	-9.64963
▁ခုနစ်	-9.65208
▁လူနာ	-9.65217
▁ပန်းချီ	-9.6522
▁ထပ်မံ	-9.65249
လွန်	-9.65265
▁ကိုစိုင်းစိုင်း	-9.65296
ဖျက်	-9.65301
▁E	-9.65335
▁မြ	-9.65355
တီး	-9.6554
▁ဖော်	-9.65627
▁ဝင်း	-9.6567
▁သုတ်	-9.65693
▁မြိုင်	-9.65839
▁ငြင်း	-9.65946
▁ထူး	-9.66123
▁ကြက်	-9.6619
▁👏	-9.66217
▁အားနည်း	-9.66371
ကိုင်	-9.66401
▁ဓမ္မ	-9.66496
ွန်	-9.66523
▁ဆာ	-9.66532
▁အရင်း	-9.66538
▁မိတ္တူ	-9.66692
▁အဆုံး	-9.66718
တင်း	-9.66824
▁ကျိုး	-9.66835
ရှည်	-9.66992
▁အကုန်လုံး	-9.66995
▁အလေး	-9.6703
▁တို	-9.67067
▁မက်	-9.67068
▁စိတ်ပျက်	-9.67092
▁အာဆင်နယ်	-9.67182
ဖန်	-9.67249
▁တစ်ခါ	-9.67254
▁အတင်း	-9.67325
▁ဒသမ	-9.67432
▁ဗိုက်	-9.67617
▁ရွေးကောက်ပွဲ	-9.6768
▁ချမ်းမင်း	-9.67687
▁ကွယ်လွန်	-9.67699
▁ပေါ်ပေါက်	-9.67706
▁အားရ	-9.67832
▁လျှပ်စစ်	-9.67923
▁လင်း	-9.67924
▁ပြုတ်	-9.67979
▁သာမန်	-9.68001
ကြိုဆို	-9.68014
▁မောင်လေး	-9.68066
မဲ့	-9.6807
▁အလင်း	-9.68086
ယံ	-9.68101
လစ်	-9.68178
▁အဖြူ	-9.68253
▁အဘွား	-9.68261
...	-9.68314
▁တကယ့်	-9.6867
သန်	-9.68795
▁အက်	-9.68803
▁ကျော်ဇ	-9.68842
▁K	-9.6885
ကုန်း	-9.68905
▁ဆုံးရှုံး	-9.68925
ငြိမ်း	-9.68944
▁နှုတ်ဆက်	-9.68944
▁၄၀	-9.68952
▁ဝိ	-9.69077
ဖြိုး	-9.69147
▁တဖြည်းဖြည်း	-9.69173
▁လွတ်မြောက်	-9.69183
လိုက်	-9.69243
▁၂၂	-9.69336
▁စာတမ်း	-9.69346
ဒို	-9.69383
▁အာကာသ	-9.6942
▁ရင်းနှီးမြှ	-9.69456
▁တိုက်ရိုက်	-9.69456
▁လူကြီးမင်း	-9.6948
▁တခါ	-9.69507
▁ခုံ	-9.69527
▁လုပ်ငန်းစဉ်	-9.69547
▁T	-9.6962
▁ဟိုတယ်	-9.69689
ကင်း	-9.69711
တရား	-9.69743
နက်	-9.69879
▁စောစော	-9.69941
▁အကြာ	-9.69942
▁ပေးအပ်	-9.70138
▁စားသောက်	-9.70202
▁မုန်း	-9.7025
ခက်ခဲ	-9.70259
▁အထင်	-9.70326
ဝန်	-9.70362
▁လေ့ကျင့်	-9.70423
▁s	-9.70463
သေ	-9.70675
▁ကျမ်း	-9.70691
နစ်	-9.7087
▁မဂ္ဂဇင်း	-9.70942
လှိုင်	-9.71084
▁စိန်	-9.7113
မှန်	-9.71173
▁ပဲခူး	-9.71198
▁လမ်းလျှောက်	-9.71266
▁အတွေ့အကြုံ	-9.71455
▁စော	-9.71586
▁နု	-9.71628
ပု	-9.71632
္	-9.71645
▁ခါး	-9.71649
နံ	-9.71706
▁ဖြစ်စဉ်	-9.71748
▁စိတ်ချ	-9.71874
▁ပရီးမီးယား	-9.71967
▁ဘေလ်	-9.71973
▁ယှဉ်	-9.71997
▁L	-9.71998
▁ရှုပ်	-9.72024
▁ဆိုလို	-9.72081
▁တောင်ကြီး	-9.721
သွေး	-9.72133
▁ဇန်နဝါရီ	-9.72228
▁လှည်း	-9.72254
နယ်	-9.72413
▁အသည်း	-9.72432
ဟာ	-9.72437
▁မူပိုင်ခွင့်	-9.72492
▁အမိန့်	-9.72498
▁ခံတပ်	-9.72552
▁ချီး	-9.72656
၄	-9.72735
▁ပြဌာန်း	-9.72746
တကျ	-9.72796
▁ဖိနပ်	-9.72837
▁ကိုးကွယ်	-9.73019
▁ခန္ဓာကိုယ်	-9.73269
▁ပြင်းထန်	-9.7327
▁အင်းဝ	-9.73391
မက်	-9.73437
▁၀၀၀	-9.7345
▁လေ့ကျင့်ခန်း	-9.73543
▁ဝတ်စုံ	-9.73561
▁ရင်းနှီး	-9.73655
▁အနည်းဆုံး	-9.73803
▁ဘာစီလိုနာ	-9.74055
▁ညှိနှိုင်း	-9.74056
ထူး	-9.74062
▁သကဲ့သို့	-9.74319
▁အဆောင်	-9.74384
▁ဖြည့်	-9.74673
▁တစ်ခါတစ်	-9.74863
▁ထို့ကြောင့်	-9.7487
ရို	-9.74962
▁သက်သက်	-9.74969
C	-9.75088
▁လိုင်စင်	-9.75115
အုပ်	-9.75141
▁ဖြည့်	-9.7517
▁ဘုရင်မင်းမြတ်	-9.75389
ယား	-9.75394
▁မျောက်	-9.75564
▁အဝတ်	-9.75569
▁ဧပြီ	-9.75649
▁ကျက်သရေ	-9.7565
▁တိရစ္ဆာန်	-9.75679
ပစ်	-9.75726
မွန်	-9.75734
▁ရာစု	-9.75741
▁လူထု	-9.75757
ပြည်	-9.75854
▁အိပ်ရာ	-9.75888
▁ငြိမ်	-9.75915
▁ဟံသာဝတီ	-9.75917
ပွား	-9.7597
စစ်	-9.76073
ဘီ	-9.76283
it	-9.76373
▁ပြောင်းရွှေ့	-9.76456
▁😪	-9.76465
▁လှုပ်	-9.76687
▁လိုလို	-9.76762
▁ကြမ်း	-9.76792
▁စစ်သည်	-9.76841
▁အရူး	-9.76905
▁စစ်ပွဲ	-9.76972
လွှာ	-9.77002
ရုပ်	-9.77055
▁အရသာ	-9.77117
▁ကောင်းကင်	-9.77153
ပိုး	-9.7717
▁စင်	-9.77236
ပို့	-9.77254
P	-9.77294
▁ကကျွမ်းကျင်	-9.77542
▁မလေးရှား	-9.77543
ိုက်	-9.7756
▁ထိုက်	-9.77578
ဘတ်	-9.77671
▁တွန်း	-9.77727
▁အကြောင်းကြား	-9.77906
▁အနေ	-9.77976
▁ကယ်	-9.78124
ကူး	-9.78174
▁အခွင့်အရေး	-9.78363
▁စကြဝဠာ	-9.78408
ဓ	-9.78474
▁တစ်လျှောက်	-9.78578
▁H	-9.78594
▁သက်သေ	-9.78594
▁စာဖတ်	-9.78674
▁မြတ်	-9.78689
▁ပွဲတော်	-9.78836
▁ရဟန်း	-9.78916
ထပ်	-9.7898
▁ဖြုတ်	-9.79013
ီး	-9.79111
▁အခမ်းအနား	-9.79192
ဝိုင်း	-9.79252
▁ခတ်	-9.79732
▁သတဲ့	-9.79763
▁တင်သွင်း	-9.79957
▁ပြေ	-9.80093
▁တည်ငြိမ်	-9.80317
▁အရှင်	-9.80357
▁ညီညွတ်	-9.80369
ကျောင်း	-9.80381
▁ရေခဲ	-9.80471
▁ဖြေဆို	-9.80484
▁၂၄	-9.80587
ါ	-9.80603
▁ခံယူ	-9.80614
▁တအား	-9.80674
▁ဝင်ငွေ	-9.80793
ဇင်	-9.80808
▁ဇ	-9.80843
▁စိစစ်	-9.8087
ှ	-9.80902
▁ညို	-9.80941
▁အံ့	-9.81041
▁ရလဒ်	-9.81153
သောင်း	-9.81163
▁ခွင့်ပြု	-9.81196
▁အင်မတန်	-9.81437
▁တိုက်စစ်မှူး	-9.81726
▁😀	-9.8173
▁ဖြတ်သန်း	-9.8175
▁စံ	-9.81824
▁ချိုး	-9.81906
▁လင်္ကာဒီပ	-9.82005
▁❤️	-9.82012
en	-9.82097
D	-9.82273
▁ထု	-9.82326
▁အသိပေး	-9.8234
စိုင်း	-9.82354
ri	-9.82363
▁ရွာသား	-9.82437
ခြောက်	-9.82442
ဦးရေ	-9.82462
▁စရိတ်	-9.82511
▁ဖျက်ဆီး	-9.8258
▁အတည်ပြု	-9.82588
▁ကြည့်ရှု	-9.82608
▁မူလ	-9.82628
ရိပ်	-9.82634
▁ခဲ	-9.82771
▁အရေအတွက်	-9.82864
ဋ္ဌ	-9.82866
▁ထောက်ခံစာ	-9.82938
▁ပြား	-9.8299
လံ	-9.83081
ဆိုး	-9.8343
▁အပြုံး	-9.8348
▁ကျား	-9.83581
▁လိုက်ဖက်	-9.83625
▁ဘေးအန္တရာယ်	-9.83731
▁အသေးစိတ်	-9.83733
▁စစ်ကိုင်း	-9.83748
ပြော	-9.83833
▁စည်း	-9.83907
ခိုင်လုံ	-9.83997
▁အပူ	-9.84017
▁အမှိုက်	-9.84022
▁အဆက်	-9.8406
▁မူး	-9.84066
▁လက်မခံ	-9.84075
▁သောင်း	-9.84081
▁အရည်အချင်း	-9.8411
▁တဲ	-9.84474
▁ချိတ်	-9.84477
ဂျ	-9.84563
▁ထောက်ပံ့	-9.84607
▁စစ်သား	-9.84774
▁အပို	-9.84797
▁ဧက	-9.84871
▁နယ်စပ်	-9.84926
▁နီးပါး	-9.8493
▁ဟီး	-9.84952
▁ဖုံး	-9.84994
ကြွ	-9.84995
▁ရာထူး	-9.85048
ပီ	-9.85158
▁မော်လမြိုင်	-9.85193
▁နံရံ	-9.852
▁အသီးသီး	-9.852
▁စမ်းသပ်	-9.85207
▁ဆောက်လုပ်	-9.85211
▁စိတ်ချမ်းသာ	-9.85216
▁သတင်းထောက်	-9.85218
▁ဆေးလိပ်	-9.85218
လုံ	-9.85394
တည်	-9.85399
▁ကိုယ်စား	-9.85536
▁သီတာဒေဝီ	-9.85785
▁နှင်းဆီ	-9.85805
▁ဂီတ	-9.85828
▁ဟောင်	-9.85831
▁အူ	-9.85849
▁ငေး	-9.85875
တု	-9.86125
ယောင်	-9.8613
▁မြေကွက်	-9.86153
▁တိမ်	-9.86281
▁ရှေ့နေ	-9.86283
ကြည့်	-9.86573
▁ဝဲ	-9.8659
▁မြို့နယ်၊	-9.86631
▁ဘုန်းကြီး	-9.86677
▁မိတ်ကပ်	-9.86682
ဖွယ်	-9.86723
re	-9.86801
▁ဆန်း	-9.86803
▁တခု	-9.8704
▁ပျောက်ဆုံး	-9.87184
▁ကော်မရှင်	-9.87277
▁ထိန်းချုပ်	-9.873
▁လောင်း	-9.87348
တကွ	-9.87364
▁အကောင်	-9.87562
▁သရေ	-9.87574
▁ဗ	-9.87868
ဇော်	-9.87872
▁ဦးချက်ဖောင်း	-9.8788
ကူ	-9.87903
အပြား	-9.87916
▁လမ်းမ	-9.87923
▁ဒေါ်စု	-9.87945
▁ခုတ်	-9.88147
▁နှမ	-9.88149
စဝ်နေဗလ	-9.88183
▁သတ္တိ	-9.88201
▁အမှန်တရား	-9.88213
▁ထုတ်ဝေ	-9.88331
▁အစစ်	-9.88505
▁♥	-9.88521
h	-9.88621
ဒဏ်	-9.88644
▁ကကျွန်	-9.88725
▁စာသား	-9.88772
▁တိုက်တွန်း	-9.89106
▁နိုး	-9.89122
▁၂၃	-9.89134
နို	-9.89161
▁ဆား	-9.89192
စည်း	-9.89247
အိတ်	-9.89257
▁အုတ်	-9.89282
▁ရွက်	-9.8929
နောင်	-9.89299
အသွေး	-9.89358
▁ဖွဲ့စည်းပုံ	-9.89428
▁မျက်	-9.89719
at	-9.89723
▁၂၇	-9.89781
ပျော်	-9.89799
ဆန်း	-9.899
▁ဘိဘိသန	-9.90021
▁သေသေချာချာ	-9.90021
▁ဩဂုတ်	-9.90021
▁တရားသူကြီး	-9.90022
စိ	-9.90052
▁ထွက်ပြေး	-9.90079
တွေ့	-9.90329
▁စတိုး	-9.90454
▁သီလ	-9.90465
T	-9.90492
▁ယ	-9.90635
▁လက်ရွေးစင်	-9.90641
▁သမိန်စက္ကဝ	-9.90641
▁အရောင်းအဝယ်	-9.90641
ချီ	-9.90658
▁ဖျား	-9.90673
▁တောက်	-9.90689
ရိုက်	-9.90807
▁လိပ်	-9.90812
ဆွေ	-9.91013
▁ဆုံးမ	-9.91023
▁အကျင့်	-9.91062
▁ခြေထောက်	-9.91276
▁....	-9.91463
▁သူဌေး	-9.9151
၈	-9.91562
▁မျှော်လင့်	-9.91579
▁ခင်း	-9.91603
ဆိုင်း	-9.91924
▁လုပ်ငန်းရှင်	-9.92031
▁အင်	-9.92098
▁ဆင့်	-9.92122
▁လုပ်ရပ်	-9.92126
▁အခြေ	-9.92199
▁ရိုးရိုး	-9.92224
▁ကရင်	-9.92226
▁အပြော	-9.92262
▁အရေးပါ	-9.92352
ရွက်	-9.92443
ဟန်	-9.92581
et	-9.92622
▁အစိမ်း	-9.92654
▁ဂူ	-9.92705
ဗာ	-9.92748
▁တူညီ	-9.92759
▁ပြည်သူလူထု	-9.92842
▁သဘောပေါက်	-9.92919
▁သဘင်	-9.93005
လပ်	-9.93037
ကြပ်	-9.93233
▁ကျယ်	-9.93234
E	-9.93308
ိုင်	-9.93315
▁နို	-9.93353
ကိုယ်	-9.93423
▁ထပ်တူ	-9.93488
▁နှုတ်ခမ်းနီ	-9.93511
▁ကူ	-9.93561
▁အဆောက်အအုံ	-9.93801
▁ဒါပေမယ်	-9.93802
▁အိုင်ရင်း	-9.93806
▁စက်ရုံ	-9.93828
▁ဘာသာပြန်	-9.93871
ပြင်း	-9.93938
▁မုန့်	-9.93955
v	-9.93962
▁နှင့်အတူ	-9.94123
▁မြင့်	-9.94146
▁တည်ထောင်	-9.94169
▁နေအိမ်	-9.9424
ဆစ်	-9.94264
▁အကြမ်းဖက်	-9.94449
▁စပိန်	-9.9446
▁စွမ်း	-9.94557
▁နှစ်သစ်	-9.94564
▁ဖန်	-9.94604
▁ကျော	-9.94661
ျာ	-9.94683
▁ရုရှား	-9.94769
▁သူတောင်းစား	-9.94769
▁အကောင်အထည်ဖော်	-9.94769
▁ချို	-9.94778
▁ဘာသာစကား	-9.94782
▁အကောင်း	-9.94786
▁ဆောင်းပါး	-9.94796
▁ကျေ	-9.94987
▁အစော	-9.94992
ယု	-9.95004
▁😅	-9.95109
▁၂၀၀	-9.95143
▁ဂရုမ	-9.95182
ဆွဲ	-9.95305
▁စင်း	-9.95437
▁သတိပေး	-9.95472
▁နိန္ဒ	-9.9575
▁၂၆	-9.95814
ခေါင်း	-9.9589
▁အစဉ်	-9.95937
▁ဗြိတိသျှ	-9.96074
▁ရိုးသား	-9.96144
▁သွားလာ	-9.9617
▁တရားခံ	-9.96199
မောက်	-9.96316
▁လောလော	-9.96405
ူတည်	-9.96685
ic	-9.96716
▁ကု	-9.96722
ုံ	-9.96741
▁မက်ဆီ	-9.96744
ယှက်	-9.96802
▁လိုး	-9.97031
▁အဝတ်အစား	-9.97064
▁သိက္ခာ	-9.97064
▁ကြေကွဲ	-9.97066
▁ခရီးသည်	-9.97111
ချော	-9.97166
▁ကောင်လေး	-9.97185
▁အပြည့်	-9.97235
ား	-9.97393
အောင်ဆန်းစုကြည်	-9.97396
▁ကျင့်	-9.97411
နပ်	-9.9743
တွဲ	-9.97448
▁အရှိန်	-9.97532
သင်	-9.97622
ဏ	-9.97688
▁အဖို့	-9.97754
▁ဥယျာဉ်	-9.97837
▁လီ	-9.98001
▁မြွေ	-9.98074
▁စာရွက်	-9.9813
ကဲ	-9.98269
▁ပေးပို့	-9.98313
▁နောက်ပြီး	-9.98428
O	-9.98614
▁အတန်း	-9.98618
▁ဖြန့်	-9.98736
▁နေနေ	-9.98804
စေ့	-9.98871
▁ခိုက်	-9.99059
▁မန်စီးတီး	-9.99074
▁ဆင်ခြင်	-9.99077
▁of	-9.99092
ကွယ်	-9.99101
▁ဟဲ့	-9.99172
▁သစ်တော	-9.99247
▁အသွင်	-9.99257
▁မယား	-9.99347
ကမ်း	-9.99395
▁ဘဏ္ဍာ	-9.99413
▁ကျူးလွန်	-9.99418
▁သေနတ်	-9.99435
N	-9.99444
▁တစ်စုံတစ်ရာ	-9.99446
▁ခရီးစဉ်	-9.99487
▁ဆက်စပ်	-9.99494
th	-9.99528
▁အရိုး	-9.99532
▁ရိုင်း	-9.99666
▁သာမက	-9.99754
▁ရာဇဝတ်	-9.99759
R	-9.99802
▁မြို့ပြ	-9.99835
ပို	-9.99868
▁ဝန်	-9.99884
▁၅၀၀	-10.0006
▁ဘုံ	-10.0007
▁နက္ခတ္တရာယ	-10.0009
မွေး	-10.0011
▁ဖွတ်	-10.0025
▁ကိုနေ	-10.0027
ဝဝ	-10.0031
စ္စ	-10.0033
တောင်း	-10.0037
▁ကံစမ်း	-10.0044
▁ရှေးဟောင်း	-10.0044
▁အရှေ့တောင်	-10.0047
▁ရဲမက်	-10.0049
▁စိတ်ထား	-10.0054
ရက်	-10.0065
'	-10.0069
့ပြင်	-10.007
▁စောက်ရူး	-10.008
▁နှလုံးသား	-10.0089
▁အိုင်	-10.0097
ထည်	-10.0103
▁ပြာ	-10.0107
▁😎	-10.0113
▁မီးလောင်	-10.0115
ch	-10.0115
▁သင်ယူ	-10.0142
▁ပုသိမ်	-10.0147
▁စော်ကား	-10.0148
▁လက်ရာ	-10.0155
▁p	-10.0174
ပိတ်	-10.0175
▁ဘတ်စ်ကား	-10.0182
ခေါင်	-10.0186
▁အထက်တန်း	-10.0188
▁များများ	-10.0193
လား	-10.0206
▁ကြွ	-10.021
▁ချမ်းမြေ့	-10.0217
▁အင်ဒိုနီးရှား	-10.0217
မောင်း	-10.0218
▁အင်္ဂါ	-10.0221
ဖျား	-10.0222
ဝိုက်	-10.0227
▁အဆီ	-10.0233
၃	-10.0242
▁မြား	-10.0246
▁မော်	-10.025
မီး	-10.0251
▁ကံစမ်းမဲ	-10.0252
ကြိုး	-10.0253
I	-10.0269
▁ရင်ခုန်	-10.0272
▁ကတိ	-10.0281
ဒေါ	-10.0285
▁ဗီဒီယို	-10.0287
▁သမင်	-10.0298
တုန်း	-10.0302
သမီး	-10.0303
▁တစ်ဆင့်	-10.0311
၇	-10.0317
လုံလောက်	-10.0322
▁ဗီယက်နမ်	-10.0322
▁အထွေထွေ	-10.0322
တေ	-10.0324
ရိ	-10.0325
သိ	-10.0325
ပေါ်	-10.0332
▁ဘုန်း	-10.0339
▁စောင့်ရှောက်	-10.0358
▁လုပ်ငန်းခွင်	-10.036
▁ထိုစဉ်	-10.0368
▁တိုင်ပင်	-10.0369
▁အရိပ်	-10.0374
▁တပ်ဖွဲ့	-10.0375
မယ်	-10.0377
ခြေ	-10.0385
▁ကျောင်းသူ	-10.0394
▁ငတ်	-10.0404
▁သုတေသန	-10.041
▁ချစ်ခင်	-10.0417
အိုး	-10.0427
▁ကွန်ပျူတာ	-10.0428
ချာ	-10.0443
▁အဝ	-10.0452
▁အီ	-10.0459
ရှင်း	-10.046
▁တင်း	-10.0465
▁ကွက်	-10.0492
▁ခန့်မှန်း	-10.05
▁လက်မ	-10.0507
▁၆၀	-10.0524
ဉာဏ	-10.0528
▁ဦးရီးတော်	-10.0536
▁''	-10.0538
▁ထွန်း	-10.0557
လွတ်	-10.0557
▁ရှား	-10.0559
မြောက်	-10.0561
▁ယာ	-10.0564
စည်	-10.0567
▁လီဗာပူးလ်	-10.0573
▁စိတ်ညစ်	-10.0575
ရှိန်	-10.0589
ra	-10.0597
ဂါ	-10.0601
ချစ်	-10.0602
▁တနင်္ဂနွေ	-10.0608
▁ဖွင့်လှစ်	-10.0608
▁စက်မှု	-10.0611
▁O	-10.0616
▁ဝန်းကျင်	-10.0617
▁မမမြ	-10.0618
ခွင့်	-10.0624
များ	-10.0625
▁ဆပ်	-10.0626
▁ချန်	-10.0629
▁သူငယ်	-10.0631
စိမ်း	-10.0632
ဲ	-10.0641
▁အားနာ	-10.0642
ation	-10.0644
▁အနာ	-10.0645
▁အန်တီ	-10.0646
▁ကုန်သွယ်	-10.0647
▁ကြည့်ရှု	-10.0656
က်ညီ	-10.0663
▁နင်း	-10.0664
ဂန်	-10.0665
လောက်	-10.0677
▁ဦးဗြားကြီး	-10.0681
▁သု	-10.0683
▁မြင်ကွင်း	-10.0696
▁ကြည်နူး	-10.0718
▁😉	-10.0719
မျှော်	-10.0722
▁ပျံ	-10.0731
▁ထွက်သွား	-10.0732
ခြား	-10.0733
▁ရာမ	-10.0735
▁ဆည်	-10.0744
▁လျှို့ဝှက်	-10.0754
▁ဆီး	-10.0758
မကျ	-10.0762
▁ဈေးကွက်	-10.0762
▁စိတ်ပူ	-10.0772
ကျယ်	-10.0775
▁ချီးကျူး	-10.0792
▁အပူချိန်	-10.0793
▁😡	-10.0793
▁အစွမ်း	-10.0802
ရယ်	-10.0806
ဖူး	-10.081
အာ	-10.081
▁ဂျ	-10.0812
ကွန်း	-10.0817
▁အရုပ်	-10.0819
ဝါး	-10.0829
▁ပူဇော်	-10.083
ur	-10.0834
▁အဘယ်	-10.0835
▁လောင်	-10.0836
▁ခွင့်ပြု	-10.0839
ကျပ်	-10.0849
မွှေး	-10.0851
ခု	-10.0854
▁စနေ	-10.0865
▁ပိုက်	-10.0865
▁တစ်ဖက်	-10.0866
▁စောင့်ကြည့်	-10.0876
▁အစုံ	-10.0877
ကြာ	-10.088
▁ကျင့်	-10.0897
▁ထောက်လှမ်း	-10.0903
▁ခြေစွမ်း	-10.0904
▁ပေါက်ကွဲ	-10.0909
▁သမ္မတကြီး	-10.0916
▁ချွေး	-10.0921
▁နောက်ခံ	-10.0925
ချေ	-10.0926
▁သားလေး	-10.0929
▁မြှောက်	-10.0931
▁ခြင်္သေ့	-10.094
တပ်	-10.0958
▁လှည့်	-10.0962
▁မမမြတ်	-10.0963
▁လွှင့်	-10.0969
လျ	-10.0981
▁ကွဲပြား	-10.0982
နင်း	-10.0986
▁ပီ	-10.0988
▁၀၁	-10.0996
▁ပန်	-10.1011
▁😔	-10.1016
▁ဒုံး	-10.1024
▁အတတ်	-10.1027
▁ရပ်ကွက်၊	-10.1029
▁တုန်	-10.1032
▁ကျက်	-10.1039
▁ကိုအောင်	-10.1044
▁များပြား	-10.1048
▁ဖောင်း	-10.1053
▁သနပ်ခါး	-10.1054
▁မှတ်ချက်	-10.1061
▁အားကစားသမား	-10.1062
▁ဓာတု	-10.1064
▁အရှက်	-10.1065
▁ဆွေးနွေးပွဲ	-10.1066
▁ဆုတ်	-10.1067
▁ကြည်	-10.1078
▁ပယ်	-10.1082
L	-10.109
▁အလျင်	-10.1092
▁ဂုဏ်ပြု	-10.1095
ခ်	-10.1102
▁လိုလား	-10.1119
▁တစ်သက်	-10.1125
▁ဝေဒနာ	-10.113
▁ဂျာနယ်	-10.113
▁ကျန်ရစ်	-10.1132
ရိုင်း	-10.1139
သင်း	-10.1141
က္က	-10.1142
▁မြို့၊	-10.1143
▁U	-10.1147
▁မိတနော်	-10.1168
▁အီတလီ	-10.1168
▁ရသေ့	-10.1168
▁ဆွမ်း	-10.1169
▁R	-10.1173
မို	-10.1182
▁ဂျင်း	-10.1183
▁ကုလသမဂ္ဂ	-10.1207
▁လည်ပတ်	-10.121
စော	-10.1236
▁ဘဲကြီး	-10.1243
စိတ်	-10.1244
▁သန့်ရှင်း	-10.1245
▁ကွင်းလယ်	-10.1246
▁မကွေး	-10.1254
▁၀၀၁	-10.1265
လယ်	-10.1276
ို	-10.1279
▁စိမ်း	-10.128
▁ကြုံတွေ	-10.1281
▁ဝန်ခံ	-10.1287
▁တုံး	-10.1289
▁ဦးအောင်	-10.1289
ကု	-10.1291
▁b	-10.1304
ဝန်း	-10.1307
el	-10.132
ဆု	-10.1325
▁ဘစိုင်း	-10.1325
▁စွမ်းဆောင်	-10.1326
မ္မ	-10.1336
ယို	-10.1337
ဘွား	-10.1346
▁မောင်မောင်	-10.1349
▁W	-10.1349
မျက်နှာ	-10.1364
▁အသုံးချ	-10.1368
ဂီ	-10.1368
▁ပုံလွှာ	-10.1373
▁ပို့ဆောင်	-10.1378
▁ချိန်း	-10.1382
▁မြတ်နိုး	-10.1385
▁ချယ်လ်ဆီး	-10.1401
▁သခင်မ	-10.141
မော်	-10.1412
ကြောင့်	-10.1413
▁ကောင်မ	-10.1419
▁ကောင်စီ	-10.142
▁ညီတော်	-10.1422
၀၁၇	-10.1436
▁လော	-10.1437
▁ဖြေကြား	-10.1447
ဖိုး	-10.146
ဂို	-10.1463
▁ခွာ	-10.1469
▁မွေးမြူ	-10.1481
▁စုဆောင်း	-10.1482
▁စက္ကူ	-10.1484
▁ကြိတ်	-10.149
▁အလင်းရောင်	-10.15
▁၂၉	-10.1501
ပေ	-10.1504
▁ရက်စက်	-10.1504
▁ဒေါင်း	-10.151
နောက်	-10.1519
၅၀	-10.1519
မတ်	-10.152
▁မွေးဖွား	-10.1521
▁လွယ်ကူ	-10.1521
ဝယ်	-10.1527
▁နက်	-10.1531
▁အတွဲ	-10.1536
စွဲ	-10.1545
▁စုပေါင်း	-10.1545
▁၂၈	-10.1546
▁ကုန်သည်	-10.155
န္တ	-10.1555
▁လက်ဖက်ရည်	-10.1559
▁သရက်	-10.156
▁ထူးဆန်း	-10.156
▁ညည်း	-10.1563
▁ခွင့်လွှတ်	-10.1565
▁အေးဆေး	-10.1567
▁ပိန်	-10.1572
▁ဟေ	-10.1597
▁ခွေ	-10.1599
▁အသိအမှတ်	-10.1599
▁စင်ကာပူ	-10.1599
▁ခြုံ	-10.1602
▁လယ်သမား	-10.1603
▁သက်ရောက်	-10.1606
ထိရောက်	-10.1607
▁မှတ်ထား	-10.1614
▁ပြောပြော	-10.1616
ed	-10.1626
▁ရော့	-10.1632
င်းရှင်း	-10.1633
▁ထိုင်ခုံ	-10.1642
▁ခကျွတ်	-10.1654
▁J	-10.1655
ဖို	-10.1665
▁သံဃာ	-10.1675
ro	-10.1675
il	-10.1703
သေး	-10.1715
▁စာကြည့်တိုက်	-10.172
▁သူရဲကောင်း	-10.172
▁ဖော်ထုတ်	-10.1722
▁သရဲ	-10.1729
လု	-10.1745
▁မိဖုရား	-10.1745
▁ရွံ	-10.1745
ကိုး	-10.1747
ကောက်	-10.1748
▁ပွင့်	-10.1752
ကျက်	-10.176
▁စွန့်	-10.1761
▁----	-10.1761
▁သောကြာ	-10.1764
us	-10.1781
M	-10.1782
ကျင်း	-10.1793
မင်	-10.1795
▁ဦးစားပေး	-10.1802
ရွှင်	-10.1803
ဇီ	-10.1808
မော	-10.181
ပြာ	-10.1815
▁D	-10.182
▁အနှစ်	-10.1827
ညာ	-10.1828
▁ထားဝယ်	-10.184
▁အကွက်	-10.1841
▁ဖိလစ်ပိုင်	-10.1843
▁လော့	-10.1843
▁ရဲစခန်း	-10.1844
▁ပခုံး	-10.1844
▁ဦးတည်	-10.1862
▁သမီးလေး	-10.1875
ကျင့်	-10.1881
▁ခရိုအေးရှား	-10.1884
▁ဧရိယာ	-10.1884
▁တားဆီး	-10.1884
▁ကိုကိုကျော်	-10.1894
▁I	-10.1898
▁ဦးကျော်	-10.1899
▁ဘတ်	-10.1912
▁ရာဇ	-10.1917
▁မယ်တော်	-10.1924
▁ဗြိတိန်	-10.1925
▁သီအိုရီ	-10.1925
▁🙏	-10.1926
▁💕	-10.1926
▁နာကျင်	-10.1928
▁ကာတွန်း	-10.1928
▁ရှု	-10.1939
is	-10.1956
▁မော့	-10.1958
▁ဒု	-10.196
▁သတည်း	-10.1975
▁အန်	-10.2001
▁ဒိုင်	-10.2009
▁ပြီးစီး	-10.2017
▁ထွက်ပေါ်	-10.2018
ဘူး	-10.203
▁စိတ်မ	-10.2033
▁ပုဂ္ဂလိက	-10.205
▁အစားအသောက်	-10.205
▁💦	-10.2051
▁သီးခြား	-10.2051
▁လမ်းညွှန်	-10.2052
ပြိုင်	-10.2058
ကင်	-10.2068
▁ဝါဒ	-10.2076
ကျင်	-10.208
ရွယ်	-10.2085
▁အဓိပ္ပါယ်	-10.2091
▁သင်ခန်းစာ	-10.2092
▁လက်အောက်	-10.2096
▁အဆိုတော်	-10.2103
▁ထူ	-10.2107
▁ဘိ	-10.2109
▁အပြာ	-10.2113
ဆရာ	-10.2113
▁ဂိတ်	-10.2119
ရှ	-10.2119
ကွာ	-10.213
▁ပီတိ	-10.2136
မျှ	-10.214
၂၀	-10.2143
▁တိတ်	-10.2152
ဌေး	-10.2164
▁ဗဟုသုတ	-10.2177
▁ခြေလှမ်း	-10.2178
▁ဟာသ	-10.2179
es	-10.2184
▁စသော	-10.2186
▁အေအေ	-10.2195
um	-10.2195
▁မျိုးစုံ	-10.22
▁ကော်	-10.2207
▁လာဘ်	-10.222
▁အမူအရာ	-10.222
▁တော်လှန်	-10.2223
z	-10.2237
ိန်း	-10.2252
▁ဆွတ်ခူး	-10.2262
▁ဘီဘီစီ	-10.2262
▁ဆွေမျိုး	-10.2263
▁😛	-10.2263
▁သိသာ	-10.2263
ad	-10.2266
▁တရားစွဲ	-10.2268
ဘော	-10.2269
▁ထုတ်ဖော်	-10.2272
မြှောက်	-10.2272
နှင်း	-10.2276
▁ကျော်ကြား	-10.2276
့မြင်	-10.2298
st	-10.2303
▁ထီ	-10.2304
▁ရစ်	-10.2317
▁စိတ်ဆိုး	-10.2321
▁ကျဆင်း	-10.2329
▁ဦးခေါင်း	-10.2336
▁ကွန်	-10.2353
ွဲ	-10.2355
▁တိကျ	-10.2356
▁အတိတ်	-10.2361
ပန်	-10.2363
om	-10.2381
▁ရည်မှန်း	-10.2392
ယမ်း	-10.2394
▁ဖိတ်	-10.2396
▁တွက်ချက်	-10.2398
▁အကြီးဆုံး	-10.2403
ငြိမ်သက်	-10.2408
▁အရောက်	-10.2411
ွန်း	-10.2415
▁ဖြစ်ရပ်	-10.2416
နန်း	-10.2421
▁ရဲတပ်ဖွဲ့	-10.2433
▁ဥက္ကဌ	-10.2435
▁ဖေ	-10.2436
▁ကိုင်တွယ်	-10.2436
▁ပန်းကန်	-10.2442
▁ကန်တော့	-10.2444
▁သော်လည်းကောင်း	-10.2447
▁အလား	-10.2448
▁တူတူ	-10.2449
ent	-10.2453
ဂိုး	-10.2455
▁အဆိပ်	-10.246
ပြေး	-10.2461
ဓာတ်	-10.2474
▁စွမ်းအင်	-10.2479
ထိပ်	-10.2479
▁AA	-10.2481
မန်	-10.249
▁အိမ်သာ	-10.2491
▁အမိ	-10.2491
▁ကုန်ကျ	-10.2496
▁မှတ်သား	-10.2502
စွာ	-10.2507
▁ထောင့်	-10.2508
နိ	-10.2512
▁မိန့်	-10.2514
ကြောင့်	-10.2519
▁မူဝါဒ	-10.2523
ောင့်	-10.2528
▁အရှုံး	-10.2529
▁ပြီးဆုံး	-10.2538
သော်လည်း	-10.2539
w	-10.2542
မြဲ	-10.2554
▁ဝါသနာ	-10.2564
▁သံသယ	-10.2567
▁မူးယစ်ဆေးဝါး	-10.2567
▁😙	-10.2567
▁ထုံးစံ	-10.2567
▁ပျောက်ကွယ်	-10.2569
▁အတည်	-10.2574
▁ညှပ်	-10.2585
နန်	-10.2592
ခမ်း	-10.2598
▁အင်တာနက်	-10.2611
▁ပြစ်ဒဏ်	-10.2611
▁ယား	-10.2615
▁လယ်ယာ	-10.2615
▁m	-10.2618
▁မြေပြင်	-10.2626
၃၀	-10.263
▁တောင်သူ	-10.2642
ခြမ်း	-10.265
▁နတ်သမီး	-10.2657
▁ဟိုး	-10.266
un	-10.2661
1	-10.2662
သော	-10.2683
ဓမ္မ	-10.269
▁စာနာ	-10.2697
▁ပိတ်ဆို့	-10.27
▁ဘီလီယံ	-10.27
▁မာန	-10.27
▁သိမ်းဆည်း	-10.2701
▁စားသောက်ဆိုင်	-10.2702
▁မန့်	-10.2703
ရော	-10.2704
မှ	-10.2707
▁နှစ်စဉ်	-10.2708
မှောက်	-10.2713
▁စေတီတော်	-10.2714
▁ဘီ	-10.2716
▁နေ့လယ်	-10.2722
ဝင်ဘာ	-10.2722
သုတ်	-10.2723
▁ပုံပြင်	-10.2733
▁တစ်ဝက်	-10.2741
▁ဖား	-10.2741
▁ဒူး	-10.2742
▁သည်းခံ	-10.2746
ရှောင်	-10.2759
ul	-10.2765
▁မြည်	-10.2781
▁ညောင်	-10.2786
▁နေမကောင်း	-10.2787
▁ဝမ်းမြောက်	-10.2791
▁ပြို	-10.2793
▁စောင်း	-10.2802
ကြမ်း	-10.2808
ချမ်း	-10.2829
▁ပြဇာတ်	-10.2831
▁အစိတ်အပိုင်း	-10.2835
▁😆	-10.2835
▁ကိုယ်ချင်းစာ	-10.2836
ပဲ	-10.2837
▁ရာဇဝင်	-10.2839
ဟင်း	-10.2843
သိမ်း	-10.2846
▁အနားယူ	-10.2846
▁အမြင့်	-10.2861
မကြီး	-10.2872
▁အသင့်	-10.2872
▁အပျော်	-10.2873
ဃုပတိ	-10.2881
▁တောင်ငူ	-10.2881
ဝဲ	-10.2882
▁ကကျွတ်	-10.2885
▁လမ်းဘေး	-10.2885
▁ခို	-10.2892
▁ဘီး	-10.2892
▁ဟဟ	-10.2895
▁တစ်ရာ	-10.2902
ဂျီ	-10.291
▁အမြတ်	-10.291
ဝါရီ	-10.291
▁ကိုတိုး	-10.2911
▁Ch	-10.2915
▁အရာရာ	-10.2915
တတ်	-10.2922
▁နီးစပ်	-10.2924
▁ချယ်ရီ	-10.2926
▁စက်တင်ဘာ	-10.2926
▁အတိုင်ပင်ခံ	-10.2926
▁အောက်တိုဘာ	-10.2926
▁အဖြစ်အပျက်	-10.2926
▁မနာလို	-10.2926
ရူး	-10.2928
▁f	-10.2928
▁ရွတ်ဆို	-10.293
▁အနံ့	-10.2934
▁လွင့်	-10.2957
တ္တာ	-10.2968
▁တုံ့ပြန်	-10.2972
▁ဒါရိုက်တာ	-10.2972
▁စောင့်ရှောက်	-10.2973
▁နစ်နာ	-10.2974
ဝိ	-10.2977
မှား	-10.2978
ဖွဲ့	-10.2981
ပယ်	-10.2987
..	-10.2996
သခင်	-10.3
▁ပွား	-10.301
ထိုင်	-10.3011
▁အကုသိုလ်	-10.3018
▁အမှတ်တရ	-10.3021
▁ပန်းချီကျော်	-10.3022
ပြည့်	-10.3028
လိပ်	-10.3029
▁အပတ်	-10.303
ဆည်း	-10.304
▁အသာ	-10.3042
▁အလောင်း	-10.3052
▁အရေးအ	-10.3054
ချိ	-10.3058
▁တစ္ဆေ	-10.3064
▁ကျွဲ	-10.3075
▁ပြည့်စုံ	-10.3083
ခွာ	-10.3085
▁အဖော်	-10.3094
2	-10.3097
▁တေး	-10.3098
စမ်း	-10.31
▁၃၁	-10.3101
▁စွပ်စွဲ	-10.3111
▁လည်ပင်း	-10.3111
ထန်	-10.3116
▁✌	-10.3117
စဲ	-10.3122
ရွေ့	-10.3129
နွဲ့	-10.3135
▁စားသုံး	-10.3135
စောင်း	-10.3148
▁၀၀၀၀	-10.3149
▁ဖိအား	-10.3158
▁ဆံ	-10.3161
▁ရိုက်ကူး	-10.3164
▁ရေးရာ	-10.3166
ပြတ်	-10.317
မလေး	-10.3172
မဲ	-10.3177
▁နောင်တော်	-10.3183
▁အားထုတ်	-10.3197
▁ထုပ်	-10.3198
▁မြေး	-10.3199
▁စံချိန်	-10.3204
▁စိန်ခေါ်	-10.3205
▁ဇာတိ	-10.3205
▁ငရဲ	-10.321
▁လမ်း၊	-10.3216
▁ဆက်တိုက်	-10.3221
ည်း	-10.3227
▁နိ	-10.3227
▁ကြည့်ကြည့်	-10.3235
▁စတိုင်	-10.3242
▁မုံရွာ	-10.3252
▁ဝိုင်းဝန်း	-10.3254
ပွင့်	-10.3268
▁ခေါင်းစဉ်	-10.3269
နှိပ်စက်	-10.3271
ပေါင်	-10.3276
▁လေးဖြူ	-10.3283
ကီ	-10.3299
▁‘	-10.3299
▁မျှတ	-10.3303
ရှက်	-10.3307
ပ္ပ	-10.3312
မား	-10.3332
▁ခြင်	-10.3341
ဓာ	-10.3346
▁နဂါး	-10.3347
▁ဒီဇိုင်း	-10.3347
▁ရဲဘော်	-10.3349
▁လှေကား	-10.3364
ထိန်း	-10.337
de	-10.3371
ပြန်အလှန်	-10.3395
▁ပြတင်းပေါက်	-10.3395
▁နဖူး	-10.3396
▁အတိအ	-10.3398
▁တောက်ပ	-10.3398
▁ဂျိုး	-10.34
ရှ်	-10.3403
▁အမာ	-10.3404
မင်းကြီး	-10.3424
▁ထမ်း	-10.3431
▁ထည်	-10.3434
နေ့	-10.3441
▁မြစ်ကြီးနား	-10.3443
▁တုန်လှုပ်	-10.3443
ီးယား	-10.3444
▁နှင်းငွေ	-10.3448
▁တုတ်	-10.345
ck	-10.3456
▁ဘာသာရပ်	-10.3458
▁ခိုင်	-10.3462
ငှက်	-10.3464
▁ခွန်း	-10.347
▁လန့်	-10.3475
▁နှာခေါင်း	-10.3476
ဂ်	-10.348
▁လူသတ်	-10.3483
▁စတာ	-10.3487
▁တစ်ချိန်	-10.3491
▁ပန်းချီကား	-10.3494
▁ခေတ္တ	-10.3494
▁အကျယ်	-10.3496
▁ဖဲ	-10.3497
ပိုက်	-10.3518
▁အယ်	-10.3534
▁ဂလက်ဆီ	-10.354
▁ထူထောင်	-10.3541
▁တက်တူး	-10.3545
လျော့	-10.3547
ဖတ်	-10.3548
▁ခုန	-10.3551
▁စွန်း	-10.3559
▁ရေးထိုး	-10.3559
▁အလံ	-10.3563
၆	-10.3566
▁Co	-10.3573
▁ထင်ကျော်	-10.3581
▁ဇူလိုင်	-10.3588
▁ယာယီ	-10.3588
▁အော်ဟစ်	-10.3588
▁အပြောင်းအ	-10.3588
▁ဆန့်ကျင်	-10.3589
▁ဖိတ်ခေါ်	-10.3589
▁အက	-10.359
▁သိမ်းပိုက်	-10.359
▁ပစ္စယော	-10.359
▁ညချမ်း	-10.3593
▁တိုးတိုး	-10.3594
▁သတိပြု	-10.3595
▁မြိတ်	-10.3602
G	-10.3611
ွမ်	-10.3619
ထု	-10.362
ရုံး	-10.3633
▁အပြန်	-10.3633
▁ချီတက်	-10.3642
▁၄၅	-10.3644
▁အကြံပေး	-10.3645
▁ပြင်း	-10.367
▁တစ်စုံတစ်	-10.3682
အေ	-10.3685
▁စိတ်ကူးယဉ်	-10.3687
▁ထွန်းကား	-10.3688
▁နံနက်ခင်း	-10.3689
▁အကျဉ်း	-10.369
▁ထိပ်တန်း	-10.3691
▁တေ	-10.3692
ကြင်နာ	-10.3693
▁အကြိုက်	-10.3694
▁ရုပ်ပုံ	-10.3694
့ဆိုင်း	-10.3696
▁c	-10.37
▁အကြည့်	-10.3712
အခေါ်	-10.3715
▁ချစ်ဆုံး	-10.3729
▁အလည်	-10.3736
▁😋	-10.3737
▁😕	-10.3737
▁ပြိုင်ဘက်	-10.3739
ကြောင်	-10.3744
▁ပြင်ပ	-10.3748
▁မျှဝေ	-10.375
ဃ	-10.3751
▁ဂဏန်း	-10.3755
▁ဆိုက်	-10.3759
▁နည်းပါး	-10.3762
▁ကိုယ်တော်	-10.3764
ကြာမြင့်	-10.3779
▁တိတ်ဆိတ်	-10.3786
▁မြန်မြန်	-10.3787
▁အနေနှင	-10.3787
▁စွန့်	-10.3793
▁ခြား	-10.3794
▁တံ	-10.3799
ထိုက်	-10.3802
ရှု	-10.3815
▁၁ဝ	-10.382
▁အမြင့်	-10.3833
ဠ	-10.3836
▁ကိုနန်းနွယ်	-10.3836
▁ခပ်သိမ်း	-10.3838
▁ကြော်	-10.3838
▁ဘဏ်ခွဲ	-10.3844
ter	-10.3847
ပိ	-10.3852
ပညာရပ်	-10.3862
ment	-10.3869
▁မေဃနာဒ	-10.3886
▁အလုပ်အကိုင်	-10.3886
▁မုဒိမ်း	-10.3886
▁ဖိုင်နယ်	-10.3886
▁စိမ်းလန်း	-10.3887
▁အမျှ	-10.3888
▁မုန်တိုင်း	-10.3893
▁မလို့	-10.3894
▁တောင်တန်း	-10.3898
ဟောင်း	-10.39
▁ချောက်	-10.3925
ကြို	-10.3925
▁ဟေး	-10.3927
လှမ်း	-10.3929
ပိုလီ	-10.3936
▁နမ်း	-10.394
▁စည်းလုံး	-10.394
▁အံ	-10.3951
▁အီး	-10.3965
ဇ်	-10.3973
▁ယုန်	-10.3987
▁အခမဲ့	-10.3988
လိ	-10.3988
▁ပြစ်မှု	-10.3988
▁အကြံပြု	-10.3993
▁အကြွေး	-10.3996
ထောက်	-10.4007
ပစ္စည်း	-10.4009
ကတ်	-10.4016
တူး	-10.4021
ထင်	-10.4023
la	-10.4029
▁အသက်ရှူ	-10.4038
▁အငှား	-10.4039
▁၂၀၁၅	-10.404
ကြ	-10.4045
▁တပ်ဆင်	-10.4047
▁တက်ကြွ	-10.4048
▁အမလေး	-10.4054
▁ဘိုး	-10.4063
စောင့်	-10.4067
▁လှိုင်း	-10.4068
▁ပက်	-10.4071
▁အောက်မေ့	-10.409
▁မုခ်	-10.409
▁လက်ဝှေ့	-10.4091
▁အယူအ	-10.4093
▁သတ်ဖြတ်	-10.4095
ခုံ	-10.4106
သီဟ	-10.4113
ယ့်	-10.4117
ခို	-10.4136
▁ဗျူဟာ	-10.4141
▁မျက်ခုံး	-10.4142
▁ရိုသေ	-10.4142
▁မျက်မှန်	-10.4142
▁အဆုံးသတ်	-10.4143
▁ပေါင်းစုံ	-10.4153
တောက်	-10.4169
▁The	-10.4172
တကယ်	-10.4173
▁ကိုင်း	-10.4175
▁နံ	-10.4177
▁ရမ်း	-10.4185
▁လင်မယား	-10.4193
▁အာဆီယံ	-10.4193
▁အနှံ့	-10.4193
▁သတ္တု	-10.4194
▁လွှမ်းမိုး	-10.4194
ယက်	-10.4197
▁ထဘီ	-10.4198
▁ဆီမီး	-10.4202
▁ညွှန်	-10.4206
ဗီ	-10.4219
တယ်	-10.4231
▁လာလီဂါ	-10.4245
▁စုတ်	-10.4258
▁တူး	-10.4265
▁ရေကူး	-10.4272
▁အဝါ	-10.4289
▁ကျေးဇူးပြုပြီး	-10.4298
▁ကြည်ညို	-10.4299
▁ပုလင်း	-10.4301
▁မွှေး	-10.4303
ြား	-10.4305
B	-10.4306
ဆူ	-10.4309
▁နွယ်	-10.431
▁ကိန်း	-10.4318
▁အောက်တန်း	-10.4322
သီရိ	-10.4325
▁ကုတ်	-10.4326
▁လှလှ	-10.4341
▁အေးအေး	-10.4341
▁ဒီဂရီ	-10.435
▁တားမြစ်	-10.435
▁ဓါတ်ပုံ	-10.4351
▁အမှောင်	-10.4351
▁အမုန်း	-10.4353
▁သကြား	-10.4361
ထူ	-10.4379
ဘို	-10.4384
▁ဆင့်	-10.4389
ကကျွမ်း	-10.439
▁ကိုကျော်	-10.4391
▁သွယ်	-10.4397
▁ချမ်း	-10.4397
မြောင်း	-10.4401
▁ဘေးရန်	-10.441
▁ဒေါ်လေး	-10.4417
▁ရယ်မော	-10.4417
ခွန်း	-10.4418
▁အောင်ပွဲ	-10.4421
▁ပျင်း	-10.4425
▁ရဲရဲ	-10.4435
ဆပ်	-10.4442
▁စကားပြေ	-10.4443
▁မျိုးနွယ်စု	-10.4457
▁အဆင်သင့်	-10.4458
▁လေသံ	-10.4461
▁ရွတ်	-10.4462
▁အဖွား	-10.4466
▁အစု	-10.4477
▁တိုင်းတာ	-10.4495
ကြီးမေ	-10.4498
8	-10.4499
ချပ်	-10.4506
▁ပဲလေ့စ်	-10.451
▁အာဟာရ	-10.451
▁ဆော့	-10.451
▁ခိုကလေး	-10.4511
▁🙌	-10.4512
▁အာဏာပိုင်	-10.4513
▁ရပ်နား	-10.4521
မာမာ	-10.4524
▁အထည်	-10.4532
▁လုပ်ကြံ	-10.4534
ရှို့	-10.4538
▁ကတ်	-10.4551
မြိုင်	-10.4552
▁ပဋိပ	-10.4558
▁ဝါကျ	-10.4559
▁ကြွက်	-10.4563
▁ဒြာဝိဒိယန်	-10.4564
▁အင်ဂျင်နီယာ	-10.4564
▁နဂို	-10.4565
▁လက်တွဲ	-10.4575
ပျောက်	-10.4579
ပွ	-10.4594
▁လှိုင်	-10.4598
သပ်	-10.46
▁အတွင်းရေးမှူး	-10.4607
▁ကုန်ဆုံး	-10.4616
▁မြှင့်တင်	-10.4618
▁အာရ	-10.4623
▁ချောင်	-10.4626
▁ဝတ်ဆင်	-10.4626
▁မီတာ	-10.4627
▁မှန်မှန်	-10.4628
▁ဒေါ်ခင်	-10.4635
▁မျိုးဆက်	-10.4655
မ်းလှမ်း	-10.4656
li	-10.4661
တိတ်	-10.4664
▁၃၅	-10.4664
အကယ်၍	-10.4666
▁၁၀၀၀	-10.4667
▁နယူးကာဆယ်	-10.4672
▁ကန့်သတ်	-10.4672
▁ဘူတာ	-10.4675
▁လစ်	-10.4676
▁ညံ့	-10.4678
၀၂၀	-10.4678
F	-10.468
ne	-10.4684
ခေါက်	-10.4691
လောင်	-10.4692
9	-10.4702
▁ရေရှည်	-10.4706
▁ချပ်	-10.4715
မိတ်	-10.4725
▁နှင်းဟေမာ	-10.4727
▁ကီလို	-10.4727
▁ဖျက်သိမ်း	-10.4728
တူညီ	-10.4733
▁ဒါ့အပြင	-10.4734
▁အာဏာရှင်	-10.4735
▁ဥစ္စာ	-10.4741
▁ကလေးငယ်	-10.4743
ဂူ	-10.4751
စွမ်း	-10.4752
ဗစ်	-10.4758
ပျံ	-10.476
▁ဂျင်းကောင်	-10.4764
▁ဝဋ်	-10.4782
▁သောင်းကျန်း	-10.4782
▁ဒေါ်လေးငယ်	-10.4783
▁ကွေ့	-10.4785
▁အကျ	-10.4791
▁ဟန်နီ	-10.4794
ဖီ	-10.4794
▁အချို	-10.4795
▁တာဝန်ယူ	-10.4799
▁နင့်	-10.48
ကေ	-10.4808
▁တင်ဒါ	-10.4812
ရေးမှူးချုပ်	-10.4812
te	-10.4813
ပွင့်	-10.4813
▁သီ	-10.4816
ရား	-10.4828
အုပ်ချုပ်ရေးမှူး	-10.4831
▁ဆန့်ကျင်	-10.4837
▁အရေပြား	-10.4837
▁အရှင်မင်း	-10.4837
▁အရေးပေါ်	-10.4841
ွှ	-10.4842
▁#	-10.4842
ခိုး	-10.4844
▁ဇီဝ	-10.4849
▁မိန့်	-10.4852
▁ကောင်းကျိုး	-10.4858
ပျို	-10.4859
▁၁၅၀	-10.4871
ခွင်	-10.4878
▁သိုး	-10.4887
▁ပါမောက္ခ	-10.4892
▁ဧည့်သည်	-10.4893
ဟပ်	-10.4893
▁စပ်လျဉ်း၍	-10.4893
▁လက်စတာ	-10.4901
▁ကိရိယာ	-10.4903
▁အလွတ်	-10.4911
▁စာသင်	-10.492
ရောဂါ	-10.4929
▁ဦးဦး	-10.493
▁ဆိုင်း	-10.4936
▁ဆဲလ်	-10.4945
▁နူးညံ့	-10.4948
▁အစီရင်ခံစာ	-10.4948
▁ဘို	-10.4953
လော	-10.4955
▁အဖွင့်	-10.4955
▁အောက်ခြေ	-10.4955
▁အနုပညာရှင်	-10.4956
နားဆင်	-10.4959
၂၅	-10.4959
မံ	-10.4962
▁ရေချိုး	-10.4962
▁ပေါင်းစပ်	-10.4964
▁ဩဇာ	-10.4972
▁အအေး	-10.4973
▁ရွှေ့	-10.4975
နိုး	-10.4997
▁စည်	-10.5
▁အမွေ	-10.5001
▁မီးရထား	-10.5005
▁ဖာရယ်	-10.5005
▁ကယ်ဆယ်	-10.5007
▁စိုးမိုး	-10.5009
ဒင်	-10.501
▁ငုံ့	-10.5013
▁တမင်	-10.5013
▁ဂေဟာ	-10.502
ဝေါ်	-10.503
နီး	-10.5035
▁ပညာရှိ	-10.5038
တရ	-10.5046
ချိုး	-10.5058
▁အသားအရေ	-10.5061
▁ခမည်းတော်	-10.5061
▁ဓုဝ	-10.5061
▁ရိုဟင်ဂ	-10.5061
▁ဆူညံ	-10.5061
▁ခွဲစိတ်	-10.5065
▁ပွတ်	-10.5069
ုပ်ကိုင်	-10.5073
ဟော	-10.5083
▁၇၀	-10.5084
▁နှိပ်	-10.5088
▁ဟဲ	-10.5089
▁ဖိ	-10.5094
▁ဘုရင်မင်း	-10.5103
▁ရင်ဘတ်	-10.5108
▁ရေနံ	-10.5116
▁သန့်ရှင်း	-10.5118
▁ခိုင်မာ	-10.512
းနား	-10.513
▁ပြန်ကြား	-10.5142
လျော်	-10.5147
ထီး	-10.5153
ဘုရား	-10.5155
သည့်	-10.5156
သော်	-10.5158
လော့	-10.5161
▁မှောင်	-10.5161
တဲ့	-10.5165
▁သူကြီး	-10.5173
▁စင်္ကာပူ	-10.5175
▁အပြောင်းအရွှေ့	-10.5175
▁ညွန့်မေ	-10.5175
▁စိတ်မဝင်	-10.518
▁1	-10.518
▁ကြာကြာ	-10.5183
▁ထိတွေ့	-10.5184
5	-10.5199
စတာ	-10.5204
ဈေး	-10.5214
ကြော်	-10.5217
အပ်	-10.522
▁လုံ	-10.5224
▁ကေ	-10.5227
▁ဟဲဟဲ	-10.5231
▁ခရစ္စတယ်	-10.5232
▁အထောက်အကူ	-10.5232
▁ဗိုလ်လုပွဲ	-10.5233
▁လက်ကျန်	-10.5237
▁ယူနိုက်တက်	-10.524
▁အဟောင်း	-10.5248
ရှာ	-10.5252
နိုင်ငံ	-10.5273
▁တနင်္သာရီ	-10.529
▁ပြင်ဦးလွင်	-10.529
▁လျင်မြန်	-10.529
▁ကန့်ကွက်	-10.529
▁ချိုးဖောက်	-10.529
▁မိတ်ဆက်	-10.5292
▁ကောလိပ်	-10.5293
▁တား	-10.5297
ခေါ်	-10.5301
ဂ္ဂ	-10.5302
▁ယဉ်	-10.5303
▁ရည်	-10.5308
ကန်း	-10.5313
သု	-10.5327
▁အဘိုး	-10.5332
▁ညစာ	-10.5333
▁မြေကြီး	-10.5333
ဖာ	-10.5337
▁၈၀	-10.5345
ဆံ	-10.5347
▁ရီးယဲလ်	-10.5348
▁အိုလံပစ်	-10.5348
▁ပုရောဟိတ်	-10.5348
▁ရာဝဏ	-10.5348
▁ဟင့်အင်း	-10.5348
▁မီးခိုး	-10.5352
ဗ္ဗ	-10.5358
▁အကြောင်းပြ	-10.5368
▁မြောက်ဦး	-10.5379
၇၁	-10.5403
ဒိ	-10.5404
▁အငြင်း	-10.5406
▁စက်ဘီး	-10.5407
▁ဝေါဟာရ	-10.5407
▁ညီလာခံ	-10.5407
▁😗	-10.5407
▁ဧည့်သည်	-10.5407
▁ခင်စန်း	-10.5409
ယွင်း	-10.5411
မိုင်	-10.5413
▁ရောဂါပိုး	-10.5413
▁တိုက်စစ်	-10.5415
▁ကျဆုံး	-10.5416
U	-10.542
တေး	-10.5423
▁မြေပုံ	-10.5424
▁အချိုး	-10.543
ခန့်	-10.5431
လိဂ်	-10.5448
H	-10.545
▁ဘဘ	-10.546
▁ကျေးဇူးပြု၍	-10.5466
▁အက်တမ်	-10.5466
▁လျှော်	-10.5466
▁🙄	-10.5466
▁စည်းရုံး	-10.5466
▁မိုးညှင်း	-10.5468
▁သပိတ်	-10.5471
▁ပီသ	-10.5471
▁လက်မှတ်ထိုး	-10.5475
▁ကျွန်း	-10.5477
ေဘုန်း	-10.5478
▁ကျဉ်း	-10.549
▁အမောင်	-10.5491
▁ဘု	-10.5499
▁လက်ကိုင်	-10.5504
ညွန့်	-10.5515
ပြည်သား	-10.5518
ir	-10.552
▁ရှင်စောပု	-10.5525
သန့်	-10.5525
▁အာဘွား	-10.5527
▁ဖြူစင်	-10.5528
▁ပြည့်ဝ	-10.5532
မိုးကောင်း	-10.5535
▁ဇယား	-10.5544
ကြော	-10.5548
မူး	-10.555
▁ဗူး	-10.5559
့စ်	-10.5561
▁ဆမ်	-10.5562
▁အထင်ကြီး	-10.5563
▁ကားလမ်း	-10.5565
▁သူပုန်	-10.5569
▁မှုတ်	-10.5573
ထမ်းဆောင်	-10.5583
น	-10.5584
ထွဋ်	-10.5584
▁လိမ္မာ	-10.5584
▁ထို့အပြင်	-10.5584
ဏ္ဍာန	-10.5585
▁တိ	-10.5586
တည်းက	-10.5586
ရာသီ	-10.5589
▁ဟန်ဆောင်	-10.5599
ပေမယ့်	-10.5602
▁မည်မျှ	-10.5604
ရီး	-10.5604
▁၂ဝ	-10.5605
▁ယုတ်	-10.561
ကယ်	-10.561
ယန်	-10.5613
လှည့်	-10.5615
▁သလိုလို	-10.5618
ဝန်ဆောင်ခ	-10.5618
ောင်းနှင်	-10.5622
▁ကော့	-10.5623
▁အဆိုး	-10.5626
ထိ	-10.5629
se	-10.5632
ဆွ	-10.5634
ဆိုးရွား	-10.5644
▁ရှုခင်း	-10.5645
▁သန်	-10.5648
▁ချဉ်း	-10.5652
▁လျှာ	-10.5652
▁ပိ	-10.5653
▁ဖွေးဖွေး	-10.5655
န်ကောက်	-10.5656
▁ကျောက်စာ	-10.5658
၄၄	-10.5661
▁မျိုးစိတ်	-10.5662
ဘေး	-10.5677
နူး	-10.5697
မာန်	-10.5698
လန်း	-10.57
า	-10.5704
▁တိုးချဲ့	-10.5705
▁အထူးသဖြင့်	-10.5705
▁ဝက်ခြံ	-10.5705
▁Re	-10.5706
▁ခက်ဆစ်	-10.5707
▁ဗုံး	-10.5716
▁အနု	-10.5718
ရူ	-10.572
▁လှန်	-10.572
ဆဲ	-10.5738
ma	-10.5742
▁ကြီးကြီး	-10.5746
ပါးပါး	-10.5756
▁စော်	-10.5764
▁ဗီဇ	-10.5765
▁တောင်ပံ	-10.5765
▁အကြိမ်ကြိမ်	-10.5765
▁ဝက်ဝံ	-10.5766
▁၂၀၀၈	-10.5767
၆၀	-10.5769
▁ဖြိုး	-10.5769
▁ဘိန်း	-10.577
▁မီးသတ်	-10.5773
▁လူမိုက်	-10.5775
▁ကွာခြား	-10.5776
▁ဘီလူး	-10.5783
▁သက္ကရာဇ်	-10.5786
▁ညစ်	-10.5788
▁အဖျား	-10.579
▁ဗညား	-10.579
ဖေ	-10.5797
ိကျ	-10.5809
▁ဇယ	-10.5811
ညိတ်	-10.5811
ညှိ	-10.5811
▁သေတ္တာ	-10.5818
၈၅	-10.5818
co	-10.5819
▁ခရစ်ယာန်	-10.5826
▁အယ်ဒီတာ	-10.5826
▁အသက်အရွယ်	-10.5826
တ္တိ	-10.5828
▁တာဝန်ခံ	-10.5829
▁ယူရို	-10.5845
▁ထမ်းဆောင်	-10.5845
စေ	-10.5848
ရွာ	-10.5857
▁လတ်	-10.5859
▁ပျော့	-10.587
▁စာလုံး	-10.5876
▁လက်ညှိုး	-10.5887
▁၂၀၁၆	-10.5888
▁တန်ခိုး	-10.5889
▁ဖတ်ရှု	-10.5891
▁ဆေးဝါး	-10.5894
▁မည်သို့	-10.5895
ပေါ	-10.5895
▁နာဆာ	-10.5896
▁ဖေါ်	-10.5905
▁ဝိုင်	-10.5906
ထုံး	-10.5907
မပြတ်	-10.5917
▁တွေ့ရှိ	-10.5918
▁အမဲ	-10.5945
👋	-10.5949
▁ကြွယ်ဝ	-10.5949
▁အင်းစိန်	-10.5955
▁ဆင်းသက်	-10.5957
၇၈	-10.5957
▁ဖြည်းဖြည်း	-10.5958
ျ	-10.5962
▁သီရိ	-10.5977
▁ရုန်း	-10.5979
▁တည့်	-10.5981
▁အကောင့်	-10.5982
ရှိုး	-10.6
ပုတ်	-10.601
လျှော့	-10.601
▁နှမြော	-10.6011
▁အပြည်ပြည်	-10.6011
▁“	-10.6011
▁ဝါသနာပါ	-10.6015
▁အလွမ်း	-10.6015
▁ဖြူဖြူ	-10.6016
▁လူပျိုကြီး	-10.6022
▁ဆေးထိုး	-10.6031
သွင်	-10.6035
▁စို	-10.6037
▁ပုန်း	-10.6041
ကော	-10.6046
ut	-10.6049
6	-10.6059
ကျွေး	-10.6061
ခက်	-10.6064
ခြားနား	-10.607
▁အနန္တ	-10.6074
▁မြင့်မား	-10.6075
▁ပျံသန်း	-10.6075
▁၀၀၀၁	-10.6076
▁သမုဒ္ဒရာ	-10.6078
ဘီယာ	-10.6081
၆၁	-10.6098
▁လုပ်ထုံး	-10.6103
▁အချစ်ဆုံး	-10.6119
▁လူး	-10.6122
ရ်	-10.6128
ော်	-10.6136
▁ခန့်မှန်း	-10.6137
▁ပံ့ပိုး	-10.6137
နှီး	-10.6137
▁အသိဉာဏ်	-10.6137
▁ဂေါ်	-10.6141
စွန်း	-10.6144
ဝံ	-10.6147
ကြံ	-10.6148
▁သော်တာ	-10.6153
ကြိုက်	-10.6157
▁ဖြာ	-10.6158
▁အဝင်	-10.6161
▁တီ	-10.6185
ညွန့်	-10.6186
ေန	-10.6187
တွင်	-10.6199
▁ဗီတာမင်	-10.62
▁မျက်ဝန်း	-10.6201
▁စွမ်းရည်	-10.6203
▁ဗီ	-10.6206
▁ပညာသင်	-10.6218
ယဉ်	-10.6225
ကျိုး	-10.6234
အင်း	-10.6243
▁ဆုပ်	-10.6247
▁အရောင်း	-10.6249
▁ဟိ	-10.625
ညွှန်ကြားရေးမှူး	-10.625
လူး	-10.6251
မှိုင်း	-10.6251
▁ဦးကင်း	-10.6258
▁ပြပွဲ	-10.6258
▁နှာ	-10.6263
▁ထီးနန်း	-10.6265
သိမ့်	-10.6269
▁ဖြန့်	-10.6275
▁$	-10.6277
▁တွင်းနက်	-10.6278
▁အပေါက်	-10.6286
အချာ	-10.629
ion	-10.6298
ate	-10.63
▁’	-10.6302
မေး	-10.6302
နှ	-10.6309
တုတ်	-10.6328
▁ကြံ့ခိုင်	-10.6328
▁ခွန်အား	-10.6328
▁ဗညားရံ	-10.6329
ဖျ	-10.6336
▁သန့်	-10.6337
▁တိုင်ကြား	-10.6338
▁ဂမ္ဘီ	-10.6349
▁စေ့	-10.6349
လိုင်း	-10.6354
ဗ်	-10.6355
▁အသက်ရှင်	-10.6363
ဒန်	-10.6363
▁တည့်	-10.6364
▁အပစ်	-10.6364
ရှုပ်	-10.6365
အင်	-10.6372
▁သမ	-10.6377
▁ဂါ	-10.6381
မြို့	-10.6381
▁မိတ္ထီလာ	-10.6392
▁ရွှေတိဂုံ	-10.6392
▁အနမ်း	-10.6392
ပြောင်	-10.6398
ard	-10.6399
▁အဖိုး	-10.64
▁ခေါင်းလောင်း	-10.6401
▁စုစည်း	-10.6403
▁ရုပ်သံ	-10.6412
▁ဆေးခန်း	-10.6413
▁အညာ	-10.6414
▁ခရစ်	-10.6424
▁ရိပ်	-10.6434
▁ရင်ခွင်	-10.644
▁Y	-10.6455
▁သံယောဇဉ်	-10.6457
▁ဘုရင့်	-10.6457
▁အာဖရိက	-10.6462
▁အသီး	-10.6466
ွန့်	-10.6467
ချင်	-10.647
▁ရေး၊	-10.6475
လွှား	-10.6485
▁ဃ	-10.649
as	-10.6497
▁ဖွား	-10.6508
ဂျင်	-10.6512
▁တက္ကစီ	-10.6522
▁အပြုအမူ	-10.6522
▁အေးအေးဆေးဆေး	-10.6522
ကျား	-10.6523
▁ရုန်းကန်	-10.6524
▁ကျေးလက်	-10.6524
▁အစဉ်အလာ	-10.6525
▁ရေရွတ်	-10.653
▁+	-10.6549
▁နုနု	-10.6549
လှန်	-10.6557
▁ဇော်	-10.6558
▁ရွေ့	-10.6566
x	-10.6573
▁ရို	-10.6574
0	-10.6578
ဖြ	-10.6584
▁ပစ္စယေ	-10.6587
▁ဘင်္ဂ	-10.6588
▁ပရဟိတ	-10.6588
▁ဆိပ်ကမ်း	-10.6588
▁အလားတူ	-10.659
▁ထွန်းနိုင်	-10.659
▁မီးဖို	-10.6593
▁လေကြောင်း	-10.6594
▁၂၀၀၀	-10.6596
▁အနီးဆုံး	-10.6625
မျှတ	-10.6625
▁ကွမ်း	-10.6626
▁မုဆိုး	-10.6636
▁ထွေး	-10.6639
တုံ	-10.664
▁လုပ်လုပ်	-10.6642
၂၁	-10.6645
▁အဆ	-10.6646
သပတ	-10.6653
▁ဂျာမနီ	-10.6654
▁ဓလေ့	-10.6654
▁နေဗလ	-10.6655
▁သန့်စင်	-10.6655
▁ရှော	-10.6669
▁သမိန်	-10.667
▁V	-10.6687
▁ကြွား	-10.6689
▁နိမ့်	-10.6702
၇၅	-10.6704
သောက်	-10.6704
▁မဆို	-10.6713
▁သံသရာ	-10.6721
▁ရေကန်	-10.6723
▁လခ	-10.6728
os	-10.6728
▁မခင်	-10.6729
▁သတ်ပုံ	-10.6734
▁လေဆိပ်	-10.6735
▁ခင်စိုး	-10.6736
▁မြို့ပိုင်	-10.6745
▁သိမ်	-10.6746
me	-10.6751
▁အင်တာမီ	-10.6751
▁လမင်း	-10.676
ဩ	-10.6777
▁အကြို	-10.6783
▁အချင်း	-10.6786
ang	-10.6787
▁ခ်ခ်	-10.6788
နွှဲ	-10.6788
▁အမွေအနှစ်	-10.6788
▁စည်းမျဉ်း	-10.6788
▁ရှည်လျား	-10.679
▁ကိုယ့်ဘာသာ	-10.679
သင်ပေး	-10.6793
ay	-10.6794
▁ထိုက်တန်	-10.6795
▁ရေနွေး	-10.6795
▁အလေးထား	-10.6797
▁အတန်ကြာ	-10.68
▁လက်မောင်း	-10.6802
▁ကျောက်တုံး	-10.6808
▁စုပ်	-10.6809
▁in	-10.6812
ခြံ	-10.6829
▁ပင်စင်	-10.6834
ပေါ့	-10.6837
▁တစ်ထောင်	-10.684
▁ဘကြီး	-10.6846
▁ခြိမ်းခြောက်	-10.6856
▁ဖွင့်လှစ်	-10.6856
▁အကြီးအကဲ	-10.6856
▁မိုချင်ဂလက်ဘ	-10.6856
▁:*	-10.6856
▁ဂိမ်း	-10.6857
▁ဇွဲ	-10.6857
▁စည်ကား	-10.6857
▁ညစ်ပတ်	-10.6857
ညံ့	-10.6858
▁သဘောတရား	-10.6863
▁ခုတင်	-10.6863
▁ဟရောင်	-10.6869
ဟိ	-10.6871
▁ဖြစ်ထွန်း	-10.6873
မု	-10.6875
ခွင့်	-10.6876
▁ဦးထုပ်	-10.6878
▁ခင်မင်	-10.6887
ဟို	-10.689
တား	-10.6892
▁လေထု	-10.6897
ဒေး	-10.6901
▁ခြမ်း	-10.6904
ပညာ	-10.6909
▁ဘင်္ဂလီ	-10.6925
▁အချုပ်	-10.6932
ိုး	-10.6939
▁စာမူ	-10.6945
▁အပြေး	-10.6946
▁ဖွေး	-10.6946
▁e	-10.6948
ရွ	-10.6949
▁နှိုက်	-10.6959
▁ပေါ်လွင်	-10.6964
ါလီ	-10.6964
ငြိမ်	-10.6975
▁အုန်း	-10.6975
ဒီပ	-10.6978
တ္ထ	-10.6986
️	-10.6989
▁တည်တံ့	-10.6992
▁ကျူးကျော်	-10.6994
▁ရှုပ်ထွေး	-10.6995
▁ရုပ်တု	-10.6996
▁အဆောက်အဦး	-10.6997
▁ကျွန်တော်မျိုး	-10.6999
▁အရပ်ရပ်	-10.7002
▁ပမာ	-10.7012
▁လုပ်စား	-10.702
ာ်	-10.7024
▁တောင်ကုန်း	-10.7026
▁သုတေသ	-10.7028
▁ဒဂုံ	-10.7031
နဲ့	-10.7043
▁သုခ	-10.7049
သိန်းစိန်	-10.7052
ကကျွန်း	-10.7058
▁စတုတ္ထ	-10.7061
▁ပတ္တမြား	-10.7061
▁အဒေါ်	-10.7061
▁အကြံဉာဏ်	-10.7062
▁ဝတ်မှုံ	-10.7063
▁ဂျို	-10.7068
▁အောင်လ	-10.7079
တန့်	-10.708
▁ဦးဘ	-10.7083
▁ပြူး	-10.709
▁အိမ်ထောင်စု	-10.7104
3	-10.7125
▁တပည့်	-10.7125
ဖိတ်	-10.7126
▁ချီးမြှင့်	-10.7131
▁ကြက်ဥ	-10.7132
▁ကြည်လင်	-10.7134
▁အေမီ	-10.7138
ြည်း	-10.7139
၈၀	-10.7139
▁အင်းလေး	-10.7139
ဏ်	-10.7141
▁ဧ	-10.7149
တုန်	-10.7157
▁တကယ့်	-10.7164
▁တုပ်ကွေး	-10.7168
▁ပွ	-10.7172
▁အရေးမ	-10.7173
ဒေ	-10.7174
မောနင်း	-10.7179
▁သစ်သား	-10.7183
▁ဆိတ်	-10.7186
ထုပ်	-10.7187
ia	-10.7194
▁the	-10.7195
pe	-10.7197
▁အစီအ	-10.7199
▁သက်ပြင်း	-10.72
▁သယံဇာ	-10.7201
▁စာချုပ်စာတမ်း	-10.7201
▁"	-10.7202
▁နယ်ပယ်	-10.7203
▁ပန်းခြံ	-10.7203
▁နှင်	-10.721
၀၁	-10.7213
▁ဇာ	-10.7214
ဋ	-10.7217
ကြွယ်	-10.7217
▁မို	-10.7225
▁တရားလို	-10.7233
အတန်း	-10.7242
▁နစ်	-10.7244
ဖြူး	-10.7249
ချည်	-10.7261
▁ကမ္ဘောဒီးယား	-10.7271
▁ဒေါ်ခင်ကြည်ပြာ	-10.7271
▁မအေလိုး	-10.7271
▁ဇော်ဂျီ	-10.7271
▁မန်း	-10.7274
▁ပြောင်းဖူး	-10.7276
▁စမ်းချောင်း	-10.728
▁ဒါပေါ့	-10.7284
▁ကျီး	-10.7299
ဝက်	-10.7301
▁ပြန့်	-10.7309
▁မမအေး	-10.731
နတ်	-10.7314
▁အခြောက်	-10.7323
ခုန်	-10.7339
ဖြစ်	-10.734
▁မျှော်မှန်း	-10.7342
▁မွမွ	-10.7342
▁နှိုင်းယှဉ်	-10.7342
▁စည်းစိမ်	-10.7342
▁မြင်းခြံ	-10.7343
တွတ်	-10.7344
▁လျော့နည်း	-10.7346
▁ပျ	-10.7348
ားစ်	-10.7357
▁2	-10.737
▁မြက်	-10.7386
▁စွပ်	-10.739
▁ကဲ့	-10.7395
▁ဦးဇော်	-10.7396
၅၃	-10.7406
လျှင်	-10.7409
j	-10.7413
▁ဘောင်းဘီ	-10.7413
▁အထိမ်းအမှတ်	-10.7413
▁အသိုင်းအဝိုင်း	-10.7413
▁ဦးတင်ဘက်တူ	-10.7413
ဖယ်	-10.7417
ဒရစ်	-10.7421
▁မှတ်တိုင်	-10.7422
▁ရုံးခန်း	-10.7426
ခွ	-10.7429
▁မုန့်	-10.7435
၇၇	-10.7436
▁ထင်မြင်	-10.7439
▁သက်တော်	-10.744
ဘောင်	-10.7444
ညွတ်	-10.7448
ယုတ်မာ	-10.7449
▁နေရပ်	-10.7458
▁မြှင့်	-10.7465
နှောင်	-10.7481
▁လီဗာပူး	-10.7484
▁အလွယ်တကူ	-10.7485
▁မြတ်စွာဘုရား	-10.7485
▁မွန်းလွဲ	-10.7485
▁မည်သည့်	-10.7486
io	-10.7494
▁တင်းမာ	-10.7495
ကုံး	-10.7497
▁ဗိုလ်မှူးကြီး	-10.7498
ြ	-10.7499
▁;	-10.7501
▁အမှုဆောင်	-10.7501
▁ပုတ်	-10.7519
▁လုပ်သက်	-10.7524
သွယ်	-10.7526
▁အမယ်	-10.7531
လျား	-10.7537
ထာ	-10.7541
ရော်	-10.7553
▁အတိုင်းအတာ	-10.7558
▁မော်ဒယ်	-10.7558
▁သီးနှံ	-10.7559
၄၀	-10.756
▁ရောင်းဝယ်	-10.7562
im	-10.757
ချ်	-10.7575
▁တင်ပို့	-10.7577
▁ဝေါ	-10.7586
၄၅	-10.7587
▁ကျေး	-10.7588
ver	-10.7592
ခွေ	-10.7618
4	-10.7628
▁ကြီးထွား	-10.7631
▁အစစအရာ	-10.7631
------	-10.7631
▁ဇရပ်	-10.7635
▁ကုန်ပစ္စည်း	-10.7639
▁ကယ်တင်	-10.7639
▁ဆုမွန်	-10.7641
▁စောင့်ကြည်	-10.7649
မြစ်	-10.7649
တင့်	-10.7657
▁တိုက်ခန်း	-10.7657
▁ဖောင်	-10.7659
▁မြန်မာစာ	-10.7661
▁မင်းခေါင်	-10.7662
▁လောဘ	-10.7666
▁မှောက်	-10.7682
ခေတ်	-10.7701
▁တပည့်	-10.7704
က္ကဋ္ဌ	-10.7704
▁လိင်	-10.7706
▁အလိုလို	-10.7707
▁မန်	-10.7709
ly	-10.7709
▁တစ်ရပ်	-10.771
▁ဂျီ	-10.7713
▁အတက်	-10.7714
▁ကြီး၊	-10.7716
က်စ်	-10.7723
ထွာ	-10.7727
▁ဓာတ်ငွေ့	-10.7729
ဘုန်းကြီးကျောင်း	-10.7738
▁ဆရာ့	-10.774
▁ဆော်	-10.7744
တွေ	-10.7757
▁အရှိ	-10.776
▁အိ	-10.776
▁ဖုန်	-10.777
▁ဖျော်ဖြေ	-10.7776
▁နမူနာ	-10.7778
▁အိန္ဒု	-10.7778
▁အံ့အားသင့်	-10.7778
▁ရွေ့လျား	-10.7779
▁ညီအစ်ကို	-10.7779
▁အာကာရ	-10.7779
▁အဘယ်ကြောင့်	-10.7779
▁ဘခက်	-10.7781
▁မိုနာ	-10.7781
▁ရှားပါး	-10.7782
▁ဆိုးကျိုး	-10.7782
▁မိုးရွာ	-10.7782
ယမ်	-10.7783
▁အထုပ်	-10.7789
အကျယ်	-10.779
▁သစ်သီး	-10.7795
▁ဂိုးသမား	-10.7795
၉၂	-10.7797
id	-10.7802
▁တပ်မ	-10.7846
ကျောက်	-10.7851
▁စိတ်ဓါတ်	-10.7853
▁တစ်ခါတလေ	-10.7853
▁တိတိကျကျ	-10.7853
▁သုဂတိ	-10.7853
▁ပထမဦးဆုံး	-10.7853
▁သမဂ္ဂ	-10.7853
▁😑	-10.7853
▁ပါရမီ	-10.7854
▁ကွက်လပ်	-10.7854
▁စွမ်းအား	-10.7855
▁ညနေခင်း	-10.7857
▁ခြ	-10.7859
ကွေ့	-10.786
▁လက်ထောက်	-10.7864
▁အိမ်နီး	-10.7869
▁အေးမြ	-10.7878
ph	-10.7881
▁ဆွဲဆောင်	-10.7881
▁ရှင်းရှင်း	-10.7886
▁အရပ်သား	-10.7886
ေယျ	-10.7888
▁ဝါးဘ	-10.7895
▁မာန်	-10.7895
▁ချစ်ချစ်	-10.7897
▁ဂေါ	-10.7901
per	-10.7904
▁မှုန်	-10.7911
▁ရောင်းစား	-10.7913
▁ပုံနှိပ်	-10.7917
ဂျာ	-10.7917
▁ရေဒီယို	-10.7928
▁မွတ်	-10.7933
▁မွန်မြတ်	-10.7934
▁အသိုက်	-10.7938
▁အတော	-10.7938
▁နီနီ	-10.7946
▁အလန်း	-10.7946
▁လစဉ်	-10.7949
▁သားသား	-10.7957
ဖွား	-10.7964
▁အမွေး	-10.797
▁ဓမ္မာ	-10.7982
▁သားကြီး	-10.7986
▁အလျောက်	-10.7991
▁ယော	-10.7997
▁သားငယ်	-10.8001
▁ဘရာဇီး	-10.8002
င်္	-10.8004
▁နိဂုံး	-10.8004
▁ရွှေ့ပြောင်း	-10.8005
▁အသိပညာ	-10.8005
ပလ	-10.8006
▁ပူပန်	-10.8006
နှက်	-10.8007
င်္ဂ	-10.8013
▁ကင်းစင်	-10.8015
▁၃၂	-10.8015
▁ဖို	-10.8023
▁အယ်လ်	-10.803
▁မှိတ်	-10.8032
▁ဆွေ	-10.8032
▁နာမည်ကျော်	-10.8036
ရင့်	-10.804
▁ဖျောက်	-10.804
no	-10.8041
၇၉	-10.8043
▁ကျော်ကျော်	-10.8045
▁အထွက်	-10.8047
▁သူတစ်ပါး	-10.8049
▁မွဲ	-10.807
▁ကြောက်ရွံ့	-10.808
နိမိတ်	-10.8081
▁😞	-10.8082
▁ပဋိ	-10.809
ှဲ	-10.8098
၀၅	-10.8101
မန်း	-10.8102
▁ခေတ်မီ	-10.8104
▁လျော်	-10.8105
▁အသတ်	-10.8108
▁ကြီးကျယ်	-10.8122
▁ဘုရားရှင်	-10.8123
▁လမ်းပြ	-10.8124
▁ထင်မှတ်	-10.8127
▁အမှုန်	-10.8128
၆၄	-10.8128
န္တိ	-10.8129
▁မိတ်	-10.8136
▁မြို့မ	-10.8139
▁ရွယ်	-10.8141
am	-10.8146
▁အပ	-10.8148
▁လွှမ်း	-10.815
▁ရှူ	-10.815
၉၆	-10.8152
အူ	-10.8154
▁ဘောင်	-10.8154
မောင်မောင်တင်	-10.8154
▁တနင်္လာ	-10.8157
▁ဗုဒ္ဓဟူး	-10.8157
▁ရော်နယ်ဒို	-10.8157
▁အကျိုးစီးပွား	-10.8157
▁ယောက္ခမ	-10.8157
▁ဂေါဝိန္ဒမဏ	-10.8157
ခမျာ	-10.8158
▁မြေအောက်	-10.816
▁ကုလားထိုင်	-10.816
▁ကျွေးမွေး	-10.816
▁သံရုံး	-10.8162
▁လေ့ကျင့်ခန်း	-10.8162
▁အလှူရှင်	-10.8164
လက်မှတ်	-10.8168
▁ချဲ့	-10.817
▁စစ်စစ်	-10.8172
▁ကြားသိ	-10.8172
ကရ	-10.818
▁ပေါ်ထွက်	-10.818
ရိတ်	-10.8181
▁ဦးစီး	-10.8182
▁သေးသေး	-10.8185
၅၅	-10.8192
▁တု	-10.8193
နော	-10.8202
▁၃၆	-10.8205
▁ဘူ	-10.8206
ေ့	-10.8214
ကျဉ်း	-10.8225
၀၆	-10.8226
သန့်	-10.8232
▁ယိုးဒယား	-10.8235
ဂြိုဟ်	-10.8237
▁ဧကရီ	-10.8241
▁အဆင်	-10.8243
▁ဟီးဟီး	-10.8247
▁ရွှေရောင်	-10.8248
all	-10.8254
▁လေးနက်	-10.8255
▁၁၅၀၀	-10.8256
ကမ္ဘာလုံး	-10.8258
၁၅	-10.8258
▁အကြောင်းရင်း	-10.8262
▁အငယ်	-10.8263
ဏ္ဍ	-10.8267
op	-10.8282
▁မဝေ	-10.8285
ငွေ့	-10.8289
▁ပြန်လာ	-10.8299
▁ပိုပို	-10.8304
ကျော့	-10.8306
▁ခွ	-10.8307
▁အလုံး	-10.8307
V	-10.8307
▁ဘင်္ဂလားဒေ့	-10.8313
▁အကျွန်	-10.8314
▁လူတန်း	-10.8316
▁ကြမ်းပြင်	-10.8317
▁အုံ	-10.8318
▁စက္က	-10.8327
ရဏ	-10.8328
▁အကျိုးပြု	-10.833
▁ဦးထွန်း	-10.8343
▁ပတ်လည်	-10.8362
▁ရေးဖွဲ့	-10.8363
မည်း	-10.8364
▁တကား	-10.8369
၀၁၄	-10.837
▁တဖက်	-10.8379
▁သင်္	-10.8392
▁အလုံးစုံ	-10.8392
မှုန်	-10.8399
▁တမ်း	-10.8407
အုံ	-10.8408
▁အိပ်စင်	-10.8408
၉	-10.8408
▁တစ်သောင်း	-10.8411
ထော်	-10.8417
▁အတ္တ	-10.8417
နံ့	-10.8437
▁ကြီးပွား	-10.8452
▁အပြည့်	-10.8457
▁ဝတ္ထုတို	-10.8461
ထွတ်	-10.8468
X	-10.8471
▁ရီ	-10.8472
▁၃ဝ	-10.8474
၃၅	-10.8475
စန်း	-10.8475
ခွန်	-10.8476
▁3	-10.8478
ine	-10.8479
ကိုယ်လုံး	-10.848
ကော့	-10.8485
ဝမ်	-10.8487
▁အပြု	-10.8499
▁လှံ	-10.85
မြင့်မား	-10.8517
တပ်ဖွဲ့ဝင်	-10.8519
▁ဖြစ်သူ	-10.8523
▁သားရေ	-10.8528
▁အဆင်း	-10.8532
ိယန်	-10.8538
▁ရွှင်	-10.8539
၇၀	-10.8545
▁ဦးကြီး	-10.8549
▁မူးယစ်	-10.855
▁သီတင်း	-10.855
▁ဝမ်	-10.8551
▁စိတ်လှုပ်ရှား	-10.8551
▁ဒသဂီရိ	-10.8551
▁မဟော်	-10.8551
▁ကင်ဆာ	-10.8551
▁ထိတ်လန့်	-10.8551
▁လိပ်ပြာ	-10.8552
▁ပြေလည်	-10.8554
▁ဂရန်	-10.8556
▁ဆန်ဆန်	-10.8558
ခြင်း	-10.8559
ရှန်	-10.8567
▁အခွေ	-10.857
▁စရိုက်	-10.8576
▁အချော	-10.8579
▁မယ်မယ်	-10.858
▁နှိုင်း	-10.858
▁တင်းတင်း	-10.8581
▁အလှဆုံး	-10.8582
▁လွှာ	-10.8589
mo	-10.8592
▁ဆစ်	-10.8598
and	-10.863
▁ခင်ပွန်း	-10.8632
▁စိတ်နှလုံး	-10.8632
▁သုခမိန်	-10.8632
▁တစ်ပြိုင်နက်	-10.8632
▁ရှ	-10.8633
▁ကမ်းခြေ	-10.8633
▁စာလုံးပေါင်း	-10.8634
ရှူး	-10.8636
▁မိဘမဲ့	-10.8638
▁ထောက်ပြ	-10.8639
▁ဝိတ်	-10.864
▁အကျင့်	-10.8641
လျှောက်	-10.8644
အမြစ်	-10.8644
▁အခက်	-10.8651
▁ဝက်သား	-10.8657
▁ဦးတင်	-10.8659
ယိုင်	-10.866
▁ကိုယ်ဝန်	-10.866
▁၁၀၀၀၀	-10.8665
com	-10.8679
၁၀	-10.8683
▁အခေါ်	-10.8696
▁မနော	-10.8697
လဲ့	-10.8706
ခွံ	-10.8707
တဲ	-10.8713
▁ကင်မရာ	-10.8713
▁ပျံ့နှံ့	-10.8713
▁တယ်လီဖုန်း	-10.8713
▁အက္ခရာ	-10.8713
လျှောက်သွား	-10.8713
▁ဆိုင်းဘုတ်	-10.8713
▁လတ်တလော	-10.8713
ချော်	-10.8716
▁ကျောက်စိမ်း	-10.8716
?	-10.8718
7	-10.8718
▁အမြီး	-10.8724
▁ဝါဆို	-10.8735
သမ	-10.8741
▁ဖြောင့်	-10.8754
▁လူဆိုး	-10.8769
လျှော	-10.8775
ခြုံ	-10.8782
တိမ်	-10.8792
▁ကျကျ	-10.8792
▁မှုံ	-10.8792
▁ငလျင်	-10.8795
ight	-10.8795
တင်ဦး	-10.8795
▁ဂျူဗင်တပ်စ်	-10.8795
▁ပီပီ	-10.8799
▁ဓာတ်အား	-10.88
▁တည်းခို	-10.8802
သင့်	-10.8805
ဆင်းရဲ	-10.8811
▁ဝိဇ္ဇာ	-10.8816
ကဒ်	-10.8817
ူဆယ်	-10.8817
န္န	-10.8817
▁ပွေ့	-10.882
▁အော်သံ	-10.8829
များ၊	-10.883
▁လက်ဖက်	-10.8837
၄၉	-10.8846
၅၈	-10.8848
▁အသုံးမ	-10.8854
ကျေ	-10.8857
ဖီးလ်	-10.886
▁ချော့	-10.8877
▁မြေငှား	-10.8878
▁ဥက္ကာခဲ	-10.8878
▁နွားနို့	-10.8878
▁အမှာ	-10.8879
▁ဆန်းစစ်	-10.8879
ခါး	-10.8885
(	-10.8885
▁အကျဉ်းသား	-10.8886
▁လုပ်ပိုင်ခွင့်	-10.8889
ဖောက်	-10.8891
▁ပန်းတိုင်	-10.8892
▁ဝဝဝ	-10.8894
ကျယ်ဝန်း	-10.8897
▁ရှိခိုး	-10.89
ချဉ်	-10.8902
စကား	-10.8904
နော်	-10.891
▁ကာရန်	-10.8911
▁လမ်းခွဲ	-10.8921
အီ	-10.8924
▁အမေး	-10.8932
ဝဝဝ	-10.8946
▁အရှည်	-10.8947
▁ကိုယ်စီ	-10.8948
▁ပြစ်	-10.8949
ဘိုင်	-10.8949
▁ပြတိုက်	-10.8949
▁လှုံ့ဆော်	-10.8961
▁အွန်လိုင်း	-10.8961
▁ဖွားမြင်	-10.8962
ဒေဝ	-10.8964
▁ခရိုင်ဝန်	-10.8964
▁တပ်မှူး	-10.8969
▁အလိုရှိ	-10.897
ဖုန်း	-10.897
▁ပေါင်းစည်း	-10.8974
ss	-10.8975
ဆီး	-10.8976
▁ညှိ	-10.898
▁အလှည့်	-10.8981
▁ဒိုး	-10.8983
မိုက်ရိုင်း	-10.8988
▁အဖတ်	-10.8988
ကိ	-10.899
▁ရသ	-10.8996
▁ပြောပြ	-10.9002
▁a	-10.9004
နုတ်	-10.901
▁တူမ	-10.9027
ဖြေ	-10.903
▁တိမ်း	-10.9031
▁ဆန္ဒပြ	-10.9038
ညှင်း	-10.9042
▁ပုန်ကန်	-10.9045
▁အဆက်အသွယ်	-10.9045
▁ရှိရှိ	-10.9045
▁ဝံ့	-10.9045
▁ပျိုးထောင်	-10.9046
▁ဦးနေ	-10.9046
▁ဆောင့်	-10.9047
▁ပုဆိုး	-10.9047
▁ရုပ်သိမ်း	-10.9048
▁၇၀၀	-10.9049
▁တိုးပွား	-10.9053
▁ရွှေထူး	-10.9061
▁ဇာတ်ဆောင်	-10.9062
▁အနီးကပ်	-10.9067
▁တမျိုး	-10.907
▁စိမ်	-10.9079
▁ပင့်	-10.908
သိပ်	-10.9085
▁ဝဝ	-10.9086
၈၃	-10.9089
▁အပိုင်	-10.9093
▁မျော	-10.9097
▁အသေး	-10.9098
တိုက်ဆိုင်	-10.9099
▁ဇင်	-10.9107
မည်	-10.9114
သင့်	-10.9124
▁သီး	-10.9128
တလော	-10.9129
▁ဓါး	-10.913
▁လန်ဒန်	-10.913
▁ဝန်းရံ	-10.9131
▁စင်စစ်	-10.9132
▁ကိုယ်ဝန်ဆောင်	-10.9132
▁အေဒီ	-10.9138
ရတနာ	-10.9139
▁ခလုတ်	-10.914
၁၃	-10.9141
▁အခွင့်	-10.9147
ရာဇာ	-10.9154
▁အကွာ	-10.9158
▁အပြိုင်	-10.9158
▁တစ်နေ့	-10.9158
▁ကျိုက်	-10.9162
ဝပ်	-10.9164
၁၉	-10.9165
▁ဦးရေ	-10.9167
▁ဆတ်	-10.918
ဟတ်	-10.9185
age	-10.9198
▁သီချင်းလေး	-10.9205
▁၄၃	-10.9209
ွမ်း	-10.921
ပျာ	-10.921
ဆုံ	-10.9213
÷	-10.9215
▁ကွန်မြူနစ်	-10.9215
▁ခရိုနီ	-10.9215
▁ရာဇာဓိရာဇ	-10.9215
▁ဟိဟိ	-10.9215
လွှဲ	-10.9217
▁ဟူး	-10.9217
▁ပူးတွဲ	-10.9218
▁ရှူး	-10.9219
▁ချောင်းဆိုး	-10.922
▁သီဆို	-10.9221
▁ခရမ်း	-10.9224
%	-10.9225
၇၆	-10.9244
ကလေးသူငယ်	-10.9253
▁သိုင်း	-10.9254
ူကြမ်း	-10.9261
▁လိုက်ပါ	-10.9273
▁ကာချုပ်	-10.928
▁မျိုးရိုး	-10.9288
▁၄၀၀	-10.9297
sh	-10.9298
▁တာမွေ	-10.93
▁Myanmar	-10.9301
▁စီးကရက်	-10.9301
▁ထပ်တူထပ်မျှ	-10.9301
▁နက်ဖြန်	-10.9301
▁အကြောင်းအရင်း	-10.9301
▁ဦးဇင်း	-10.9301
▁အာဇာနည်	-10.9302
လွှမ်း	-10.9312
▁ရှင်ဓမ္မ	-10.9312
▁ပေါင်းသင်း	-10.9312
ရေးသမား	-10.9313
ity	-10.9318
▁ပန်းသီး	-10.9321
ve	-10.9325
▁ထူးခကျွန်	-10.9329
▁ဖွ	-10.933
အဝန်း	-10.9332
▁ကုလ	-10.9333
▁မြောင်း	-10.9338
▁ယူဆောင်	-10.9338
▁နားမ	-10.9345
ကရီ	-10.9347
▁အညို	-10.936
▁လရောင်	-10.9367
ဘုန်း	-10.9377
ညှာ	-10.9386
▁အမော	-10.9387
▁အန်ကယ်	-10.9389
ပေမဲ့	-10.9389
▁အအေးမိ	-10.939
▁ဇွတ်	-10.939
▁ဖိတ်ကြား	-10.939
▁စွက်	-10.9391
▁စုံတွဲ	-10.9391
▁×	-10.9392
▁ငယ်ရွယ်	-10.9394
▁သွန်း	-10.9397
တွယ်	-10.9398
▁၃၀၀၀	-10.9401
▁ပုံရိပ်	-10.9411
ကျန်	-10.9416
▁ပါတယ်	-10.9418
▁ကတုံး	-10.942
လွန်း	-10.9427
▁လှော်	-10.9427
▁ချဉ်	-10.943
▁သန့်	-10.9435
▁မင်းတရား	-10.9439
လျှံ	-10.944
▁သောက	-10.9445
၇၃	-10.9446
ရု	-10.9452
ဒ္ဒ	-10.9452
▁လုပ်သား	-10.9459
▁အဖ	-10.9459
လိုး	-10.9461
ပြဲ	-10.9474
▁သေနာပတိ	-10.9475
▁ကီလိုမီတာ	-10.9476
▁ကိုလိုနီ	-10.9476
▁ဘူမိ	-10.9477
▁နုတ်ထွက်	-10.9477
▁နွားမ	-10.9478
▁မြစ်ကမ်း	-10.948
လင်းလင်း	-10.9482
▁ကြွက်သား	-10.9484
▁သဇင်	-10.9485
▁အမြစ်	-10.9487
၌	-10.9489
▁အသုံးဝင်	-10.9494
▁ဇေယျာ	-10.9494
▁ဒို	-10.9494
နွမ်း	-10.9494
▁ဘဘကြီး	-10.95
ဌ	-10.9501
▁အမ်	-10.9509
▁တန်းစီ	-10.9512
▁မင်္ဂလာဆောင်	-10.9516
အီး	-10.9517
▁အဖမ်း	-10.9518
ထွင်	-10.952
▁နှစ်ဆယ်	-10.9531
၆၉	-10.9533
ကျယ်လောင်	-10.9539
ဖွဲ	-10.954
▁တပ်သား	-10.9545
အိုင်	-10.9547
၉၉	-10.9547
▁ဥပ	-10.955
ဟင်းလျာ	-10.9556
ကိုင်း	-10.9559
▁ရှိုး	-10.9559
ဂုံ	-10.9563
▁တည့်တည့်	-10.9565
▁အမှုထမ်း	-10.9566
▁ဘူတာရုံ	-10.9566
▁အေဂျင်	-10.9566
▁ခေါက်ဆွဲ	-10.9567
ဖြာ	-10.957
▁ဩ	-10.9573
▁ရောင်စုံ	-10.9575
▁လျှောက်လွှာ	-10.9578
▁လင်းလွန်	-10.9581
▁ခုခံ	-10.9585
▁လက်ချောင်း	-10.9594
ap	-10.9595
▁အနိုင်ယူ	-10.9599
▁လှိုင်သာ	-10.961
▁ရှိုက်	-10.9614
၆၈	-10.9614
▁အားမ	-10.9617
ော့	-10.9618
▁ပို့စ်	-10.963
▁ခြင်းလုံး	-10.9635
▁မြင်သာ	-10.9642
ာနံ	-10.9651
၈၆	-10.9652
ก	-10.9654
▁ပြည်ထဲရေး	-10.9654
▁မြဝတီ	-10.9654
▁မြက်ခင်း	-10.9655
▁စက္ကန့်	-10.9655
▁😠	-10.9656
▁အနောက်တိုင်း	-10.9662
▁w	-10.9669
▁ကျူး	-10.9676
ကာလ	-10.9682
▁၅၅	-10.9682
ry	-10.969
ell	-10.9701
အသား	-10.971
▁ကြီးကြပ်	-10.9711
▁In	-10.9713
▁ကန့်	-10.9714
▁ခြစ်	-10.9716
ငါး	-10.9723
ကံ	-10.9725
▁စူး	-10.9731
▁အောင်အောင်	-10.9731
▁ဗိုလ်မှူး	-10.9731
ယုတ်	-10.9739
▁အလွန်အ	-10.9743
လွယ်	-10.9743
▁ခန္ဓာ	-10.9743
▁အစ္စလာမ်	-10.9744
▁ပြန့်ပွား	-10.9744
▁သစ္စာဖောက်	-10.9745
▁ကြံစည်	-10.9746
▁ခြေစမ်း	-10.9747
▁ဝိုး	-10.9748
▁မတ်တတ်	-10.9748
▁လုံးလုံး	-10.9754
▁အယောက်	-10.9757
ဝတ္ထု	-10.9759
▁စွယ်စုံကျ	-10.9768
▁စာဆို	-10.977
ဂွ	-10.9772
▁နှောင်း	-10.9775
၈၄	-10.978
▁နေ့ခင်း	-10.9788
ငဲ	-10.9799
၅၇	-10.9806
▁နှိမ်	-10.9806
▁မှော်	-10.981
ခုံး	-10.9821
ရထား	-10.9822
▁De	-10.9824
၄၆	-10.9825
ယင်	-10.9831
▁ကိုယ်ခန္ဓာ	-10.9835
▁တိုးမြှင့်	-10.9835
▁ဘွန်ဒက်စ်လီဂါ	-10.9835
▁မန်နေဂျာ	-10.9835
▁အထောက်အပံ့	-10.9835
▁မောင်နှမ	-10.9835
▁ရူပဗေဒ	-10.9835
▁နုပျို	-10.9836
ရင်ဟို	-10.9836
ess	-10.9837
းရီးယား	-10.9837
▁မာယုသ	-10.9837
▁အခြေစိုက်	-10.9838
▁သွေးကြော	-10.9838
နီးကပ်	-10.9841
▁အပျို	-10.9842
ကျော်စွာ	-10.9844
▁ဂိုးသွင်း	-10.9854
ဘုံ	-10.9855
▁ပြုမူ	-10.9857
▁နိုင်ငံ့	-10.986
▁ငြိ	-10.9862
▁ပေမဲ့	-10.9862
နူ	-10.9862
▁တော်ဝင်	-10.9868
အလာ	-10.9868
▁ဝုန်း	-10.9872
▁St	-10.9875
၂၀၁၃	-10.9886
ဗျ	-10.9888
▁လက်သီး	-10.9894
▁မြို	-10.9896
ဂျက်	-10.9896
▁နောင်တ	-10.9897
၂၃	-10.9906
▁အဆင်သင	-10.9911
ဆင့်	-10.9915
▁တိရိစ္ဆာန်	-10.9927
▁ကမ္ဘောဇ	-10.9927
▁ဖက်ဒရယ်	-10.9927
▁သာဓက	-10.9927
▁အကဲခတ်	-10.9928
▁ဖျော်ရည်	-10.9928
▁လွယ်လွယ်	-10.9928
▁တိတိ	-10.9928
▁ကြမ်းတမ်း	-10.9929
▁မြမြ	-10.9931
ခိုက်	-10.9931
▁ထိထိရောက်	-10.9937
▁စန္ဒ	-10.9938
▁ဈေးကြီး	-10.9938
▁မအူဝဲ	-10.9939
▁စေ့စပ်	-10.9941
▁ဆင်ဖြူ	-10.9942
▁ချုပ်ဆို	-10.9947
▁သို့ဖြစ်	-10.9949
▁ဇော	-10.9952
▁ယွန်း	-10.9959
ဉ္စ	-10.997
မပေး	-10.9975
သန်စွမ်း	-10.9975
င့်	-10.9988
▁နော့	-10.9995
▁အထာ	-11.0003
တုံ့	-11.0004
▁ခွေးသား	-11.0016
လွဲ	-11.0019
▁များသောအားဖြင	-11.0019
▁ချီးမြှင့်	-11.0019
▁ဒက်ဒီ	-11.0019
▁ပုဏ္ဏား	-11.0019
▁ယေဘုယျ	-11.0019
▁သီးသန့်	-11.0019
▁ငြင်းပယ်	-11.002
ha	-11.0021
▁တင်းနစ်	-11.0021
▁မျက်တောင်	-11.0023
▁လွှဲအပ်	-11.0023
▁ပုလဲ	-11.0023
နှိပ်	-11.0029
စားစား	-11.003
▁သူရ	-11.0036
လျောက်	-11.0037
၈၁	-11.0038
▁ဗေဒ	-11.0039
▁သောက်သုံး	-11.0041
▁စစ်တမ်း	-11.0044
▁ကကျွမ်း	-11.0053
▁ဘော်	-11.006
ပြည့်	-11.0068
▁ရင့်	-11.0078
ဟု	-11.008
▁h	-11.0093
▁နိုင်စွမ်း	-11.0093
၁၆	-11.0096
▁အကြမ်း	-11.0103
▁ပျား	-11.0112
ร	-11.0112
▁ပူတာအို	-11.0113
▁မသိမသာ	-11.0113
▁သမိန်ဗြတ်ဇ	-11.0113
▁ဟိန္ဒူ	-11.0113
ั	-11.0113
▁ပကတိ	-11.0113
▁University	-11.0113
▁မိုးသောက်	-11.0117
▁အသေးစား	-11.0118
စောင့်	-11.0123
▁လွှဲခ	-11.0133
ပက်	-11.0134
▁တောင့်	-11.0135
▁ပေးချေ	-11.0139
ကုတ်	-11.014
▁နေ့ရက်	-11.0143
▁၃၇	-11.0147
ကိုကို	-11.0154
မြန်း	-11.016
▁မြုပ်	-11.0166
▁မည်း	-11.0195
▁ဟက်	-11.0196
▁ခမ်းနား	-11.0207
▁သဝဏ်	-11.0207
▁အာနိသင်	-11.0207
▁သိသိသာသာ	-11.0207
▁ဘေဘီ	-11.0207
▁သင်္ချာ	-11.0207
▁ကံထူးရှင်	-11.0208
▁စီးရီး	-11.0212
တစ်ပါး	-11.0213
▁ပွင့်လင်း	-11.0213
▁တစ်စ	-11.0219
▁ဂိုဏ်း	-11.022
▁အခိုက်	-11.0221
▁ရန်၊	-11.0224
မှီ	-11.0225
▁ယိမ်း	-11.0227
▁မခိုင်	-11.0228
ခကျွန်	-11.0228
▁၃၃	-11.0232
ow	-11.0232
၁၄	-11.0234
▁အစွန်း	-11.0236
၂၈	-11.0238
အသင်း	-11.0243
▁ဂရု	-11.0251
▁ဦးဝင်း	-11.0252
မောင်မြင့်	-11.0253
▁ကျေးဇူးရှင်	-11.0253
စုတ်	-11.0257
▁မှတ်ယူ	-11.026
နိမ့်	-11.026
▁ပရိ	-11.0261
ယောက်	-11.0264
SA	-11.0267
▁ဦးလှ	-11.0268
▁စွ	-11.0268
▁အားဆေး	-11.0268
ယော	-11.0269
လန်းဆန်း	-11.027
ထစ်	-11.0282
ခြည်	-11.03
▁ထောင့်	-11.0302
ม	-11.0302
▁အခွင့်အလမ်း	-11.0302
▁အသုံးအနှုန်း	-11.0302
ျက်နှာချင်းဆိုင်	-11.0302
▁စွန့်ပစ်	-11.0304
▁ညီမျှ	-11.0305
▁လန်	-11.0312
▁တွေးတော	-11.0313
ပျ	-11.0314
▁တော်ကြာ	-11.0316
▁ဆက်နွယ်	-11.032
န္ဒ	-11.0331
▁စကားပြော	-11.0335
ဉာဏ်	-11.0336
▁တရားမ	-11.0343
ဆိတ်	-11.0345
▁ကျုံး	-11.0346
▁ဦးစွာ	-11.0353
၇၄	-11.0355
▁စကားပုံ	-11.0369
▁နေမာ	-11.0371
▁အလုပ်ရှင်	-11.0373
▁တွယ်	-11.0383
aw	-11.0387
▁တစ်သိန်း	-11.039
▁ပထဝီ	-11.0398
▁ဒေါ့မွန်	-11.0399
▁လုံချည်	-11.0399
man	-11.0401
▁သက်ကြီး	-11.0402
▁အလုံ	-11.0412
▁မနှစ်	-11.0414
ပြယ်	-11.0415
▁လူပျို	-11.0417
▁လဲလှယ်	-11.0418
ကြုတ်	-11.0419
LD	-11.042
က်ဇ်	-11.0422
▁ဆင်းရဲသား	-11.0427
▁နှိုး	-11.0428
ှင်းပြ	-11.0429
▁ဂရိ	-11.0434
▁ရောင်ခြည်	-11.0443
▁ရနံ့	-11.0445
▁တန်ဆာ	-11.0445
မြူ	-11.0446
မွေ့	-11.0455
▁နေရောင်ခြည်	-11.0466
▁လှဲ	-11.0469
min	-11.0471
▁ယေ	-11.0471
▁မှို	-11.0476
▁၉၀	-11.0478
၉၁	-11.0482
▁ပြခန်း	-11.0487
ို့	-11.0491
ဝှမ်း	-11.0494
▁ကမ်းရိုးတန်း	-11.0495
▁ခိခိ	-11.0495
▁တိုကျို	-11.0495
▁ဘားအံ	-11.0495
▁ရွှင်လန်း	-11.0496
▁အဆင့်အတန်း	-11.0497
▁ဆွဲငင်	-11.0498
▁တွေးခေါ်	-11.0499
ပြည်လုံး	-11.05
ရှုံး	-11.05
▁လပြည့်	-11.0507
မှုံ	-11.0509
▁ထင်း	-11.0512
▁စိတ်မချ	-11.0512
▁စံတော်	-11.0516
▁ထန်း	-11.0516
ပြုတ်	-11.0517
အုန်း	-11.0517
▁တလ	-11.0518
▁အပြင်း	-11.0518
၀၇	-11.052
အော်	-11.0522
▁မသာ	-11.0525
▁ရိပ်သာ	-11.0527
▁အလာ	-11.0529
▁အသံထွက်	-11.0535
▁ကုန်တိုက်	-11.0537
▁အပြစ်တင်	-11.0541
▁စာတိုက်	-11.0545
အနား	-11.0549
▁အမိုး	-11.0556
ce	-11.0558
▁သုံးဆယ်	-11.0558
▁ဘုတ်	-11.0563
ဖုံး	-11.0567
၈၇	-11.0591
ship	-11.0593
▁ကာဗွန်	-11.0593
▁နိဗ္ဗာန်	-11.0593
▁အနော်ရထာ	-11.0593
▁ဩစတြေးလျ	-11.0593
▁နှယ်	-11.0593
▁နယူးယောက်	-11.0594
▁အကာအ	-11.0594
▁အင်တာဗျ	-11.0594
▁သီးသန့်	-11.0594
▁အက်သလက်တီကို	-11.0594
▁😷	-11.0594
▁အသင်	-11.0594
▁ရိုးမ	-11.0596
▁ပုံသဏ္ဌာန်	-11.0597
▁တရားမဝင်	-11.0598
▁ငွေချေး	-11.0601
▁တွန့်	-11.0604
ရှီ	-11.0604
▁လျှောက်ပြော	-11.0608
▁သိန်းစိန်	-11.0615
သေတ္တာ	-11.0618
အုံး	-11.0624
▁လိ	-11.0628
ငင်	-11.0629
▁”	-11.0632
▁ယို	-11.0637
ကြဲ	-11.0641
▁လူစု	-11.0641
၇၂	-11.0644
▁လူကောင်း	-11.0654
▁ကာယ	-11.0662
မတ်မတ်	-11.0669
▁ဆူး	-11.0673
▁Ma	-11.0675
▁နွေး	-11.0683
က္ကူ	-11.0685
▁ပိတောက်	-11.0693
ဖြဲ	-11.0693
▁နွေးထွေး	-11.0694
▁ဟောပြော	-11.0694
▁လက်ဖက်ရည်ဆိုင်	-11.0695
▁ငါးရာ	-11.07
▁ဖော်ဆောင်	-11.0702
▁၄၂	-11.0706
သည်း	-11.071
▁ချော်	-11.0713
လွှင့်	-11.0716
ကြက်	-11.0719
▁လော်	-11.0722
▁ဝေးဝေး	-11.0725
ုး	-11.0731
▁ဂျူ	-11.0733
ta	-11.074
▁စစ်ရေး	-11.0743
၃၇	-11.0749
ေါ	-11.075
▁၀၀	-11.075
▁အသွား	-11.0755
ဂေါ	-11.0758
ဒိုး	-11.0766
ဇက်	-11.0772
▁ချုံ	-11.0777
ကနဲ	-11.078
၀၀၀၀	-11.078
လိမ်	-11.0783
▁and	-11.0787
▁စင်္ကြံ	-11.0792
▁မဲဆန္ဒနယ်	-11.0792
▁မွတ်စလင်	-11.0792
▁ရိဃုပတိ	-11.0793
▁သူတော်ကောင်း	-11.0793
▁သဘောမတူ	-11.0793
▁မော်တော်ကား	-11.0793
▁😱	-11.0794
▁ချိတ်ဆွဲ	-11.0794
▁မနက်ခင်း	-11.0798
မှောင်	-11.0802
▁သရုပ်	-11.0804
▁ခူး	-11.0806
▁ချောချော	-11.0807
▁အပ်နှံ	-11.081
ဖောင်	-11.081
▁အလျား	-11.0812
▁မွန်း	-11.0816
ပိတ်ရက်	-11.0819
▁ပစ်မှတ်	-11.0828
ဒေါင်း	-11.083
▁Pa	-11.0833
▁တက်တက်	-11.0836
စို	-11.0839
၃၃	-11.0841
▁အသင့်	-11.0844
▁အိမ်ကွင်း	-11.0845
အသတ်	-11.0847
▁ရေကြောင်း	-11.085
▁ငှာ	-11.0852
နှော	-11.0855
▁ခြယ်	-11.0858
▁အိမ်ရာ	-11.0866
▁ငွေစု	-11.0881
ဘဝ	-11.0885
อ	-11.0893
▁ဆည်းပူး	-11.0893
▁သေနင်္ဂ	-11.0893
▁အဆုံးအဖြတ်	-11.0893
▁ကရုဏာ	-11.0893
▁စာကြည့်တိုက်	-11.0893
▁အစီစဉ်	-11.0894
▁စူးစမ်း	-11.0894
▁ငိုကြွေး	-11.0895
▁စူပါ	-11.0896
▁စိတ်တို	-11.0898
▁မှီခို	-11.09
’	-11.0904
ဖွင့်	-11.0906
▁တွဲဖက်	-11.0907
▁နန်းဆောင်	-11.0912
▁ခေတ်သစ်	-11.0913
▁ဖြုန်း	-11.0917
▁ပရ	-11.0917
▁အိပ်ခန်း	-11.0918
▁အတို	-11.0921
▁နပ်	-11.0923
▁ချစ်မ	-11.0938
▁အဲလို	-11.0954
ွင်ပြင်	-11.0955
▁သမီးတော်	-11.0963
▁မိုင်း	-11.0964
မန	-11.0965
စွ	-11.0995
▁ခိုလှုံ	-11.0996
▁ဂုဏ်သိက္ခာ	-11.0996
▁ဖိုက်တင်း	-11.0996
▁မဲဆွယ်	-11.0996
▁လူနေမှု	-11.0996
▁အရွယ်အစား	-11.0996
▁လုပ်အား	-11.0997
▁ချိုင့်	-11.0998
▁ငှားရမ်း	-11.0999
၉၇	-11.1002
▁စစ်တွေ	-11.1003
▁ကျည်	-11.1004
အန်	-11.1012
▁ပါမစ်	-11.1012
▁ညှစ်	-11.1016
▁လက်ဆွဲ	-11.1018
အက်	-11.1022
▁နေရောင်	-11.1033
၂၀၁၂	-11.1034
ရာဇ်	-11.1044
▁သတင်းစဉ်	-11.1051
မ်းမျှ	-11.1065
▁စွန်	-11.1073
▁ရှယ်	-11.1084
၁၁	-11.1088
▁Al	-11.1094
▁ဒက္ခိဏ	-11.1099
▁ပလတ်စတစ်	-11.1099
▁အကွာအဝေး	-11.1099
▁ဒကာမကြီး	-11.1099
▁အများအားဖြင	-11.11
▁သုဇာ	-11.1101
▁စွန့်လွှတ်	-11.1101
ျော်လွန်	-11.1102
▁ယာဉ်မောင်း	-11.1103
ac	-11.1105
▁တင်ဆက်	-11.1109
ဘိ	-11.1113
▁ကိုယ်ကျိုး	-11.1114
ub	-11.1117
▁အားငယ်	-11.112
▁Se	-11.1123
▁လိုးမ	-11.1126
▁အနိုင်ရ	-11.1127
▁ခံစစ်	-11.1135
▁ဆယ့်	-11.1135
art	-11.1139
▁အကဲ	-11.1142
ငုံ	-11.1143
ဒူး	-11.1143
ပိန်း	-11.1145
၀၈	-11.1148
▁တယော	-11.1156
▁Mar	-11.1158
သန	-11.1167
▁မိုက်မိုက်	-11.1175
်ကေး	-11.1183
▁သဗ္ဗ	-11.1188
ခိုင်မြဲ	-11.1191
▁အိမ်ရှေ့	-11.1192
▁မြူး	-11.1195
▁၄၈	-11.1198
▁ကိသကိန္ဒာ	-11.1203
▁တူရိယာ	-11.1203
▁ရွှံ့	-11.1203
▁သင်္ချိုင်း	-11.1203
▁သမ္မာ	-11.1203
▁စာရွက်စာတမ်း	-11.1203
▁ဂျာမန်	-11.1203
▁တူးလော့	-11.1203
ဂိတ်စ်	-11.1204
▁ပူပြင်း	-11.1207
▁မူလတန်း	-11.1209
▁လတ္တံ	-11.1209
▁မေခိုင်	-11.1213
▁ကုန်စည်	-11.1218
▁အပြည့်အ	-11.1223
▁တည်တည်	-11.1229
ဗား	-11.1231
K	-11.1232
ဖုံ	-11.1235
▁မိသင်	-11.1241
၉၀	-11.1244
သာယာ	-11.1244
▁အားသာ	-11.1251
ရင့်	-11.1255
▁ဓားပြ	-11.1263
▁တောင်းခံ	-11.1271
မပြု	-11.1272
ဗင်	-11.1283
ကျဲ	-11.1288
▁ဖြည့်စွက်	-11.1308
ကျယ်ပြန့်	-11.1308
▁ငဲ့	-11.1308
▁စူးရှ	-11.1308
▁💛	-11.1308
▁တစ်ချို့	-11.1309
▁စော်ဘွား	-11.1309
▁အဆင့်ဆင့်	-11.1309
▁ဟဲလို	-11.1311
▁မြေခွေး	-11.1311
▁ပိုင်ရှင်မဲ့	-11.1311
▁ဂုဏ်ထူး	-11.1312
▁နုတ်	-11.1315
▁သစ်ရွက်	-11.1316
၁၂	-11.1317
အိ	-11.1321
▁ချက်ပြုတ်	-11.1321
ပြုံး	-11.1322
▁သမာဓိ	-11.1326
ဘူ	-11.1326
▁အတန်	-11.133
မြှင့်	-11.1338
ပျော့	-11.1339
▁နောက်ကွယ်	-11.134
▁လဆန်း	-11.1342
▁Q	-11.1343
မယ့်	-11.1343
▁ဗလ	-11.1349
ရဲ့	-11.1352
၅၆	-11.1353
▁အရွက်	-11.1355
▁စိတ်အား	-11.1363
▁၄၀၀၀	-11.1364
▁အကြော	-11.1375
▁အခွင့်	-11.1384
▁အတိ	-11.139
မစ်	-11.1394
၂၆	-11.1397
မခံ	-11.1399
▁မအေ	-11.1399
ပီပြင်	-11.1408
....	-11.1409
▁အကြွေ	-11.1412
▁တဆိတ်လောက်	-11.1414
▁နောက်ဆက်တွဲ	-11.1414
▁တံသမ္ပယုတ္တကာ	-11.1414
▁သိမ်မွေ့	-11.1415
▁ဗိ	-11.1415
▁မြစ်ဆုံ	-11.1416
▁တံတိုင်း	-11.1417
▁ဂြိုဟ်တု	-11.1419
▁အယူခံ	-11.1419
ist	-11.142
▁ရဲရင့်	-11.142
▁ခါးပတ်	-11.142
▁သွေးတိုး	-11.1425
မပျော်	-11.1432
▁အစဉ်အ	-11.1433
▁ကြပ်	-11.1436
၂၄	-11.1438
▁ပေါ့ပေါ့	-11.1441
▁ကျယ်ကျယ်	-11.1445
▁၁၀ဝ	-11.1453
လွတ်လပ်	-11.1454
သိမ်	-11.1457
▁အစွဲ	-11.1458
▁အလုပ်လုပ်	-11.1459
ချန်ပီယံရှစ်	-11.146
▁အယူ	-11.1464
▁ဘေ	-11.1469
ဒယ်	-11.148
▁for	-11.1484
▁အေးစက်	-11.1484
▁ဘင်	-11.1485
ထောင်း	-11.1492
မြီး	-11.1492
▁မြူ	-11.1495
ag	-11.15
up	-11.1508
▁အဆန်း	-11.1511
▁ကြွေး	-11.1517
ဘလူ	-11.1518
▁အတိုက်အခံ	-11.1522
▁နည်းစနစ်	-11.1522
▁မဏ္ဍိုင်	-11.1522
▁မျက်မှောင်	-11.1522
▁ပရီးမီးယားလိဂ်	-11.1523
▁ဇာတ်ခုံ	-11.1525
▁ခရု	-11.1525
▁လှည့်လည်	-11.1525
▁ရွှေကစ်	-11.1526
▁အသက်ကြီး	-11.1527
▁လှည်းတန်း	-11.1529
▁တော်တော်များ	-11.153
▁အဲသည်	-11.1531
ဘော်	-11.1532
▁ငွေလွှဲ	-11.1533
▁ဆွေး	-11.1533
▁စင်တာ	-11.1533
▁ကျောက်တန်း	-11.1536
ကြုံ	-11.1544
▁မှိုင်း	-11.1545
ill	-11.1545
တို့	-11.1546
၂၂	-11.1554
▁ဟိုင်း	-11.1554
▁အကောက်	-11.1559
၃၆	-11.1564
▁ပဉ္စမ	-11.1567
နဉ္စ	-11.1576
▁အစ်မတော်	-11.1579
ဖုတ်	-11.1586
▁ကွပ်	-11.159
သုန်	-11.159
၀၃	-11.1591
▁ညွှန်း	-11.1598
▁ကြေ	-11.1602
အယောင်	-11.1604
▁၃၈	-11.161
၁၈	-11.1614
ဝတီ	-11.1615
မောင့်	-11.1619
▁ခွန်	-11.163
▁အစည်းအရုံး	-11.1631
▁နံဘေး	-11.1631
▁ကျောက်မျက်	-11.1631
▁ဦးခင်မောင်	-11.1631
▁ဦးဇော်ဇော်	-11.1631
▁ရန်ပုံငွေ	-11.1632
ကျယ်ပြန့်	-11.1632
▁မြောင်းမြ	-11.1632
▁အဖိုးတန်	-11.1632
▁မှန်မှန်ကန်	-11.1633
ဟွာ	-11.1633
act	-11.1636
▁ပျိုး	-11.1638
▁စာရင်းသေ	-11.1639
▁ရွှေဘို	-11.1641
▁ဂျူး	-11.1642
▁ထွန်းထွန်း	-11.1648
▁ရေပြင်	-11.1653
▁ထုံး	-11.1659
ab	-11.1666
▁ချက်၊	-11.1675
မဟာ	-11.1678
▁ထိပါး	-11.1681
▁20	-11.1691
▁ပို့ချ	-11.1691
▁ကယား	-11.1695
အဖွဲ့	-11.1698
▁ငုံ	-11.1699
စေး	-11.1713
▁ဖိုင်	-11.172
ဝေါ	-11.1721
ive	-11.1723
▁နီရဲ	-11.1723
▁ဖြို	-11.1735
▁ပျဉ်းမနား	-11.1741
▁ဗိသုကာ	-11.1741
▁သံတမန်	-11.1741
▁ညင်သာ	-11.1741
▁သင်္ကန်း	-11.1741
ကျွံ	-11.1741
▁ဧည့်ခန်း	-11.1741
▁ဥမင်	-11.1743
▁ချောမွေ့	-11.1746
တွက်	-11.1748
လ္လ	-11.1752
▁ဒင်း	-11.1752
▁နွေဦး	-11.1756
ောက်ခံ	-11.1758
▁ဘုရားကျောင်း	-11.176
▁၆၅	-11.1762
▁ချာ	-11.1762
▁၅ဝ	-11.1765
▁ရိက္ခာ	-11.1769
W	-11.1775
ကူးစက်	-11.178
▁လှံတံ	-11.1781
▁မမလေး	-11.1792
▁ယက်	-11.1799
▁၃၉	-11.1801
သက်ရှည်	-11.1816
▁၆၀၀	-11.1817
▁ဗိုလ်ကြီး	-11.1821
ညံ	-11.1825
▁ဟီ	-11.183
▁ပျဉ်	-11.1837
▁တလော	-11.1843
ex	-11.1846
▁ရေဘေး	-11.1847
▁......	-11.1847
ယပ်	-11.1851
▁ကျွမ်းကျင်	-11.1852
▁ထို့အတူ	-11.1852
▁အကျိုးကျေးဇူး	-11.1852
▁ပါဠိ	-11.1852
▁ဒြပ်ထု	-11.1852
▁အယူဝါဒ	-11.1852
▁ထူထပ်	-11.1853
နှစ်ခြိုက်	-11.1854
ဂျစ်	-11.1858
▁နီးနီး	-11.1859
▁ထိပ်သီး	-11.1861
▁အကျုံး	-11.1861
▁ဣ	-11.1863
▁ဆင်တူ	-11.1866
▁.....	-11.1873
▁ဟိုက်	-11.1873
▁လပြည့်	-11.1876
▁ခွဲဝေ	-11.1878
ငှာ	-11.1883
လွင့်	-11.1886
ကွန်ရက်	-11.1888
အလျောက်	-11.1896
▁ကလေးမ	-11.1897
▁၃၄	-11.1913
▁မွေးစား	-11.192
ချေး	-11.1922
▁ဖုတ်	-11.1933
▁ဗမာ့	-11.1944
▁အောင့်	-11.1944
ဟိန်း	-11.1945
ဒူ	-11.1962
▁ချီးမွမ်း	-11.1964
▁မွမ်းမံ	-11.1964
▁အသုံးအဆောင်	-11.1964
▁ခွေးမသား	-11.1964
▁အဂတိလိုက်	-11.1964
▁နှာဘူး	-11.1965
▁၂၀၁၁	-11.1966
▁အရိပ်အ	-11.1966
▁ပခု	-11.1972
ပါးရ	-11.1972
▁ဘုရားကြီး	-11.1973
ဒေါင်	-11.1973
▁ကျောင်းဆရာ	-11.1976
▁ပျို	-11.1982
▁ဝှေ့	-11.1983
မျော	-11.1987
▁နိမ့်	-11.1992
▁အမြောက်အမ	-11.1994
ကြေ	-11.1995
▁မျိုးချစ်	-11.1999
▁တိုတို	-11.2001
•	-11.2001
▁တတ်မြောက်	-11.2001
▁တော်ရုံ	-11.2003
▁အားလပ်	-11.2006
ပျစ်	-11.2008
▁ဦးသန့်	-11.2009
▁ပြတင်း	-11.2013
ance	-11.2024
သူရ	-11.2031
ဆောင်း	-11.2031
ဘဲ	-11.2032
▁၃၀၀	-11.2042
တပါး	-11.2042
▁မင်းညီ	-11.2044
tion	-11.2044
▁အိုက်	-11.2045
▁သံလွင်	-11.2053
▁ကျန်းမာရေး	-11.2058
▁လောကကြီး	-11.2064
▁ဆရာတော်ကြီး	-11.2067
မဟုတ်	-11.2068
ဗို	-11.2068
ပြက်	-11.2069
ထမ်း	-11.2069
▁အမေရိက	-11.207
ဒစ်	-11.2071
အမြတ်	-11.2075
▁လင်္ကာ	-11.2077
▁ပုဆိန်	-11.2078
▁ဖူလ်ဟမ်	-11.2078
ညှို့	-11.2078
▁ပရိုတင်း	-11.2078
▁တင်းကျပ်	-11.2079
စင်း	-11.2082
▁ပိုင်နက်	-11.2083
▁ဝပ်	-11.2084
▁Ro	-11.2084
▁ကျော့	-11.2087
▁ဟောကြား	-11.2087
▁ခေါင်	-11.2087
▁တပ်မှူးလေး	-11.2091
▁ဦးသိန်း	-11.2092
▁မိုးလ	-11.2094
▁မာယာ	-11.2094
ide	-11.2099
စွပ်	-11.2101
▁မနက်စာ	-11.2104
▁ဒေါက်	-11.2104
၃၈	-11.211
▁ထုတ်ကုန်	-11.211
▁မြန်ဆန်	-11.2112
ain	-11.2116
Y	-11.2116
သိုက်	-11.2118
▁ဝန်း	-11.2124
၈၈	-11.2141
ကြိုင်	-11.2146
ဖု	-11.2153
▁အပြတ်	-11.2162
မြင်း	-11.2175
▁ပစ်ထား	-11.2175
▁စံပြ	-11.2187
ย	-11.2192
လျှပ်	-11.2193
▁ရီးယဲယ်	-11.2193
port	-11.2193
▁မက်ဆေ့ချ်	-11.2193
▁ဖူဆယ်	-11.2194
▁ထုချေ	-11.2194
▁ကတ်ပြား	-11.2196
▁ထွေ	-11.2198
▁မြင်းစီး	-11.2201
▁ကတိပေး	-11.2201
▁Bu	-11.2205
▁ချစ်ကစ်	-11.2214
▁ကြက်သား	-11.2216
ဟေ	-11.2218
မကစ်ကစ်	-11.2226
ဟုန်	-11.2236
▁သဘာဝကျ	-11.2239
▁အခွင့်ရေး	-11.2244
▁သူဌေးကြီး	-11.2253
to	-11.2259
▁ကိုအောင်လ	-11.226
▁နှိမ်န	-11.2263
သို	-11.2277
▁အကူ	-11.2284
တစ်စ	-11.229
▁ပြတ်ပြတ်	-11.229
ဂရမ်	-11.2298
▁တရားတော်	-11.2306
่	-11.2309
▁ဖီအိုရင်တီ	-11.2309
▁ဘဂဝါ	-11.2309
▁မတော်တဆ	-11.2309
ค	-11.2309
စိုင်းခမ်းလှိုင်	-11.231
▁ဆပ်ပြာ	-11.231
▁ပုတီး	-11.2313
ဗက်	-11.2315
▁ရေတွက်	-11.2325
▁အလွဲ	-11.2327
ချောင်	-11.2339
▁ပဝါ	-11.2339
ကြောက်	-11.2341
▁ဇွန်း	-11.235
စရိတ်	-11.2355
▁ပုပ်	-11.2357
na	-11.2365
ခြစ်	-11.2366
ည်	-11.2372
IA	-11.2375
ဝမ်း	-11.2376
▁သီဟ	-11.2379
နန္ဒာ	-11.2382
ca	-11.2385
sk	-11.2386
၆၆	-11.2394
one	-11.2398
သို့	-11.2402
▁လေလေ	-11.2402
န္တု	-11.2405
▁လက်ချက်	-11.2406
▁ရွာသူ	-11.2415
ကြဉ်	-11.242
ေဝသ	-11.2425
▁ဒေးဗစ်	-11.2426
▁ဂျီဒီပီ	-11.2427
▁နာကြည်း	-11.2427
▁တီဗီ	-11.2427
▁ဘိုးဘွား	-11.2427
▁ဂန္ဓ	-11.2428
▁ဦးစီးချုပ်	-11.2428
▁ငြင်းဆန်	-11.243
▁ဇီး	-11.2434
ဘင်	-11.2436
ဟား	-11.2446
ပြီး	-11.2455
မိုက်	-11.2455
ကျန်း	-11.2456
တွန်	-11.2459
၆၃	-11.2479
ခြယ်	-11.2483
ပြူး	-11.2484
ိမ်း	-11.2489
အဲ	-11.2491
▁ပရို	-11.2505
ဟီ	-11.2507
ကစ်	-11.2507
နက်ရှိုင်း	-11.2512
▁ဂျာ	-11.2517
ig	-11.2519
▁နဲ	-11.2532
▁n	-11.2532
▁လက္ခဏ	-11.2543
ส	-11.2545
▁ဒေါ်ဒေါ်	-11.2546
▁အလှအပ	-11.2546
▁အဟုတ်	-11.2546
▁ရည်ညွှန်း	-11.2546
▁ဘင်္ဂလား	-11.2546
၉၄	-11.2546
▁မျက်မှောက်	-11.2547
▁ခေါင်းအုံး	-11.2549
▁ဆူပူ	-11.2549
▁ရွှေမှုံ	-11.2552
▁ပန်းပွင့်	-11.2552
▁အဆင့်မြင့်	-11.2553
▁သတိရှိ	-11.2561
ber	-11.2561
▁bank	-11.2561
▁ရုပ်ရည်	-11.2567
▁မွှေ	-11.2568
▁ကျင်း	-11.2569
ကျူး	-11.2572
ဒီး	-11.2574
▁မီးရောင်	-11.2575
ဝ်	-11.2577
▁စုဝေး	-11.258
ချန်	-11.258
▁အတွင်းဝန်	-11.2582
▁အရွယ်ရောက်	-11.2584
ဂိတ်	-11.2589
▁ဦးသန်း	-11.259
သတ္တဝါ	-11.259
▁အရီး	-11.2591
▁စွတ်	-11.2596
▁ပွဲစား	-11.2597
▁အင်ဒို	-11.2598
ကိန်း	-11.2602
▁ဆွတ်	-11.2603
▁မျိုးနွယ်	-11.2603
၆၇	-11.2605
▁ဂကျွန်	-11.2608
ဖို့ဒ်	-11.2612
con	-11.2613
▁မချော	-11.2613
IT	-11.2634
ရွန်	-11.2642
▁၈၈	-11.265
လှောင်	-11.2651
▁ပြန်ဆို	-11.2653
ပ်ဆိုင်း	-11.2661
▁ဗကပ	-11.2666
▁သင်္ကေတ	-11.2666
▁အရင်းအနှီး	-11.2666
▁အိုလဂါ	-11.2666
▁တို့ဗမာ	-11.2666
▁တပည့်တော်	-11.2666
▁အံဝှက်	-11.2666
ရုဏ်	-11.2667
တီးရီးယား	-11.2668
▁စုံထောက်	-11.2668
စ္ဆ	-11.2668
▁ထွီ	-11.2669
ပရိ	-11.2669
▁ဝတ္	-11.267
▁ပြေးလွှား	-11.267
▁ကြက်တောင်	-11.2672
▁မျှော်စင်	-11.2674
▁အရင်တုန်း	-11.2678
▁ဒေါ်သန်း	-11.2678
၉၅	-11.2682
▁အလွယ်	-11.2685
▁နာယက	-11.2686
▁အပျိုကြီး	-11.2688
ဖွင့်	-11.2698
ဖောင်း	-11.27
ထိန်	-11.2704
▁ကိုင်ဆောင်	-11.271
ns	-11.2711
▁လွှင့်	-11.2716
▁သုံးဆောင်	-11.2719
ကျင့်	-11.272
သိုး	-11.2727
▁တစ်ဝန်း	-11.2742
iv	-11.2777
ွီ	-11.2782
ဈာန်	-11.2788
▁ခြောက်သွေ့	-11.2788
▁ဗန်းမော်	-11.2788
▁မဖြစ်မ	-11.2788
▁ကြဲ	-11.2789
▁st	-11.2789
▁တိတ်တိတ်	-11.2789
▁စံပယ်	-11.2789
▁ပုတ်ခတ်	-11.279
▁လွတ်လပ်ခွင့်	-11.279
▁နတ်ရွာ	-11.2791
မဏိ	-11.2792
က္ကန့်	-11.2795
▁မီးတောက်	-11.2795
▁ဗျည်း	-11.2799
▁စိတ်ကောက်	-11.2804
▁ကိုယ်ခံ	-11.2805
▁ကျင်	-11.2807
က္ကာ	-11.281
▁ဗိုလ်ချုပ်ကြီး	-11.2815
▁ညွန့်	-11.2819
လှည့်	-11.2821
▁ငယ်စဉ်	-11.2832
▁ဟော့	-11.2834
းကား	-11.2836
▁ရွံ့	-11.2837
▁ရူပ	-11.284
▁ပုံး	-11.284
▁စကားသံ	-11.2847
▁ပစိ	-11.2853
▁ပေါ့ပါး	-11.2854
▁မြှုပ်	-11.2857
▁နှေး	-11.2862
▁ဘာညာ	-11.2864
▁သာသာ	-11.2866
▁တကာ	-11.2867
စိုင်	-11.2869
▁ငွေသား	-11.2874
▁ကလောင်	-11.2877
▁၄၉	-11.2879
▁ဟိန်း	-11.2882
▁ဦးစိုး	-11.2887
▁တပေါင်း	-11.2887
လျှို	-11.2903
▁စတုရန်း	-11.2911
▁ညစ်ညမ်း	-11.2911
▁နယူးဇီလန်	-11.2911
▁ဟတ်ဒါး	-11.2911
▁အာဂျင်တီးနား	-11.2911
ဝိညာဏ	-11.2911
ဘို့မယ်	-11.2912
ချို့တဲ့	-11.2912
▁ဝိညာဉ်	-11.2912
▁တူးဖော်	-11.2913
▁ရေကူးကန်	-11.2914
▁သပ်သပ်	-11.2914
▁ငြား	-11.2915
▁ကံထူး	-11.2915
▁ဝတ်မှုန်	-11.2915
▁ဥတု	-11.2915
▁အရှေ့မြောက်	-11.2916
▁တစ်ခါတည်း	-11.2917
▁ပပျောက်	-11.2917
▁ဆင်ခြေ	-11.2918
▁ဟွန်း	-11.2918
▁ဈေးဝယ်	-11.2921
▁ဦးမောင်	-11.2923
▁လက်ဝဲ	-11.2931
၄၈	-11.2933
▁လက်ဝါး	-11.2936
▁ဘဝင်	-11.2936
ong	-11.2938
▁အလတ်	-11.2939
▁နံ့	-11.2944
▁ရှုံးနိမ	-11.2948
င်းမဲ့	-11.2952
▁သမိုင်းဝင်	-11.2953
▁ရွှန်း	-11.2955
ပူရ	-11.2956
ထောင့်	-11.2957
ကိုက်	-11.2958
ဆန္ဒ	-11.2962
ya	-11.2969
▁ခံတွင်း	-11.2976
လဝန်	-11.2978
▁၅၀၀၀	-11.2981
▁ချစ်ကြည်	-11.2984
pro	-11.2984
ကွေး	-11.2985
▁မုန်းတီး	-11.2988
အောက်	-11.2989
▁ဒါန	-11.2992
စုရုံး	-11.2992
▁မျို	-11.2999
၈၉	-11.3001
▁Tra	-11.3001
လောက	-11.3005
ဥမ္မာအောင်	-11.3008
▁သင့်တော်	-11.301
ဒမ်	-11.3011
▁တစ်မျိုး	-11.3015
▁ခွင်	-11.302
▁နွမ်း	-11.302
ice	-11.3026
▁ထဲက	-11.303
▁စစ်ဌာနချုပ်	-11.3036
▁စာပိုဒ်	-11.3036
▁အဓိပတိ	-11.3036
▁ဂရုတစိုက်	-11.3036
▁မိနဲ	-11.3036
▁💘	-11.3037
▁ပုစွန်	-11.3037
▁ကွဲလွဲ	-11.3038
ရှစ်	-11.3042
▁မိန်းမပျို	-11.3043
▁လည်ချောင်း	-11.3043
ဌာန	-11.3044
▁အပြင်းအ	-11.3045
▁မိုးကြိုး	-11.3047
▁မီးမီး	-11.3048
အိုကေ	-11.3057
▁အခွံ	-11.3058
ကျေး	-11.3059
▁ခရီးဆောင်	-11.3068
ie	-11.3073
ဇော	-11.3074
ပါယ်	-11.3075
ဖြင့်	-11.3079
▁၀၂	-11.3079
▁CB	-11.308
▁မှုခင်း	-11.3085
၁၇	-11.3086
နှေး	-11.3089
▁မိကျောင်း	-11.309
▁Vi	-11.3097
စည်သူ	-11.3098
▁ဘယ့်နှယ်	-11.3101
ဝဝဝဝ	-11.3107
စက်စက်	-11.3112
▁ဟားဟား	-11.3117
မြူး	-11.3142
▁အဆောက်အဦ	-11.3155
လီး	-11.3159
▁ရင်နာ	-11.3161
▁ဇင်းမယ်	-11.3163
▁နန်းရင်းဝန်ကြီး	-11.3163
▁ဘယ်လ်ဂျီယံ	-11.3163
▁သုဝဏ္ဏ	-11.3163
▁သုသာန်	-11.3163
▁အဘိဓမ္မာ	-11.3163
▁ခြေလျင်	-11.3163
▁အကြပ်မှူး	-11.3163
▁ဖိနှိပ်	-11.3163
▁ဆိုရှယ်လစ်	-11.3163
▁စွန့်ပစ်	-11.3165
▁အဘိုးအို	-11.3165
▁re	-11.3165
▁ဆော်ဒီ	-11.3165
▁ဆန်းသစ်	-11.3167
▁ထိုးဖောက်	-11.3168
ction	-11.3172
▁ကျော်လွှား	-11.3172
▁ပေါ်ထွန်း	-11.3173
▁ပယ်ချ	-11.3173
▁တရားပြိုင်	-11.3179
▁တပ်ရင်း	-11.3187
▁ဆေးကြော	-11.3192
▁ဈေးသည်	-11.3195
အောင်း	-11.3196
ပုပ်	-11.3197
▁တောင်ထိပ်	-11.3198
မှာ	-11.3201
▁ဖျော်	-11.3207
▁မြည်း	-11.3207
▁ရှေ့တန်း	-11.3214
ပလ္လင်	-11.3215
ကကျွတ်	-11.3224
▁Sh	-11.3234
▁ခြေရာ	-11.3235
▁သျှ	-11.3235
ထိုင်း	-11.3237
▁သတင်းပေး	-11.3253
ဖား	-11.3255
ညင်း	-11.3256
ant	-11.3259
▁ဒူ	-11.3264
သန်းရွှေ	-11.3288
ထေရ်	-11.3291
▁ခရစ္စမတ်	-11.3291
▁သုသျှင်	-11.3291
▁ဂီယာ	-11.3291
▁ကြံ့ဖွတ်	-11.3291
▁သူနာပြု	-11.3291
▁အင်ဂျင်	-11.3292
ဒေဝီ	-11.3293
▁ဟောပြောပွဲ	-11.3295
▁ဂေါက်	-11.3295
▁မင်းရဲ	-11.3296
▁ကိုက်ခဲ	-11.3297
သွယ်ဝိုက်	-11.3302
▁ကျန်ရစ်သူ	-11.3303
▁ထမင်းစား	-11.3304
▁အစွန်	-11.3307
▁ထိုးသတ်	-11.3309
▁အမှီ	-11.3311
မ္ပ	-11.3311
ဏာ	-11.3319
အတွင်း	-11.332
၅၂	-11.3326
▁တိုက်ခတ်	-11.3331
▁အစောင့်	-11.3337
▁ထက်သန်	-11.3338
▁ကျောင်းတိုက်	-11.3339
▁နေပူ	-11.3339
မို့	-11.3342
ထုန်း	-11.3345
▁လမ်းကြား	-11.3347
▁Pro	-11.3351
▁စူ	-11.3356
ဘာသာ	-11.3357
▁ဂျက်	-11.3358
tic	-11.3367
▁ပလ္လင်	-11.3368
▁လက်စ	-11.3371
ကော်	-11.3386
အဖ	-11.34
bo	-11.3408
၅၉	-11.3413
ဏ္ဏ	-11.3418
▁ရိတ်	-11.3418
▁စပ်လျဉ်း	-11.342
▁ညဉ့်	-11.342
▁နယ်သာလန်	-11.3421
▁ဘိုင်ယန်မြူးနစ်	-11.3421
▁သဒ္ဒါ	-11.3421
▁လက်ပံ	-11.3421
▁နှမ်း	-11.3421
▁အငြိမ်းစား	-11.3421
▁သီတင်းကကျွတ်	-11.3421
▁ချာတိတ်	-11.3421
▁ဖျာ	-11.3422
▁နာဂစ်	-11.3422
ကြမ္မာ	-11.3423
▁ပိန်း	-11.3423
▁ကိုကွက်ကြီး	-11.3424
ရမ်	-11.3425
လီမန်	-11.3426
ပုံး	-11.3429
▁တလွဲ	-11.3431
▁ပင်လယ်ပြင်	-11.3432
▁ရေယာဉ်	-11.3435
▁တွေ့ကြုံ	-11.3435
▁အလှည့်	-11.3436
မားမား	-11.3438
▁Le	-11.3441
ast	-11.3443
▁ငိုင်	-11.3454
▁မြန်မာတိုင်း	-11.3454
▁မိုးလင်း	-11.3455
ုမာန်	-11.3455
လိမ်း	-11.3458
▁နေခြည်	-11.3458
▁လက်မှု	-11.3467
ထဲ	-11.3467
▁ဘတ်ဂျ	-11.3472
ဗိုလ်	-11.3473
▁ကာတာ	-11.3475
▁ဆန့်	-11.3477
ခွေး	-11.3479
▁ဝေလ	-11.3479
▁ဒိုင်း	-11.3484
▁ပါးပါး	-11.3484
ချိတ်	-11.3486
▁အဝိုင်း	-11.3488
ိမ်	-11.3488
▁အထပ်	-11.3489
pp	-11.3495
▁ဝှက်	-11.3495
ွင်း	-11.3495
ရင့်ကျက်	-11.3498
ပြတ်သား	-11.3498
▁ပုထိုး	-11.3502
့ကြောင့်	-11.3518
ရွတ်	-11.3519
▁မျိုးချစ်စိတ်	-11.3529
ဒေသ	-11.3535
▁ဘောက်	-11.3542
စွဲလမ်း	-11.3546
▁အထက	-11.3549
▁ချောက်ချား	-11.3553
▁ဌာပနာ	-11.3553
▁ဒဿနိက	-11.3553
▁အလေးအနက်	-11.3553
▁အောက်ဆီဂျင်	-11.3553
▁မြောက်မြား	-11.3553
▁Internatio	-11.3553
▁အလျဉ်	-11.3553
▁တံတွေး	-11.3553
▁သဒ္ဓါ	-11.3553
▁မူးယစ်ဆေး	-11.3554
▁တလျှောက်	-11.3555
▁စာသင်ခန်း	-11.3556
ဖြန်း	-11.3556
ရှားရှား	-11.3556
▁ရုပ်ဆိုး	-11.3561
▁ဗလီ	-11.3561
▁တောအုပ်	-11.3561
▁ပရိတ်	-11.3561
▁ဂုတ်	-11.3563
▁ကြေးတိုက်	-11.3564
▁ကော်မတီ၊	-11.3567
ဆုပ်	-11.3567
ci	-11.3568
ers	-11.3571
▁အဖုံး	-11.3572
av	-11.3578
▁ညိတ်	-11.3585
▁စသဖြင့်	-11.3587
▁ဦးသန့်	-11.3592
ral	-11.3593
▁ရပ်တန	-11.3594
၄၂	-11.3602
ပွန်	-11.3603
စေတီ	-11.3613
▁တန်းတူ	-11.3614
▁Con	-11.3614
ress	-11.3615
▁အသဲလေး	-11.3623
တိပြု	-11.3623
▁သိသိ	-11.3645
မြတ်နိုး	-11.3646
▁၅၆	-11.3653
၈၂	-11.3663
ng	-11.3671
▁၆၃	-11.3671
▁အတောင်	-11.3678
မျှင်	-11.3682
▁ဓါတ်	-11.3685
▁မာရီယာ	-11.3686
▁Space	-11.3686
နန်းစောရှင်	-11.3686
▁မကျေမ	-11.3686
▁နွမ်းနယ်	-11.3687
▁ဇီးကွက်	-11.3687
▁ကိုဝလုံး	-11.3687
▁အိုင်းစ	-11.3688
▁ဖန်ခွက်	-11.3689
▁ဝီ	-11.3689
▁ဖန်ဆင်း	-11.369
▁ခက်ထန်	-11.3691
▁4	-11.3691
▁ကူးသန်း	-11.3694
▁အဖက်	-11.3694
▁လက်စွပ်	-11.3694
▁သင့်တော်	-11.3698
▁ပြေစာ	-11.37
ok	-11.3703
▁ခြေရင်း	-11.3704
▁အကြောက်	-11.3705
▁ပျို့	-11.3706
▁အပေါ်ယံ	-11.3707
▁မော်တော်	-11.3707
▁ကြာရှည်	-11.3714
▁သတ္တမ	-11.3716
၂၉	-11.3719
▁အခေါက်	-11.3721
▁၅၄	-11.3724
10	-11.3726
▁ထစ်	-11.3727
ဝှက်	-11.3745
သျှ	-11.3745
!	-11.3745
ဖက်သတ်	-11.3747
ဘုတ်	-11.3754
▁Ar	-11.3758
ပွတ်	-11.3761
▁ရေပန်း	-11.3762
▁ဒေါ်မြ	-11.3766
▁အရိုက်	-11.3767
▁ဦးပိုင်	-11.3777
▁တသက်	-11.3778
တင့်	-11.3778
အစ	-11.379
လှမ်းမ	-11.3795
▁ဗာ	-11.3796
▁တွန်	-11.3799
၄၃	-11.3801
ဉ်း	-11.3814
▁ဟစ်	-11.3814
▁Ph	-11.3818
ဝါးဝါး	-11.3819
▁ငရုတ်	-11.382
ा	-11.3821
ရူးသွပ်	-11.3821
▁ဒရိုင်ဘာ	-11.3821
▁ဝိဟာရ	-11.3821
▁ဟင်းသီးဟင်းရွက်	-11.3821
▁အထီးကျန်	-11.3821
🏻	-11.3821
▁မေတ္တာရပ်ခံ	-11.3821
▁ဟုတ်ဟုတ်	-11.3821
▁စီးရီးအေ	-11.3822
▁နယ်ချဲ့	-11.3822
▁အတတ်ပညာ	-11.3822
▁တုန့်	-11.3823
▁ဖအေ	-11.3823
▁ဝိတ်တန်း	-11.3824
▁ဂျော့	-11.3825
သဲ	-11.3826
▁သက်ပြင်းချ	-11.3827
est	-11.3832
▁သယောင်	-11.3835
▁ဒကာ	-11.3837
▁စွန့်စား	-11.3838
မယ့်	-11.3839
▁ရော်နယ်လ်ဒို	-11.3842
▁အပု	-11.3843
ော်ဘီ	-11.3845
▁ကွဲ့	-11.3853
မြှုပ်	-11.3863
နွေး	-11.3866
▁ဆံ့	-11.3869
▁ဇုန်	-11.3876
▁ပိုဒ်	-11.3879
▁အဆွေ	-11.3885
ရှပ်	-11.3886
ိန္ဒ	-11.3887
▁အဆစ်	-11.3888
ပုထိုး	-11.3889
ပြည့်ဝ	-11.3891
ညစ်	-11.3895
▁ကြော	-11.3897
▁ဟာန	-11.3903
▁ပျူ	-11.3904
▁ပဉ္စ	-11.3905
မော့	-11.3906
သရေ	-11.3909
▁၄ဝ	-11.3913
▁ကွန်ရက်	-11.3915
ran	-11.3916
▁အရေးတ	-11.3919
လို့	-11.3921
▁သိုက်	-11.3926
▁သဟ	-11.3941
▁မိုးရေ	-11.3946
▁7	-11.3949
da	-11.3949
၀၉	-11.3956
▁ချေပ	-11.3956
▁ပိဿာ	-11.3958
▁အနိစ္စ	-11.3958
▁ဆင်းတုတော်	-11.3958
▁သံအမတ်	-11.3958
▁လျစ်လျူရှု	-11.3958
▁ကိုအငဲ	-11.3958
▁ချော်ချော်	-11.3958
▁အီဂျစ်	-11.3959
▁ယီး	-11.3961
▁ဟင်္သာတ	-11.3961
▁ဗေဒင်	-11.3961
▁ယာဉ်ကြော	-11.3961
▁ထောင်း	-11.3962
▁လွယ်အိတ်	-11.3964
▁လိုးမသား	-11.3965
▁မြင့်မြတ်	-11.3965
▁အထ	-11.3965
▁ရပ်ရွာ	-11.3968
▁သံလိုက်	-11.3973
▁ကိုကြီးစိုင်း	-11.3975
▁တနေ့	-11.3977
သွယ်သွယ်	-11.3981
▁အမိုက်	-11.3983
▁အော့	-11.3983
▁ရက္ခိုင်	-11.3984
၀၄	-11.3986
▁နိုင်ငံသူ	-11.3988
▁အရေ	-11.3989
▁လှောင်	-11.3995
ကျည်	-11.4
▁မျိုးစေ့	-11.4005
▁ကျောင်းတက်	-11.4009
ညွှန်း	-11.4011
ဆုတ်	-11.4016
ခန့်	-11.4021
ဗုဒ္ဓ	-11.4021
ရှိုက်	-11.4023
ဒဂုံ	-11.4023
ဇေ	-11.4032
ase	-11.4035
▁ညောင်း	-11.4043
▁ငံ	-11.4054
▁ပြည်သား	-11.4061
▁ယောက်ဖ	-11.407
နိုင်း	-11.4089
▁အားကောင်း	-11.4092
ညာဉ်	-11.4096
▁ငြီးငွေ့	-11.4097
▁ယန္တရား	-11.4097
▁ဘုန်းတော်ကြီး	-11.4097
▁ကြွေးကြော်	-11.4097
▁ဆန်းကြယ်	-11.4097
▁မိုဒရစ်	-11.4097
▁အထပ်ထပ်	-11.4098
▁မှောင်ခို	-11.4098
▁ဒူးထောက်	-11.4098
▁အရှင်ဘုရား	-11.4098
▁ဘော်ဒါ	-11.4099
▁ဘရိတ်	-11.41
▁စစ်ခွေး	-11.4103
▁ဂွတ်	-11.4105
▁ရတနာပုံ	-11.4106
▁အငယ်ဆုံး	-11.4107
▁အဆင့်မြင့်	-11.4114
ယာဉ်	-11.4116
▁ဆရာချစ်	-11.4117
▁စစ်သူ	-11.4119
▁ဗြဟ္မာ	-11.412
မငယ်	-11.4124
▁မေစု	-11.4125
▁တနှစ်	-11.414
▁တောင်ခြေ	-11.4145
ဆိုက်	-11.4151
ပူး	-11.4151
▁စဉ်ဆက်	-11.4151
▁ရေတပ်	-11.4154
▁အစ္စ	-11.4155
၉၃	-11.4163
ကျင်လည်	-11.4163
▁NC	-11.4165
ဗူး	-11.4169
▁ကြောက်လန့်	-11.4171
▁ဆိုက်ကား	-11.4174
▁တော်တော်လေး	-11.4175
ွိုင်	-11.4179
ခပ်	-11.4182
▁ပစ်ချ	-11.4204
ဆော်	-11.4205
▁မင်းသားလေး	-11.4212
ကျွတ်	-11.4216
▁ဆက်သ	-11.4217
မြည်	-11.4217
▁လျှံ	-11.4218
▁ဘုန်းမော	-11.4225
▁အမရ	-11.4233
▁အလဲ	-11.4233
▁အကျပ်အတည်း	-11.4238
▁အချုပ်အခြာ	-11.4238
▁အသည်းနှလုံး	-11.4238
▁အိုင်ဗရီကို့	-11.4238
▁ဂန္ထ	-11.4238
▁နှောင့်	-11.4238
▁😳	-11.4238
▁ဆိုင်းမိုင်	-11.4239
▁ယမန်	-11.424
▁အဓိဋ္ဌာန်	-11.424
▁သီးသီး	-11.424
▁ကွက်တိ	-11.4241
ဒက်	-11.4242
▁စစ်ဗိုလ်	-11.4243
▁သံချပ်	-11.4245
▁ဧရာ	-11.4248
▁အမျက်	-11.4248
▁ရောနှော	-11.4248
▁အဆိုပြု	-11.4249
▁သရ	-11.4249
▁ခင်ဝင့်ဝါ	-11.425
▁ကျို	-11.4266
ဟဲ	-11.428
▁ပတ်လုံး	-11.4281
▁ရဲတိုက်	-11.4283
၃၉	-11.429
▁လိုအင်	-11.4293
စိမ်	-11.4298
▁အခ	-11.4302
တုပ်ကွေး	-11.4305
ကြိတ်	-11.4305
▁ကျောက်တော်	-11.4305
▁ထက်ထက်	-11.4306
မွန်း	-11.4309
စန္ဒာ	-11.431
▁တောသား	-11.4314
▁နိုင်ငံကူး	-11.4333
▁အချိန်အခါ	-11.4338
▁အနည်း	-11.4342
▁စွယ်စုံ	-11.4342
▁မြို့တော်ဝန်	-11.4348
▁၂၀၀၆	-11.4356
လည်လည်	-11.437
▁တာချီလိတ်	-11.4381
▁ဘိသိက်	-11.4381
▁လိုက်လျော	-11.4381
▁တစ်နေကုန်	-11.4381
▁ကမန်းကတ	-11.4381
▁ဖဆ	-11.4381
▁ငိုးမ	-11.4381
န္ဓ	-11.4384
▁ပူလောင်	-11.4384
▁အပိုဒ်	-11.4384
ung	-11.4385
▁သက်မွန်	-11.4385
▁For	-11.4386
▁သြ	-11.4387
▁အစ်ကိုတော်	-11.4388
TM	-11.439
▁အခွင့်အ	-11.4393
▁သွေးလွန်	-11.4394
▁မိဖြူ	-11.44
▁ဝတ်ရုံ	-11.4401
ဆိပ်	-11.4401
▁x	-11.4403
▁မှတ်စု	-11.4405
▁မှန်းဆ	-11.4409
ရိယ	-11.4411
▁ရှေးဦး	-11.4411
▁ဖေါက်	-11.4411
စကီး	-11.4419
▁5	-11.4422
▁မျက်နှာသစ်	-11.4423
ical	-11.4426
ear	-11.4428
ဆိုးဝါး	-11.4436
ရင်းနှီး	-11.4437
ယေ	-11.444
ဗေ	-11.444
ဒွန်	-11.4459
နက	-11.4464
မြက်	-11.4473
အယှက်	-11.4474
▁ဓ	-11.4477
ဆယ့်နှစ်	-11.4479
▁Bo	-11.4488
းနီးယား	-11.4492
ချမ်းသာ	-11.4492
▁ဗြ	-11.45
▁ခရေ	-11.4501
ဘယ်	-11.4502
▁၂၀ဝ	-11.4506
သုခ	-11.4508
▁ဆိုဖီ	-11.4517
▁၇၅	-11.4517
ဖ်	-11.4518
ပြင်းပြင်းထန်ထန်	-11.4526
▁တေးဂီတ	-11.4526
ငြီး	-11.4526
▁အိုဇေး	-11.4526
▁တစ်စိတ်တစ်	-11.4526
▁ဖီဖာ	-11.4526
သွက်	-11.4526
▁တံခွန်	-11.4526
▁သီပေါ	-11.4526
▁ကြက်သွန်ဖြူ	-11.4527
▁လေယာဉ်ပျံ	-11.4529
▁ခေါင်းကိုက်	-11.4529
▁ဧည့်ခံ	-11.4529
▁မီးခြစ်	-11.453
▁သယ်ပိုး	-11.453
▁မိုးကုတ်	-11.453
▁ဖောက်ဖျက်	-11.4531
သုဉ်း	-11.4532
▁သီလရှင်	-11.4534
▁လက်သည်း	-11.4536
▁မြေပဲ	-11.4537
မုခ	-11.4538
▁စက်ကွင်း	-11.4539
▁ကျောက်ကပ်	-11.4539
ဇီဝ	-11.4542
▁ဘုရားဖူး	-11.4545
▁အဖွင့်	-11.4546
▁မိုးတွင်း	-11.4549
▁လောကီ	-11.455
ဂတ်	-11.4554
▁ပင်လုံ	-11.4561
▁အဂ္ဂ	-11.4561
လိမ်ညာ	-11.4564
အမျှ	-11.4569
▁ဆေးရုံကြီး	-11.4577
▁တင့်	-11.458
▁ယူနစ်	-11.4581
က်တန်	-11.4583
မွန်မွန်	-11.4584
NA	-11.4591
▁ငါးဆယ်	-11.4591
ာယ	-11.4592
တည့်	-11.4596
▁ရှည်ရှည်	-11.462
အမြန်	-11.4621
မွန်ထော	-11.4624
ားချပ်	-11.4645
▁ဇက်	-11.465
▁ရေစီး	-11.4655
မ္ဗ	-11.4656
လယ်စာ	-11.4665
▁အားတက်	-11.4665
▁အစ်ကိုကြီး	-11.4667
ian	-11.4668
▁ရေစက်	-11.4671
▁မုတ္တမ	-11.4673
▁လက်ဖဝါး	-11.4673
▁ဝန်ဇင်း	-11.4673
▁သွက်သွက်	-11.4673
▁အက်ဥပဒေ	-11.4673
▁နိမိတ်	-11.4673
▁ဒွေး	-11.4673
▁ဒဿန	-11.4673
မြှောင်	-11.4673
▁ဖယောင်းတိုင်	-11.4673
▁ပြေပြစ်	-11.4673
▁ပေါင်မုန့်	-11.4674
▁ကိတ်	-11.4674
▁အပြည့်အစုံ	-11.4674
▁ဆီးနှင်း	-11.4674
▁မြစ်ဝှမ်း	-11.4675
▁နှစ်သစ်ကူး	-11.4675
▁လုယက်	-11.4675
▁ငလူး	-11.4676
▁အစာအိမ်	-11.4678
▁👌	-11.4678
▁ပိုးသတ်	-11.4678
▁မျက်နှာဖုံး	-11.4681
ပက	-11.4681
တွာ	-11.4682
▁ခရီးလမ်း	-11.469
▁ကောင်းချီး	-11.4691
်တန်	-11.4705
မဆိုး	-11.4724
▁သင်တန်းသား	-11.4727
▁မြို့သစ်	-11.4743
နှိုက်	-11.4747
ကြွား	-11.4748
▁၅၉	-11.4752
ကျောက်စီ	-11.4753
▁အထင်မ	-11.4757
▁ကွာဟ	-11.4762
▁အစစ	-11.4772
▁လက်ရေး	-11.4778
▁ငြိမ်ငြိမ်	-11.4781
▁နန္ဒ	-11.4787
▁ဓမ္မာန	-11.479
လှယ်	-11.4792
▁၁၂၀	-11.4797
ောင်း	-11.4798
▁အချီ	-11.4805
အောင့်	-11.4812
ပင်း	-11.4818
▁လက်ခုပ်	-11.4821
▁မက်ဆေ့	-11.4822
▁ကညန၊	-11.4822
▁အခိုင်အမာ	-11.4822
▁ပစ္စယာ	-11.4822
▁နှိုးဆော်	-11.4822
▁ရည်စူး	-11.4822
▁ကျမ်းကျိန်လွှာ	-11.4822
▁မဘသ	-11.4823
▁••	-11.4823
▁အသုံးစရိတ်	-11.4823
▁မျက်စောင်း	-11.4824
▁ဂွမ်း	-11.4824
▁လင်းလက်	-11.483
၃၁	-11.4837
▁ဗလာ	-11.484
ကွ	-11.4843
နှောင့်ယှက်	-11.4843
ရိတ္တ	-11.4843
▁အသာအ	-11.4844
စွယ်	-11.4848
▁ဆုကြေး	-11.4849
ခြ	-11.4856
လျာ	-11.4863
ဆော	-11.4866
အောင်လှိုင်	-11.487
▁ရွှေစင်	-11.4875
ရှယ်	-11.4876
လူကြီး	-11.4878
▁ခန	-11.4883
res	-11.4883
▁အောင်မလေး	-11.4884
▁ဘက်စုံ	-11.4884
▁ဖတ်ပြ	-11.4885
▁မြေယာ	-11.4886
▁ဘာလီ	-11.489
အမေရိက	-11.4897
ဖြောင့်	-11.4898
ရုန်း	-11.4901
▁Cr	-11.4902
၂၀၁၉	-11.4902
▁ညား	-11.491
ကြွေး	-11.4917
▁စာတန်း	-11.492
သင်္ကာ	-11.4921
ပွင့်လင်း	-11.4921
▁ငွေတိုက်	-11.4928
တိမ်း	-11.4939
ပွေ	-11.4941
▁Pr	-11.4941
▁ခကျွန်	-11.4949
▁လမ်းဆုံ	-11.4951
ဗီး	-11.4956
▁လေးလံ	-11.4968
▁တောင်တက်	-11.4969
▁အပန်းဖြေ	-11.4973
▁သန်လျင်	-11.4973
▁သွပ်	-11.4973
ည်းမျဉ်းစည်းကမ်း	-11.4974
▁ကင်ညာ	-11.4974
▁တခါတလေ	-11.4974
ေမြို့	-11.4975
▁အင်စတာ	-11.4975
▁ဝန်ထောက်	-11.4975
▁Lo	-11.4975
▁ဗိုလ်စွဲ	-11.4976
▁တီးတိုး	-11.4979
▁gene	-11.4979
▁ချေမှုန်	-11.498
သင်္ဂဟ	-11.4981
▁ကြက်သီး	-11.4983
▁ပူပူ	-11.4983
▁ဖောက်သည်	-11.4985
ခိုင်ဖြိုး	-11.4986
▁ကြွရောက်	-11.4986
▁၆၂	-11.4987
▁စီးနင်း	-11.4988
▁ဖြစ်ဖြစ်	-11.4992
▁သလွန်	-11.4992
လှူ	-11.4994
နမ်	-11.5001
▁အငွေ့	-11.5001
ဆယ့်ငါး	-11.5002
ဇို	-11.5008
▁ခင်မောင်ကျော်	-11.501
ောင်	-11.5011
▁.........	-11.5012
▁ကိုယ်လုံး	-11.5014
▁ဝလုံး	-11.5021
▁လက်စား	-11.5028
▁အစိတ်	-11.5029
ဇာတ်ရုံ	-11.5031
▁သူရိယ	-11.5035
ဘန်	-11.5054
ကဗျာ	-11.5055
▁တစ်ခု	-11.5081
စာရင်း	-11.5085
ron	-11.5088
▁ရုံးတော်	-11.5089
တွ	-11.509
ခုတ်	-11.5093
ဝီ	-11.5104
▁ဧည့်	-11.5121
ကြူ	-11.5123
>	-11.5127
▁Bank	-11.5127
▁နက္ခတ်	-11.5127
▁ပဟေဠိ	-11.5127
▁သရဖူ	-11.5127
▁အစစ်အမှန်	-11.5127
▁ဘိုးဘိုး	-11.5127
▁စေတသိ	-11.5127
▁ဘူးသီးတောင်	-11.5127
ဓမ္မဓရ	-11.5128
▁အစုအဖွဲ့	-11.5128
လျောင်း	-11.5128
▁ရွတ်ဖတ်	-11.5128
▁ဆောင်ပုဒ်	-11.5129
ထွန်းအောင်	-11.5129
▁၂၀၁၀	-11.5131
▁နုနုငယ်	-11.5131
စုံစုံ	-11.5135
▁စောက်ပေါ	-11.5136
▁ဆိုက်ရောက်	-11.5136
▁နောက်ဆုတ်	-11.5139
▁အမဲသား	-11.5139
▁အရွေး	-11.5141
▁ဗန်း	-11.5143
▁အလယ်တန်း	-11.5143
▁စိုးဝင်း	-11.5146
▁နားရွက်	-11.5148
မင်းသား	-11.515
မှုန့်	-11.515
▁ဂျင်	-11.5154
▁အတာ	-11.5155
▁ဌာနချုပ်	-11.5156
၃၂	-11.5159
▁ဖီ	-11.5186
▁လှီး	-11.5189
▁တောင်ယာ	-11.5193
▁ထွက်ကုန်	-11.5194
▁မမေကြည်	-11.5196
နှင်	-11.5197
▁လက်ယာ	-11.5209
ဂုဏ်	-11.5209
▁ရာသက်	-11.5209
▁ရှုံ့	-11.521
▁လူသိ	-11.521
ထော	-11.5211
ရရ	-11.5211
သဘင်	-11.5212
cy	-11.522
ခနဲ	-11.5221
ဖိ	-11.5222
မြသီတာ	-11.5223
go	-11.5224
ဘစ်	-11.5228
▁Sa	-11.5229
ကွန်	-11.5246
ies	-11.5256
▁ဧည့်	-11.5277
▁မရွေး	-11.5278
▁ဒလ	-11.528
ညွှတ်	-11.528
▁ဒြပ်	-11.5282
▁ဖျတ်	-11.5282
▁အကျိုးအကြောင်း	-11.5283
เ	-11.5283
***	-11.5284
−	-11.5284
▁ချို့ယွင်း	-11.5284
▁မန်ချက်စတာ	-11.5284
▁လမ်းပန်းဆက်သွယ်	-11.5284
matter	-11.5284
▁မဏ္ဍပ်	-11.5284
▁မော်တော်ယာဉ်	-11.5284
▁ဇာမဏီ	-11.5284
▁မော်ဒန်	-11.5285
လဲလဲ	-11.5285
▁ဘိလပ်	-11.5285
▁၂၅၀	-11.5286
▁သန့်စင်	-11.5286
▁ပရိယာ	-11.5287
▁ဒေါ်ခင်နက်	-11.5287
▁ရွေးကောက်	-11.5287
စိန့်	-11.529
▁ပေါက်ဖွား	-11.5292
▁သန်းခေါင်	-11.5293
▁ချိုင်း	-11.5293
▁နယ်ပိုင်	-11.5295
▁လောင်စာ	-11.5296
သာသာ	-11.5297
▁ဗိုလ်ချုပ်မှူး	-11.5299
▁မောင်းထုတ်	-11.5301
▁သံဃာတော်	-11.5306
ကြပ်မတ်	-11.5308
▁လန့်	-11.5312
▁ပန်းရောင်	-11.5314
ff	-11.5315
▁ဟင့်	-11.5316
▁၄၄	-11.532
▁He	-11.5326
သားသား	-11.5328
▁ကော်မတီဝင်	-11.5329
ဇ္ဇ	-11.5335
▁လျာ	-11.5338
▁ဂွင်	-11.5343
iss	-11.5343
▁ချောမော	-11.5343
စရာ	-11.5351
ရွေး	-11.536
▁ငှက်ပျော	-11.5361
▁အချောင်	-11.5365
စာစောင်	-11.5368
ယုံ	-11.537
▁ရင်သွေး	-11.5372
▁၄၁	-11.5373
တွန်း	-11.538
ယိုး	-11.5392
ကျွန်တော့	-11.5397
▁ဦးမောင်မောင်	-11.5407
if	-11.5411
▁စလင်း	-11.5412
▁အမ်း	-11.5427
သိဒ္ဓိ	-11.5432
▁ရိပ်မိ	-11.5436
ဝင်းဝင်း	-11.5439
00	-11.544
ं	-11.5442
▁ရုပ်မြင်သံကြား	-11.5442
▁သက်ထားသူဇာ	-11.5442
▁နလက	-11.5442
▁အောင်လအန်ဆန်	-11.5442
ว	-11.5442
ဝီရသူ	-11.5442
。	-11.5443
▁လခွမ်း	-11.5443
▁ကန့်သတ်	-11.5444
▁သထုံ	-11.5444
▁☝	-11.5445
▁ရုပ်ပွားတော်	-11.5446
မွှား	-11.5449
▁အနိမ့်	-11.545
▁ဝန်ခံချက်	-11.545
▁ဟိတ်	-11.545
▁သဘာဝတရား	-11.5452
▁ကွင်းဆင်း	-11.5452
▁ပြိုင်ဖက်	-11.5453
အေးအေး	-11.5454
▁အပျင်း	-11.5454
ဂျေ	-11.5459
▁အဟုန်	-11.5461
▁သက်သေခံ	-11.5466
▁ကမ္ဘာမြေ	-11.5468
▁၆၆	-11.5473
▁သာသနာတော်	-11.5483
▁ရာကီ	-11.5488
ge	-11.5492
▁အောက်ခံ	-11.5492
▁အစုတ်	-11.5492
▁မိဖုရားကြီး	-11.5507
▁An	-11.5522
ကေး	-11.5523
ဖျောက်	-11.5527
မုန့်	-11.5529
ပတ်လည်	-11.5543
▁၄၆	-11.5547
ဟေး	-11.5551
ဟ်	-11.5572
▁လေးဆယ်	-11.5581
ပြစ်	-11.5584
▁ချစ်တုံး	-11.5585
လှေ	-11.5586
▁လင့်	-11.5587
တုရင်	-11.5593
▁ရန်ပုံ	-11.5601
တ္တံ	-11.5602
ี	-11.5603
र	-11.5604
▁ကိုနေကိုတိုး	-11.5604
▁နီကိုလိုင်	-11.5604
▁အညစ်အ	-11.5604
▁အဘိဓာန်	-11.5604
▁ဥဒပါဒိ	-11.5604
▁ကျူရှင်	-11.5604
▁လူနည်းစု	-11.5604
ท	-11.5604
▁မသက်မွန်	-11.5604
ခဲယဉ်း	-11.5604
▁ညံ့ဖျင်း	-11.5604
▁ပုဇွန်	-11.5604
▁လှောင်အိမ်	-11.5604
▁သရုပ်ဖော်	-11.5605
▁မြတ်စွာ	-11.5605
▁ဆောက်သမ	-11.5606
▁ကြေးနန်း	-11.5607
▁အကောင်းမြင်	-11.5607
▁၁၀၀၀၁	-11.5608
▁ပက်လက်	-11.5608
▁ခဲတံ	-11.5609
▁အလုံးအရ	-11.5613
▁စားပွဲထိုး	-11.5617
▁မောပန်း	-11.5617
▁အယုံ	-11.5618
▁ချက်ဖောင်း	-11.5619
▁လီဗာ	-11.562
▁အဆုတ်	-11.5622
▁Di	-11.5628
▁လွှဲငွေ	-11.5635
▁&	-11.5643
▁စမတ်	-11.5643
ဇံ	-11.5651
▁ဥမ္မာ	-11.5662
▁Th	-11.5668
▁Star	-11.5672
ကျုံး	-11.5678
▁ဖြူး	-11.568
အာဏာ	-11.5692
ကုလား	-11.5693
▁လုံးချင်း	-11.5695
စွန်	-11.5696
▁ငိုက်	-11.5698
သမျှ	-11.5705
▁သားရဲ	-11.5713
▁ကာရံ	-11.5713
▁ပုပ္	-11.5719
ဋိ	-11.5724
ကစား	-11.5729
ပြို	-11.5733
▁ဒေါ်အေး	-11.5737
ဘု	-11.5743
▁အနှောင့်	-11.5748
▁ခေါ	-11.5758
▁Mo	-11.5762
ညက်	-11.5766
▁ဆီမီးဖိုင်နယ်	-11.5768
▁AYA	-11.5768
▁စင်တီဂရိတ်	-11.5768
▁ဘိုးမွန်ခေါက်	-11.5768
▁ဘွန်ဒစ်လီဂါ	-11.5768
▁လိုဏ်ဂူ	-11.5768
▁အဝီစိ	-11.5768
▁သွက်လက်	-11.5768
ပွါး	-11.5768
▁အနစ်နာ	-11.5768
▁ဆည်းဆာ	-11.5768
▁မှူးမတ်	-11.5768
▁ပြောခွင့်ရ	-11.5768
▁အသက်မွေးဝမ်း	-11.5768
▁ဘိက္ခဝေ	-11.5768
▁ကဆုန်	-11.5768
▁ကညင်	-11.5768
▁တင့်တယ်	-11.5768
▁ရှေးဦးစွာ	-11.5768
▁ကိုထွန်းထွန်း	-11.5768
▁စည်ပင်သာယာ	-11.5769
▁လျော်ကြေး	-11.5769
▁ကနဦး	-11.5769
▁အဟိ	-11.5774
▁သိပ်သည်း	-11.5775
▁အလို့ငှ	-11.5775
▁ငေးမော	-11.5776
▁ညောင်ဦး	-11.5779
tor	-11.5784
ခံအား	-11.5785
ဒိုင်	-11.5787
▁၉၅	-11.5787
▁ဝင့်	-11.5788
၀	-11.5789
▁ငင်	-11.579
▁အခြ	-11.5793
▁သင်ရိုး	-11.58
▁တိုင်းမင်းကြီး	-11.5801
▁အလိမ်	-11.5809
▁ပဒ	-11.5812
မ္ဘ	-11.5812
ံဖန်	-11.5813
▁တွ	-11.5815
▁သန္တာ	-11.5816
▁ရဲမှူး	-11.5821
▁အပါး	-11.5823
မှုန့်	-11.5823
ဖျင်း	-11.5827
ငံ	-11.5829
အက်စ်	-11.5831
ိယ	-11.5833
လှပ်	-11.5843
▁ထူးထူး	-11.5847
der	-11.5854
▁မာမီ	-11.5857
သိုင်း	-11.5859
အိပ်	-11.586
ကျဉ်းမြောင်း	-11.5874
စောင်	-11.5878
▁သာသနာ့	-11.5888
▁ညီညီ	-11.5888
လှုပ်	-11.5897
▁to	-11.5911
▁ထွင်း	-11.593
အံ့တ	-11.5931
▁ကတ္တီပါ	-11.5934
▁တန်ဆောင်မုန်း	-11.5934
▁ပစ္ဆိမ	-11.5934
▁ပီအက်စ်ဂျီ	-11.5934
▁သတို့သမီး	-11.5934
▁သတို့သား	-11.5934
▁အတ္ထုပ္ပတ္တိ	-11.5934
▁ဣန္ဒြေ	-11.5934
ပဏ္ဍိတ	-11.5934
▁ကျန်စစ်သား	-11.5934
ນ	-11.5935
▁ဘီလျံ	-11.5935
▁အော့စ်ဘ	-11.5935
▁ဒုံးပျံ	-11.5935
▁ဩဝါဒ	-11.5936
▁ဆိုင်းဝိုင်း	-11.5936
▁တဏှာ	-11.5936
▁ဗိုလ်မှူးချုပ်	-11.5937
▁တန်ဆောင်း	-11.5937
▁၂၀၀၉	-11.5938
▁အကန့်	-11.5938
▁ဆီးချို	-11.5938
▁အာလူး	-11.5938
▁သစ်ကိုင်း	-11.5939
▁ကွမ်းယာ	-11.5939
▁အစွန်းရောက်	-11.5939
ထပ်တည်း	-11.5941
ိဿ	-11.5941
▁တမ်းတ	-11.5942
▁ခွဲခွာ	-11.5944
သန်မာ	-11.5945
▁ဓာတ်ဆီ	-11.5946
▁ဘောဂ	-11.5946
▁သီဟသူ	-11.5948
မီလန်	-11.5951
ဖွဖွ	-11.5952
▁ပိုင်းခြား	-11.5956
▁ဇီ	-11.5959
▁ရက်စွဲ	-11.5974
စပ်စပ်	-11.598
▁သလော	-11.5981
▁တပ်မင်း	-11.5989
▁ထိန်	-11.5994
▁စဉ်း	-11.5997
▁အမွှေး	-11.5998
ee	-11.5999
▁သားအိမ်	-11.6004
မဖြစ်	-11.601
နယ်တီ	-11.6014
PC	-11.6018
▁စစ်ကြောင်း	-11.6025
ဖြည့်	-11.6028
ပွတ်သပ်	-11.6028
▁ဦးစော	-11.6036
ရွှေထီး	-11.6037
လျက်	-11.6038
ဖဲ	-11.604
▁အခင်း	-11.6041
▁ပင်တိုင်	-11.6046
မာရွတ်	-11.6053
ရွဲ	-11.6053
၅၀၀	-11.6068
▁၅၂	-11.6076
ob	-11.6087
ห	-11.6104
ဗိုဗီနမ်	-11.6104
▁စဉ့်	-11.6104
▁နဒီဆွေ	-11.6104
▁လမ်းခရီး	-11.6104
▁ဝတ်မှုံရွှေရည်	-11.6104
▁ဟော်တယ်	-11.6104
▁အသုဘ	-11.6104
▁လူကုန်ကူး	-11.6104
▁ဝင်ရိုးစွန်း	-11.6104
▁အလိုမရှိ	-11.6104
▁ဖောင်ဒေးရှင်	-11.6104
▁ပျော်ပျော်ရွှင်	-11.6104
▁လောင်းကစား	-11.6104
▁ဂစ်တာ	-11.6105
▁မော်ကွန်း	-11.6106
▁ဖျန်း	-11.6108
▁ခန့်အပ်	-11.6109
▁ဖျော်ဖြေပွဲ	-11.611
▁သံဃ	-11.611
▁စုံလင်	-11.6111
▁စက်ဝိုင်း	-11.6113
ဖွ	-11.6114
▁နီးစပ်ရာ	-11.6122
▁လေပြည်	-11.6122
▁ဘိုးတော်	-11.6123
မှည့်	-11.6126
▁နေရှင်နယ်	-11.6128
▁အကောင်းစား	-11.6131
ကြယ်	-11.6132
▁ချစ်မမ	-11.6136
▁လူလိမ်	-11.6138
▁စစ်မှန်	-11.6138
တံတား	-11.6141
▁အရှုပ်	-11.6141
▁Su	-11.6149
▁သံစဉ်	-11.6164
ကြွကြွ	-11.6164
▁ထုံ	-11.617
▁ပေါက်စ	-11.6176
amp	-11.6182
▁Ho	-11.6186
▁သီတာ	-11.6188
ပဲ့	-11.6193
ဇာတ	-11.6194
အခတ်	-11.6197
ite	-11.6201
ဝမ်းသာ	-11.6203
ဂရ	-11.6208
▁၈၀၀	-11.6212
▁စည်သူ	-11.6216
ဇိ	-11.6225
▁တင်ပါး	-11.6228
▁လူအုပ်	-11.6232
▁ဗိုလ်မင်း	-11.6237
▁တောင်ပိုင်း	-11.6237
▁ဝတ်စား	-11.6245
▁di	-11.6248
we	-11.6265
▁ဂရမ်	-11.6266
▁ခွံ	-11.6269
ด	-11.6276
ခစ်ခစ်	-11.6276
▁ကျိုက်ထီးရိုး	-11.6276
▁တည့်တည့်	-11.6276
▁ထိခိုက်ဒဏ်ရာ	-11.6276
▁ဗဟန်း	-11.6276
▁မာရဇ္ဇ	-11.6276
▁အယုဒ္ဓယ	-11.6276
😈	-11.6276
▁လုံ့လ	-11.6276
▁သန္ဓေ	-11.6276
ဘိသေက	-11.6276
ပဒေသာ	-11.6276
▁တံငါ	-11.6276
▁New	-11.6277
▁👇	-11.6277
▁ဗေဒါ	-11.6277
▁Ex	-11.6278
ud	-11.6278
▁ငရုတ်သီး	-11.6278
ခြားခြား	-11.6278
▁ခန်းဆီး	-11.6279
လက်ငင်း	-11.6279
▁ပြိုကွဲ	-11.6279
▁☺️	-11.6279
▁ရိုင်းစိုင်း	-11.6279
န္တာ	-11.628
▁ထွန်	-11.6282
▁ခန့်အပ်	-11.6282
▁ဇော်မင်း	-11.6283
▁ဝိုင်းဝိုင်း	-11.6286
▁အုပ်စိုး	-11.6288
သီတာ	-11.6288
▁ဖာသည်မ	-11.6289
▁ပေါင်ဒါ	-11.6289
ထွင်း	-11.6291
▁အနီးစပ်	-11.6291
ရှောက်	-11.6292
▁သက်ငယ်	-11.6294
▁ယုယ	-11.6297
▁အာရပ်	-11.6305
ey	-11.6306
ဗိမာန်	-11.6312
▁၈၂	-11.6318
▁အလဲ့	-11.6321
နုနယ်	-11.6338
ည်းကူး	-11.6343
▁Uni	-11.6348
gen	-11.6352
▁လက်ရုံး	-11.6355
တြ	-11.6356
▁ဒီမို	-11.6358
▁ဝါဝါ	-11.6364
▁တာဝန်ရှိ	-11.6367
ွိုက်	-11.6376
လိန်	-11.6377
MA	-11.6379
စောက်	-11.638
န္ဒီ	-11.638
ဂေး	-11.6384
ရောင်ခြည်	-11.6386
vi	-11.6394
မှုတ်	-11.6398
ther	-11.6398
ကြိမ်	-11.6399
ဆွတ်	-11.6411
▁တိုင်းမှူး	-11.6411
ဒွ	-11.6422
▁တောင်ကြား	-11.6422
လှိုင်း	-11.6431
IC	-11.6441
မွှာ	-11.6447
ော်ရုံ	-11.6448
▁ဖွာ	-11.6449
▁မိုက်ခရို	-11.6451
လှိမ့်	-11.6452
▁တယ်လီစကုတ်	-11.6452
▁ရေတံခွန်	-11.6452
▁အနှစ်သာရ	-11.6452
▁၁၉၄၇	-11.6452
▁ဒဲ့	-11.6452
▁စေကာမူ	-11.6452
ุ	-11.6452
နွံ	-11.6452
▁ပါရဂူ	-11.6452
▁ဖလှယ်	-11.6452
▁တောင့်တင်း	-11.6453
▁စေ့စေ့	-11.6453
▁ဗီရို	-11.6453
▁စိမ်းစိမ်း	-11.6454
▁မျက်စေ့	-11.6454
▁ပဲ့တင်	-11.6455
▁ပြင်းပြင်း	-11.6455
▁ရေချိုးခန်း	-11.6456
▁နှင့်အမျှ	-11.6456
▁ကျဲ	-11.6456
▁ပြည်တွင်းစစ်	-11.6457
▁ရဲရင့်	-11.6458
▁ညီနောင်	-11.646
▁ဦးမျိုး	-11.6461
▁ပြေးဆွဲ	-11.6464
▁တဆင့်	-11.6464
▁အပြည့်အ	-11.6466
တ္ထိ	-11.6467
▁လိုင်းကား	-11.6467
▁စိတ်ဝမ်း	-11.6468
▁ငမိုး	-11.647
ယ်လီ	-11.6472
▁ဈေးချို	-11.6479
▁ရေအိုင်	-11.6482
▁အာသာ	-11.6485
▁တခြားစီ	-11.6486
▁အားမနာ	-11.6486
စို့	-11.6494
▁ကွေး	-11.6496
▁ရိုက်ခတ်	-11.6498
▁လူယုတ်မာ	-11.6501
▁သင့်မြတ်	-11.6502
င့်သုံး	-11.6506
▁ရှုမ	-11.6515
ster	-11.6516
သဲသဲ	-11.6521
ညွှန်	-11.654
▁ဆဲဆို	-11.6544
ကိုရီးယား	-11.6551
ထည့်	-11.6554
▁အင်တာ	-11.6565
▁၅၁	-11.6572
▁ချွေးမ	-11.6574
▁ယွ	-11.6577
ျောင်	-11.6582
line	-11.6583
▁ငပေါ	-11.659
ner	-11.6593
းပြင်	-11.6594
င်းအရာ	-11.6605
▁စူးစူး	-11.6623
▁ဗုံ	-11.6625
▁ဖြိုးမြတ်အောင်	-11.663
▁ခြေသလုံး	-11.663
▁ရူစတာ	-11.663
▁သားအမိ	-11.663
▁ပျော့ပျောင်း	-11.663
▁ရုက္ခ	-11.663
▁လတ်ဆတ်	-11.663
▁ကနေဒါ	-11.663
▁နဝမ	-11.663
▁ဇာတ်ညွှန်း	-11.6632
▁မြောက်ဥက္ကလာ	-11.6632
▁မျက်လွှာ	-11.6634
▁မကြီးစိုး	-11.6634
န္တော	-11.6634
▁တန်းလျား	-11.6635
▁ဒေါ့	-11.6636
▁စတိုးဆိုင်	-11.6637
▁ဖြတ်တောက်	-11.6638
▁အိုးအိမ်	-11.6638
son	-11.6641
▁အလိုလိုက်	-11.6642
▁အသီးအ	-11.6648
▁ဗန်	-11.6654
▁ငပိ	-11.6655
▁အားလျော်	-11.6668
▁စပယ်	-11.6668
ပြန့်ကား	-11.6669
▁မီးတောင်	-11.6675
▁အဖိုးကြီး	-11.6676
▁ဆက်လုပ်	-11.6679
▁ဒေါ်တင်	-11.6686
နှာခေါင်းစည်း	-11.6686
▁ငါးပါး	-11.6691
▁အလုပ်ရုံ	-11.6698
▁တောသူ	-11.6701
ဘွန်း	-11.6707
ေဟိ	-11.6708
▁ပုဝါ	-11.6713
▁ဂု	-11.6725
ရော့	-11.6738
တွေး	-11.6743
ဖော့	-11.6754
▁ဂျော်	-11.6764
အိုအေ	-11.6765
အဆန်း	-11.6775
သဘော	-11.6776
▁နယ်ခြား	-11.6779
▁ရေတွင်း	-11.678
၅၁	-11.6794
ega	-11.6805
▁ပြောင်ပြောင်	-11.6809
क	-11.6812
▁radiation	-11.6812
▁စိမ့်	-11.6812
▁တီဗွီ	-11.6812
▁ပန်းဆိုးတန်း	-11.6812
▁ရုပ်ကြွင်း	-11.6812
▁လီဂူး	-11.6812
▁အလေ့အထ	-11.6812
ง	-11.6812
▁မာကျော	-11.6812
▁ONE	-11.6812
▁ခံနိုင်ရည်	-11.6812
▁အပြောအဆို	-11.6812
အဲဗာတန်	-11.6812
▁ဝီရိယ	-11.6812
▁ဖျဉ်	-11.6812
▁ဂျိမ်း	-11.6813
ဂေ	-11.6813
▁လိမ်လိမ်	-11.6813
▁တယ်လီနော	-11.6813
သပ်ရပ်	-11.6814
▁ဦးဝင်းစိန်	-11.6814
▁အထုတ်	-11.6814
▁တစ်ဖက်ကမ်း	-11.6814
▁စုတ်တံ	-11.6815
▁ကျောက်ဂူ	-11.6816
▁အိုးစည်	-11.6817
တင့်တယ်	-11.6817
▁စိတ္တ	-11.6819
▁နောက်တန်း	-11.6819
▁အီလက်ထရွန်	-11.6823
▁အမြင်ကတ်	-11.6823
ပုဂ္ဂလ	-11.6824
▁မင်းလှ	-11.6824
▁ငါးပိ	-11.6825
▁တော်တော်ကြာ	-11.6825
▁ဖုန်းခေါ်	-11.6826
▁နည်းပြချုပ်	-11.6826
▁ကွာတား	-11.6831
စည်းခုံ	-11.6832
▁Z	-11.6837
▁Do	-11.6844
းထင်	-11.6852
▁အမည်ရင်း	-11.6853
▁စီးပွားရေး	-11.6853
▁အကြီးစား	-11.6854
အခြေပြု	-11.6854
▁ရာဇာ	-11.6859
▁ရှုထောင	-11.6859
▁အမိန့်တော်	-11.6861
▁လှုပ်လှုပ်	-11.6869
▁စကားဝိုင်း	-11.6869
▁ဆက်ကပ်	-11.6869
▁ဝမ်းမ	-11.6882
▁မျဉ်း	-11.6888
မတန်	-11.6893
တုန်ယင်	-11.6897
ုပ္ပ	-11.69
ရိုင်	-11.6904
ဗျာ	-11.6909
▁ရောင်းသူ	-11.6913
ညှပ်	-11.692
လွှင့်	-11.6921
နှိုင်း	-11.6921
19	-11.6922
▁နာခံ	-11.6923
ဩဇာ	-11.6923
ဘုရင်	-11.6924
▁ကိုယ်ချင်း	-11.6931
တဆိတ်	-11.6952
လိုင်	-11.6955
▁AI	-11.696
▁No	-11.6967
▁သုည	-11.6971
▁ညှိုး	-11.6977
စခန်း	-11.6981
▁ဘိုင်ယန်	-11.6997
▁မိုးဟေကို	-11.6997
▁လွိုင်ကော်	-11.6997
້	-11.6997
▁မီးဖိုချောင်	-11.6997
▁ရွက်လှေ	-11.6998
▁ကျေပွန်	-11.6998
▁ဇိမ်	-11.6998
▁စုတ်ပြတ်	-11.6998
▁ဩဘာ	-11.6999
▁အရှိန်အဟု	-11.6999
▁ဦးအောင်ဆန်း	-11.7
▁ပုရိမ	-11.7
▁အကြီးမား	-11.7
▁တဆတ်ဆတ်	-11.7
▁Card	-11.7
▁ယှဉ်တွဲ	-11.7
▁စက္ခု	-11.7001
▁ဇာတ်သိမ်း	-11.7003
▁ဘလောက်	-11.7006
▁ငတုံး	-11.7009
ကြည်လင်း	-11.7009
ign	-11.7014
▁အစွယ်	-11.7015
▁စောက်သုံး	-11.7019
▁ကွင်းပြင်	-11.7021
▁ဟင်းချက်	-11.7021
▁မီးအိမ်	-11.7023
မြောင်	-11.7028
▁အနေအထ	-11.7029
▁ဌာနမှူး	-11.7032
▁အရန်	-11.7034
▁ပြုံးပြုံး	-11.7038
▁မာလာ	-11.704
▁အဆဲ	-11.7042
▁အိုမင်း	-11.7044
▁မန့်	-11.7048
ဇုန်	-11.705
▁နံ့သာ	-11.7054
စ်တာ	-11.706
▁အရိုင်း	-11.707
▁တဘက်	-11.7075
▁ကြေးနီ	-11.7079
▁စိတ်ရှည်	-11.7082
▁သားကောင်	-11.7091
ဗြ	-11.7095
▁ရုတ်ခ	-11.7096
▁ဆိပ်	-11.7096
▁ရှပ်	-11.7104
▁အဖျက်	-11.7107
▁ဓန	-11.7108
ory	-11.711
ဝုန်း	-11.711
ညောင်း	-11.7115
▁ကြံ့	-11.7128
သက်သက်	-11.7132
CC	-11.7144
ပတိ	-11.7145
▁နေ့လည်	-11.7146
▁စိတ်ရင်း	-11.7147
၁၉၈၉	-11.7172
ခီ	-11.7174
▁ဖြောင့်	-11.7179
▁အဂတိ	-11.7185
จ	-11.7186
▁ခြေစစ်ပွဲ	-11.7186
▁စောစောစီးစီး	-11.7186
▁သင်္ကန္တ	-11.7186
▁အနှောင့်အ	-11.7186
▁အကောက်ခွန်	-11.7186
▁ဗွီ	-11.7187
▁ရေနွေးကြမ်း	-11.7187
▁မျက်ကွယ်	-11.7189
▁ပြတ်တောက်	-11.719
▁ဧည့်ခံ	-11.7191
▁ညီညာ	-11.7192
▁လုလင်	-11.7194
▁ကင်းတပ်	-11.7196
▁အသွားအ	-11.7197
ွိုင်း	-11.7199
▁နောင်ချို	-11.72
▁ဗညားပ	-11.7205
▁ရုံးချုပ်	-11.7217
▁ဆတ်ဆတ်	-11.7221
▁ဆယ်စု	-11.7222
▁လက်ဖျား	-11.7225
ပုန်း	-11.7228
ိုးရှင်း	-11.7251
ျော်ဟန်	-11.726
ind	-11.7264
စ့်	-11.7275
▁သတ္တ	-11.7277
ခူ	-11.728
▁အခက်ခဲ	-11.7294
▁ဆိုင်ရှင်	-11.7295
+	-11.7301
”	-11.7302
တံခါး	-11.7304
▁ကျောင်းဆောင်	-11.7316
▁ချူ	-11.7324
ဏီ	-11.7352
▁အစပ်	-11.737
▁သက်ဝင်	-11.7374
ဒုန်းဒုန်း	-11.7378
▁ပလက်ဖောင်း	-11.7378
▁ပုရပိုက်	-11.7378
▁မန်ကျည်း	-11.7378
▁၁၉၉၈	-11.7378
▁ဆိုဗီယက်	-11.7378
▁သာကေတ	-11.7378
အင်ကြင်း	-11.7378
▁ဘရူနို	-11.7378
▁နိုဘယ်	-11.7379
▁ရီးရဲလ်	-11.7379
▁သီတင်းပတ်	-11.7381
▁ဆင်ယင်	-11.7382
▁သက်မွေး	-11.7384
▁ဆောက်တည်	-11.7384
▁ကျောရိုး	-11.7385
▁အခြေနေ	-11.7385
▁ခေ	-11.7386
▁ကင်းလွတ်	-11.7388
လဲ့လဲ့	-11.7389
လျံ	-11.739
▁ကွယ့်	-11.7391
▁ကမ်းပါး	-11.7392
▁ခွင့်လွှတ်	-11.7394
our	-11.7394
▁ကုတင်	-11.7398
▁တိုင်းတစ်ပါး	-11.7398
▁မိုက်မဲ	-11.7399
▁ရေစို	-11.7399
▁အမြောက်	-11.7402
rea	-11.7405
▁တဖန်	-11.7406
▁ခေါင်းခါ	-11.7407
▁စာရေးသူ	-11.7408
ဖွတ်	-11.741
▁စိတ်ရှုပ်	-11.7411
ဖရဲ	-11.7415
▁လှိုဏ်	-11.7425
ish	-11.7435
▁ဆိုးလ်	-11.7435
ary	-11.7439
▁ဖက်ရှင်	-11.7442
▁စိပ်	-11.7445
▁သက္က	-11.7453
ချီး	-11.7455
န္တာရ	-11.746
▁ရေအိုး	-11.7461
▁လက်လွှတ်	-11.7461
▁သဲလေး	-11.7466
▁အလွှာ	-11.748
ame	-11.7495
J	-11.7498
ဂဏန်း	-11.7498
ဘွဲ့	-11.7498
ဆောက်	-11.7499
မင်္ဂလာ	-11.75
တန်ဆာ	-11.7507
အပြင်	-11.7533
ကျံ	-11.7553
ပုဒ်	-11.756
၉၉၉	-11.7563
▁ဟောက်	-11.7567
ဈ	-11.7573
ပိုင်ခွင့်	-11.7574
▁Facebook	-11.7574
▁ဟန်ဂေရီ	-11.7574
▁တစ်နည်းအားဖြင	-11.7574
▁ထောပတ်	-11.7574
▁အလုပ်လက်မဲ့	-11.7574
▁အဟမ်း	-11.7574
▁နှပ်	-11.7574
▁စိတ်တိုင်းကျ	-11.7574
ပေက္ခာ	-11.7574
▁မှည့်	-11.7574
▁စွပ်ပြုတ်	-11.7575
▁ဂေါတမ	-11.7575
▁အလေ့အကျင့်	-11.7575
▁ဒြပ်စင်	-11.7576
▁ဂူဘုရား	-11.7576
▁ငှက်ပျောသီး	-11.7576
▁ကြမ်းကြမ်း	-11.7577
▁နစ်မြ	-11.7577
▁ဝဏ္ဏ	-11.7578
▁ဆန်ပြုတ်	-11.7578
▁၁၉၄၈	-11.7579
▁အုပ်ချုပ်ခွင့်	-11.7579
▁စွံ	-11.7579
▁ကပ်ဘေး	-11.758
▁ကမ်းနား	-11.7582
▁နောက်ဖေး	-11.7582
▁တိမ်တိုက်	-11.7583
အက်ဖ်အေ	-11.7583
▁လယ်ကွင်း	-11.7584
▁လယ်တီ	-11.7586
▁ဆထက်	-11.7586
ဘောက်	-11.7587
▁စာခကျွန်	-11.7587
▁ကြယ်သီး	-11.7591
▁တမန်	-11.7604
▁ဝင်ပြိုင်	-11.7616
▁မြို့လယ်	-11.7618
▁အံ့မခ	-11.7625
ခြင်	-11.7633
▁ပုံသေ	-11.7633
မေ့လျော့	-11.7634
▁စဖွယ်	-11.7639
▁ကျောက်သား	-11.7652
စွဲမြဲ	-11.7654
ax	-11.7657
end	-11.7658
၉၆၂	-11.7666
ကွပ်	-11.7668
့ကြောင့်	-11.7674
▁တချိန်	-11.7677
မျက်	-11.7683
ပျင်း	-11.7687
လင်းအောင်	-11.7694
မြုံ	-11.7695
ပမ်း	-11.7695
ရင်ဘတ်	-11.7705
ပုဝါ	-11.771
ချိုင့်	-11.7716
▁စစ်ဘေး	-11.7719
စာတမ်း	-11.7725
လက်ဝ	-11.7731
▁မောင်ချို	-11.7749
▁To	-11.7753
▁ဗြဟ္မ	-11.7772
ဋီကာ	-11.7774
▁မွတ်ဆလင်	-11.7774
▁ဦးပဉ္စင်း	-11.7774
▁မင်္ဂလာဒုံ	-11.7774
▁ရဟန္တာ	-11.7774
▁ယူဂျင်း	-11.7774
လှိုက်လှဲ	-11.7774
▁သန်းခေါင်စာရင်း	-11.7774
▁နှောက်ယှက်	-11.7774
▁ဘန်နီ	-11.7774
▁ကိုမြင့်မြတ်	-11.7775
▁အခကြေး	-11.7775
▁အခိုက်အတန	-11.7776
▁ထူထူ	-11.7776
▁ဤသို့ဖြင	-11.7776
▁ပူနွေး	-11.7776
▁မိတ်ဖက်	-11.7777
▁ထန်းရည်	-11.7777
▁မျိုးဆက်သစ်	-11.7777
▁ပုလိပ်	-11.7778
▁ဖုံးအုပ်	-11.7778
▁ဘရာဇီးလ်	-11.7779
စတန်	-11.778
▁Cur	-11.778
▁ညောင်ပင်	-11.7784
▁ခြေဖျား	-11.7785
▁စံချိန်တင်	-11.7787
▁ပူဆာ	-11.779
▁သွန်	-11.7791
▁ဝိဒေဟ	-11.7795
မကြာမ	-11.7798
▁သမက်	-11.7805
ရက်စ်	-11.7808
▁အေသင်	-11.781
ကပ်ကပ်	-11.7811
▁အကျော့	-11.7811
▁သဗ္ဗေ	-11.7813
▁ထင်ပေါ်	-11.7817
▁ရက်ရက်	-11.783
မြော်	-11.7832
ဆူး	-11.7843
▁ဆိုရှယ်	-11.7843
နန္ဒ	-11.7844
▁အကယ်	-11.785
စင်ကြယ်	-11.7857
နေတိုး	-11.7867
▁ယွမ်	-11.7868
စွင့်	-11.7871
▁အိမ်တွင်း	-11.7871
AN	-11.7873
▁ရန်ကင်း	-11.7873
▁La	-11.7885
၀၀၇	-11.7887
ထံ	-11.7887
▁ဖတ်စာ	-11.7888
▁Dr	-11.7893
ကျင်မောင်	-11.7901
ခရစ်	-11.7922
BC	-11.7931
ray	-11.7938
ဟိုး	-11.7939
ဝိုင်	-11.7946
ton	-11.7954
ပိုင်ခွင့်	-11.7961
မြုပ်	-11.7964
ition	-11.7965
▁ဇေယျ	-11.7977
▁နယူး	-11.7978
@	-11.7978
▁ဗြာဟ္မဏ	-11.7978
▁ညဉ့်	-11.7978
▁ဒုစရိုက်	-11.7978
▁ဗောဓိ	-11.7978
▁မုန့်ဟင်းခါး	-11.7978
▁အငြိမ့်	-11.7978
▁ချည့်	-11.7978
▁ဖရဲသီး	-11.7978
▁သိုလှောင်	-11.7978
▁အတော်အတန်	-11.7978
▁ကျိန်စာ	-11.7978
▁ပရိုတွန်	-11.7979
ဖျော့	-11.7979
▁ပိုးမွှား	-11.7979
▁ဒေဝါ	-11.7979
▁အုတ်မြစ်	-11.798
▁စာသင်ကျောင်း	-11.798
▁ပြိုလဲ	-11.7982
▁ပဏာ	-11.7982
ရွေ့ရွေ့	-11.7983
▁ဘီစီ	-11.7985
ink	-11.7987
▁တိုင်ကီ	-11.7988
▁နောက်ကျော	-11.7991
▁Mr	-11.7993
▁ဖျားနာ	-11.7994
▁အထုပ်အ	-11.7997
▁म	-11.7998
ial	-11.8001
▁ဝူး	-11.8006
▁အသက်မွေး	-11.8008
▁နာမ်	-11.8009
▁တပ်ခွဲ	-11.8022
▁စီးချင်း	-11.8027
old	-11.8031
ဖွားဖွား	-11.8033
▁သပြေ	-11.8037
▁ဆေးရောင်	-11.804
ကိုစိုး	-11.8041
ေသု	-11.8041
တုတ်တုတ်	-11.8049
▁၄၅၀၀	-11.8064
▁အတွေ့	-11.8074
ကျမ်း	-11.81
လွမ်း	-11.8102
ကီး	-11.8111
edit	-11.8113
ပိန်	-11.8117
▁Ba	-11.8122
မှိတ်	-11.8128
▁ဖူ	-11.8133
ကလပ်	-11.8136
ပြည့်စုံ	-11.8161
▁အရူးမ	-11.8161
စော်	-11.8163
၆၊	-11.8166
ကလျာ	-11.8177
▁ပျော်ပျော်	-11.8183
▁နတ်သျှင်	-11.8187
ဘီအိုင်အေ	-11.8187
▁စင်္ကြန်	-11.8187
▁ဆောရီး	-11.8187
▁ထောင်ချောက်	-11.8187
▁ဒဏ္ဍာရီ	-11.8187
▁ဖေ့ဘုတ်	-11.8187
▁မိုဘိုင်း	-11.8187
▁ရှန်ဟိုင်း	-11.8187
▁ရက်သတ္တပ	-11.8187
▁အစီရင်	-11.8187
ood	-11.8187
▁ကျုံ့	-11.8187
າ	-11.8187
ts	-11.8187
▁ဝက်ဘ်ဆိုက်	-11.8187
▁ကျောက်ဆည်	-11.8187
▁👆	-11.8189
အေးမြတ်သူ	-11.819
▁ပျားရည်	-11.819
▁အဝေးပြေး	-11.8191
▁တွန်းအား	-11.8192
▁၁၉၉၀	-11.8192
▁မော်လီ	-11.8196
▁ဝေးလံ	-11.8196
▁လိမ်လည်	-11.8198
▁သဲ့သဲ့	-11.8202
▁အပင်ပန်း	-11.8204
▁အလှပြင်	-11.8208
▁ဇမ္ဗူ	-11.8209
▁ဘေးမဲ့	-11.8212
▁ပို့ကုန်	-11.8218
▁တပ်မင်းကြီး	-11.8218
▁တိုင်တိုင်	-11.8221
NP	-11.8222
▁လုစ်	-11.8227
▁အကြောင်းတရား	-11.8228
▁၂ဝဝ	-11.8231
ဗြဲ	-11.8239
ဖူလုံ	-11.8239
▁ဆဲလ်တ	-11.8245
▁ဝတ္တု	-11.8248
▁လူကြိုက်	-11.8253
ီယွန်	-11.8253
▁၄၇	-11.8255
ence	-11.8257
▁စစ်တိုက်	-11.8274
▁မော်စ	-11.8274
▁အစေ့	-11.8281
▁Man	-11.8288
ild	-11.8297
ဆတ်	-11.8311
မြန်	-11.8322
ဖျော်	-11.8324
ဖြုတ်	-11.8326
သဖြင့်	-11.8327
တင်းတင်း	-11.8329
လင့်	-11.835
ပြစ်တင်	-11.8357
စီစီ	-11.8361
▁မုတ်ဆိတ်	-11.8371
သယ်	-11.8374
▁ယွန်းမှီ	-11.8386
▁ဟင်္သာ	-11.8395
▁ဝှီး	-11.8398
▁ဂွာဒီယို	-11.8399
▁Positive	-11.8399
▁ကလိမ်ကကျစ်	-11.8399
▁ကံ့ကော်	-11.8399
▁ပြေတီဦး	-11.8399
▁မင်းကံစီ	-11.8399
▁နတ်ကတော်	-11.8399
▁ရွှဲ	-11.8399
▁ပြန်အမ်း	-11.84
▁Inter	-11.84
▁အေဒင်	-11.8404
▁အားဖြည့်	-11.8404
▁စံအိမ်	-11.8405
▁မေဂျာ	-11.8405
▁တီးဝိုင်း	-11.8406
▁ဘောက်စ်	-11.8407
▁လူသတ်သမား	-11.8407
▁ကျိုက်မရ	-11.8407
▁ယူရိုပါ	-11.8409
့ငါး	-11.8409
▁တိဿ	-11.841
▁နို့တိုက်	-11.8411
ရှီး	-11.8413
▁ချိုသာ	-11.8413
▁စပွန်	-11.8415
စိုပြည်	-11.8416
▁ပလပ်	-11.8417
ာဗီဂ	-11.842
▁So	-11.8423
ကျပ်တည်း	-11.8423
▁ဂျုံ	-11.8425
ဆန့်	-11.8426
▁နောက်ပြောင်	-11.8433
▁ဖွင့်ဟ	-11.844
ချွတ်	-11.8443
▁ပထမတန်း	-11.8444
ရမ်းကား	-11.8445
FC	-11.8448
လှုပ်ခတ်	-11.8455
▁ဝတ်ပြု	-11.846
ဘီလီ	-11.8465
▁တရိ	-11.8473
တီယာ	-11.8473
ငှါး	-11.8484
ကိုယ်ကို	-11.8508
နိုးကြား	-11.8516
ကျွမ်း	-11.8518
လော်	-11.8527
▁မသာမ	-11.8536
▁Sp	-11.8541
ရွှန်း	-11.8541
ix	-11.8551
ကျယ်ကျယ်	-11.8569
▁နမ့်	-11.8579
ဝါဒ	-11.8584
စူးစိုက်	-11.8591
သင့်လျော်	-11.8605
▁လီလီ	-11.8612
ะ	-11.8616
▁KBZ	-11.8617
▁ငိငိ	-11.8617
▁တန်ခူး	-11.8617
▁တောဂေါ်လီ	-11.8617
▁နည်းဥပဒေ	-11.8617
▁ပရော်ဖက်ရှင်နယ်	-11.8617
▁မကြာသေးခင်	-11.8617
▁ဝါရှင်တန်	-11.8617
▁ခေါင်းငုံ့	-11.8617
▁ချောကလက်	-11.8617
▁အရှင့်သား	-11.8617
▁အေးအေးချမ်းချမ်	-11.8617
နက်နဲ	-11.8617
ငေါ့	-11.8617
▁မော်လီကျူး	-11.8617
▁ကျေးကကျွန်	-11.8617
▁နှေးကွေး	-11.8617
▁ဗျိုင်း	-11.8617
ိလိယက်	-11.8617
▁ကာယကံ	-11.8617
▁Game	-11.8618
▁ခေါင်မိုး	-11.8619
▁ကွမ်းတောင်	-11.8621
▁ဒိုင်ဘာ	-11.8622
▁ငပိန်း	-11.8622
▁မျက်မြင်	-11.8622
▁မြိန်	-11.8623
▁သွင်ပြင်	-11.8623
▁၂၀၀၃	-11.8624
▁၂၀၀၄	-11.8625
▁ကံဆိုး	-11.8626
▁ဗိုင်းရပ်စ်ပိုး	-11.8627
▁ပြည့်နှစ်	-11.8627
▁အိုက်စ်	-11.8628
ခိုင်း	-11.863
▁အညွှန်း	-11.8639
▁အကိုစိုင်း	-11.8641
းယန်း	-11.8649
ွန်ယက်	-11.8652
▁အဖု	-11.8654
နှိပ်ကွပ်	-11.8655
▁ဝေဝေ	-11.8658
▁ဒေါသတ	-11.8669
▁ဆင်မင်း	-11.868
▁အဓမ္မ	-11.8686
ချုံး	-11.8687
▁ဖဲ့	-11.8691
ခင်ခင်	-11.87
လွင်လွင်	-11.8704
▁UN	-11.8708
၉၈၈	-11.8744
▁Par	-11.8745
သက္ကရာဇ်	-11.8763
ဖိနပ်	-11.8764
မြန်မာ	-11.8765
နှောင်း	-11.8767
စိပ်	-11.8771
းနက်	-11.8774
ခကျွတ်	-11.8775
ထွန်းလွင်	-11.879
ဇာတ်	-11.8793
လွန်ကဲ	-11.8804
ချစ်တီး	-11.8824
▁ဖာသည်	-11.8835
ူးတူး	-11.8838
บ	-11.8839
▁ဒေါ်စဝ်သီရိ	-11.8839
न	-11.8839
ဗန္ဓုလ	-11.8839
သီရိလင်္ကာ	-11.8839
ိုက်လှိုက်လှဲလှဲ	-11.8839
▁ခက်ခက်ခဲခဲ	-11.8839
▁ဂုဏ်သတ္တိ	-11.8839
▁စာနယ်ဇင်း	-11.8839
▁ဆုဖလား	-11.8839
▁ဖေ့စ်ဘွတ်	-11.8839
▁ဗြားကြီး	-11.8839
▁မြန်မြန်ဆန်ဆန်	-11.8839
▁ယတြာ	-11.8839
▁အလင်္ကာ	-11.8839
▁ဥပုသ်	-11.8839
▁ကိုလွမ်းနောင်	-11.8839
▁ရှုတ်ချ	-11.8839
▁စျာန်	-11.8839
▁ဖြစ်နိုင်ခြေ	-11.8839
ထိတ်ထိတ်	-11.8839
ကျောက်ပန်းတောင်း	-11.8839
▁ဟစ်အော်	-11.8839
▁ယိုယွင်း	-11.884
▁ဂါထာ	-11.884
▁ဗိုလ်လု	-11.884
▁ခ်ခ်ခ်	-11.884
▁အသီးအနှံ	-11.884
▁တောက်လျှောက်	-11.884
????	-11.8841
▁ကုန်းဘောင်	-11.8841
▁ဆာရှာ	-11.8842
▁၁၃၈၀	-11.8843
▁ရီဝေ	-11.8844
ခြိုက်	-11.8844
▁ဒိန်း	-11.8844
ဇစ်	-11.8845
▁စိတ်ဖိစီး	-11.8845
▁ဝူရှ	-11.8845
▁သရက်သီး	-11.8847
▁ပြင်းပြ	-11.8847
▁အနောက်မြောက်	-11.8847
▁နိယာ	-11.8848
▁အနည်းအ	-11.885
▁အေးမောင်	-11.8852
ဇာနည်	-11.8853
▁ဦးလေးဖြူ	-11.8855
ရံခါ	-11.8855
▁အချမ်းသာ	-11.8861
▁သွင်းကုန်	-11.8861
ည်ဆံ	-11.8871
▁ကောက်ချက်	-11.8877
▁အသားဝါ	-11.8877
▁အချဉ်	-11.8877
ပြောင်းပြန်	-11.8883
▁ဒို့	-11.8885
၂၇	-11.8903
ယိ	-11.8905
▁လျှောက်လည်	-11.8906
▁ခြေသံ	-11.8909
့ဖ်	-11.8939
သူဇာ	-11.8947
ဖွေး	-11.896
ous	-11.8962
Q	-11.899
သုံ	-11.899
ကြည်ဖြူ	-11.8991
သင်းသင်း	-11.8993
ယွန်း	-11.8997
ကျွန်း	-11.9019
ရှင်းရှင်း	-11.9028
▁ပေါင်းတည်	-11.9061
▁မီးပွိုင	-11.9063
ဥက္ကလာ	-11.9064
_	-11.9066
ล	-11.9066
▁Group	-11.9066
▁ဗိုလ်တထောင်	-11.9066
▁မကိုဋ်	-11.9066
▁မမည်းကျုတ်	-11.9066
▁မှေးမှိန်	-11.9066
▁ဟယ်ရီကိန်း	-11.9066
▁ဥပါဒ်	-11.9066
ရိုနာဗိုင်းရပ်စ်	-11.9066
▁ဒရော့ဘာ	-11.9066
▁ဟိမဝန္တာ	-11.9066
▁ကောက်ကျစ်	-11.9066
▁နက္ခတ္တ	-11.9066
▁အဆုံးအမ	-11.9066
▁ကိုညိုမောင်	-11.9067
▁အကန့်	-11.9067
ရွှေကြာပင်	-11.9067
▁သွန်သင်	-11.9067
▁Champion	-11.9067
▁ပေါင်မုန့်	-11.9067
▁အပြည့်အစုံ	-11.9067
▁သိကြားမင်း	-11.9068
▁အိမ်ရှေ့စံ	-11.9068
▁အံမယ်	-11.9068
▁card	-11.9068
▁အိုးပုတ်	-11.907
▁ရှုမြင်	-11.9071
းရှင်း	-11.9071
▁အင်းလျား	-11.9072
▁ခြံစည်း	-11.9073
ခိုင်ခံ့	-11.9074
▁နှိုင်းရ	-11.9077
▁အလှမ်း	-11.9078
▁ဖရို	-11.9078
▁စိုက်ခင်း	-11.9079
▁ကြိမ်မြောက်	-11.9083
▁တစ်သက်တာ	-11.9084
▁အဓိပ္ပါယ်ရ	-11.9086
အိအိ	-11.9091
▁မွေးထုတ်	-11.9097
▁သတင်းပို့	-11.9102
▁အငဲ	-11.9102
▁ဝေခွဲ	-11.9106
cl	-11.9107
▁မြတ်မြတ်	-11.911
စန္ဒီ	-11.9115
▁နာရေး	-11.9119
▁အခိုး	-11.9126
▁အဖို	-11.9128
တီမော	-11.9128
▁မုဆိုးမ	-11.9131
▁မေရီ	-11.9132
စားပွဲ	-11.9139
ik	-11.9145
20	-11.915
form	-11.9151
▁၅၀ဝ	-11.9202
ထင့်	-11.9202
▁Be	-11.9209
ပက်စက်	-11.9215
ဧ	-11.9222
ဂမ္ဘီ	-11.9223
ဥယျာဉ်	-11.9223
လူအေး	-11.9223
ဂါတ်	-11.9255
▁ဟင်းချို	-11.9258
ပျဉ်	-11.9278
ရဲရဲ	-11.9286
ခင်ဇော်	-11.9287
▁ထာဝ	-11.9295
ဋ္ဌာန်း	-11.9299
▁dark	-11.9299
▁ကျိန်းသေ	-11.9299
▁ချဲလ်ဆီး	-11.9299
▁ဆွစ်ဇာလန်	-11.9299
▁အင်္ဂတေ	-11.9299
▁အဝတ်အထည်	-11.9299
▁ခေါင်းလျှော်	-11.9299
▁လရိပ်ချို	-11.9299
ကျွန်းဆွယ်	-11.9299
▁ကွန်ဂရက်	-11.9299
▁ဆန်စပါး	-11.9299
▁တည်နေရာ	-11.9299
▁မနုဿ	-11.9299
▁ကန်တော်ကြီး	-11.9299
▁ပန်းပု	-11.9299
▁လေးတင်ပွဲ	-11.9299
▁နှာစေး	-11.9299
▁ဘိုလော့	-11.93
▁တိုးဝှေ့	-11.93
▁အကူညီ	-11.93
▁ခွီး	-11.9301
▁စက်ဆုပ်	-11.9302
▁ခွပ်	-11.9302
▁နေ့လယ်ခင်း	-11.9302
▁ရှယ်ယာ	-11.9303
▁အကျဉ်းထောင်	-11.9303
▁ဖရက်	-11.9304
▁ဖြန့်ဝေ	-11.9304
▁တွယ်တာ	-11.9306
▁ကြောင်တောင်	-11.9311
▁ရွှေမန်း	-11.9314
▁အချောဆုံး	-11.9316
▁ဆွဲကြိုး	-11.9316
▁လိမ်မာ	-11.9319
▁တတွေ	-11.932
▁ဥပဒေကြမ်း	-11.9321
▁ကောက်ရိုး	-11.9324
▁တန်ပြန်	-11.9325
▁တမံ	-11.9327
▁သင်ဇာ	-11.9327
▁နှင့်တကွ	-11.9327
▁မြစ်ရေ	-11.9328
▁အစုအ	-11.9328
▁တပ်မက်	-11.933
ပြားပြား	-11.9332
▁အိုပါး	-11.9336
▁ငန်း	-11.9339
▁ဟန့်	-11.934
ထိတ်	-11.9342
▁သေသေ	-11.9342
▁မိုးစက်	-11.9344
▁အလှူခံ	-11.9344
နင်	-11.9376
▁အကြမ်းဖျ	-11.9392
ake	-11.94
ရေးမှူး	-11.9417
ace	-11.9427
သွမ်း	-11.9428
ငြိ	-11.9459
နံပါတ်	-11.9461
ah	-11.9489
စူး	-11.949
က်ပက်	-11.9492
ဖြောင့်မတ်	-11.9514
သဏ္ဌာန်	-11.9529
▁ကြက်သွန်	-11.9535
े	-11.9537
▁ကျေးတောင်ညို	-11.9537
▁ကွန်ကရစ်	-11.9537
▁ဂုမ္ဘီကဏ္ဏ	-11.9537
▁ဈာပန	-11.9537
▁ပျော်ဘွယ်	-11.9537
▁လွယ်လွယ်ကူကူ	-11.9537
▁သင်္ဃန်းကကျွန်း	-11.9537
▁သီဟိုဠ်	-11.9537
ဝံ့ဝံ့	-11.9537
သိုက်မြိုက်	-11.9537
▁ဖျော့တော့	-11.9537
Sports	-11.9537
▁ဂျူလိုင်	-11.9537
▁တရိပူရ	-11.9537
▁မိုက်ခရိုဝေ့	-11.9537
ອ	-11.9537
▁ဆိုင်းငံ	-11.9537
▁ပွင့်ပွင့်လင်း	-11.9537
▁လှေလှော်	-11.9538
▁အဋ္ဌမ	-11.9538
▁ကတ္တရာ	-11.9538
ိုခေါက်ချိုး	-11.9538
▁ပင်လယ်အော်	-11.9539
▁သာလီစွ	-11.9539
▁နဲတကာ	-11.954
land	-11.9541
▁ကျမ်းဂန်	-11.9541
▁ကောက်နုတ်	-11.9541
▁အသာစီး	-11.9542
▁လှမ်းခေါ်	-11.9544
▁စီးပွားရေးသမား	-11.9546
▁ရုပ်ထု	-11.9546
န်ဆင်း	-11.9546
▁ဟွန့်	-11.9547
▁ရုပ်ပွား	-11.9547
▁တေးသံ	-11.9551
▁ဝတ္ထုရှည်	-11.9552
လျှိုး	-11.9553
▁ဉာဏ်ရည်	-11.9556
ဖိုင်	-11.9563
▁အယ်လီ	-11.9564
▁မစ္စက်	-11.9564
▁ဓာတ်ခွဲ	-11.9565
▁ဟင့်	-11.9571
▁ဆေးစစ်	-11.9572
▁ဝိုင်းစု	-11.9573
▁စစ်မက်	-11.9585
▁ထိပ်ထား	-11.9585
▁ဖျင်	-11.9603
▁အွန်း	-11.961
▁စတား	-11.9612
▁အူကြောင်	-11.9664
ထူးခကျွန်	-11.9665
းအဆီး	-11.9666
ကွန်းအိ	-11.9705
နှိုး	-11.9705
ဓာတ်ငွေ့	-11.9706
ဘေ	-11.971
ငို	-11.9711
ကုန်သည်	-11.9721
လက်လက်	-11.9724
၂၀၀	-11.974
အတား	-11.9761
ဗတ်	-11.9765
▁နျူကလ	-11.9781
ဒိတ်ဒိတ်	-11.9781
▁ချုပ်ချယ်	-11.9781
▁ငြှိမ်း	-11.9781
▁ဖိုးတခေတ်	-11.9781
▁ဖြည်းညင်း	-11.9781
▁ဝေဟင်	-11.9781
▁အံ့အားသင့်	-11.9781
🌹	-11.9781
▁မလွဲမသ	-11.9781
▁မိုးကောင်းကင်	-11.9781
▁အီရတ်	-11.9781
▁ကျောင်းအုပ်ကြီး	-11.9781
▁ဥတ္တရ	-11.9781
ဗ္ဘ	-11.9781
▁လူမှုဝန်ထမ်း	-11.9782
▁သုခရိတ်	-11.9782
▁ရိုးရိုးသားသား	-11.9782
▁ညဉ့်နက်	-11.9782
▁ဗဟိုဌာန	-11.9782
able	-11.9783
▁ဂျိန်း	-11.9783
▁အာရုံကြော	-11.9784
▁စိတ်မရှည်	-11.9784
၁၄၃	-11.9785
▁မအလ	-11.9785
▁မြားပစ်	-11.9785
▁ဖေမြင့်	-11.9787
▁ချိုချို	-11.9787
▁ကျားသစ်	-11.9788
▁မီးဘေး	-11.9794
▁သရက်ပင်	-11.9794
▁ရေခဲပြင်	-11.9794
▁ဗီဇာ	-11.9795
သက်လုံး	-11.9797
low	-11.9798
▁ကင်းကင်း	-11.98
▁ဦးကျော်သူ	-11.9802
▁တဝက်	-11.9804
▁တတွတ်	-11.9804
▁သတ်သတ်	-11.9806
▁ချုပ်နှောင်	-11.9811
▁ထက်ဝက်	-11.9813
▁တောတောင်	-11.9815
ကြူး	-11.9815
ပြည့်စုံ	-11.985
ich	-11.9887
ာယတန	-11.9895
........	-11.9901
ဂစ်	-11.9913
ရောင်ရမ်း	-11.9926
▁ခိုင်ခိုင်	-11.993
မုန်း	-11.9931
ana	-11.9938
စရိယ	-11.9943
ငါ	-11.9952
အင်္ကျီ	-11.9955
အရည်အချင်း	-11.9955
စျေး	-11.9955
~	-11.9955
ပလီ	-11.9957
လက်ရုံး	-11.9961
▁သစ်ခွ	-11.9972
မွှန်	-11.9984
▁လဝက	-11.9987
▁ဖြူဖွေး	-11.9999
▁၆၀၀၀	-12.0012
ဇွန်	-12.0024
▁အကြွင်း	-12.003
down	-12.0031
လုပ်ဖော်ကိုင်ဖက်	-12.0031
ျစ်လျစ်	-12.0031
▁MPT	-12.0031
▁ကွမ်တမ်	-12.0031
▁ထေရဝါဒ	-12.0031
▁ပုစ္ဆာ	-12.0031
▁အကြံအစည်	-12.0031
▁အရိုအသေ	-12.0031
▁Hubble	-12.0031
▁လျှက်	-12.0031
ဖလွိုက်	-12.0031
ဝုဒ်	-12.0031
ငြင်	-12.0031
▁စွယ်တော်	-12.0031
▁ရွှေပြည်သာ	-12.0031
▁ရီးရဲ	-12.0031
▁ဆော့ကစား	-12.0031
▁ထင်းရှူး	-12.0031
▁မြင်းလှည်း	-12.0032
▁လွမ်းဆွတ်	-12.0032
▁သင်္ခါရ	-12.0032
ဆော့ဖ်	-12.0033
ရွရွ	-12.0033
▁သာယာဝတီ	-12.0034
▁အရှင်သခင်	-12.0034
ဆယ့်နှစ်	-12.0034
atch	-12.0035
▁ထုထည်	-12.0035
▁မက်မော	-12.0035
▁မှတ်ဉာဏ်	-12.0035
▁ကြယ်ပွင့်	-12.0036
▁ရုံးပိတ်ရက်	-12.0036
▁အပြာနု	-12.0036
▁ဂေါ်လီ	-12.0037
▁ကျောက်မြောင်း	-12.0037
▁ကိုကြီးငဲ	-12.0041
▁ငိုယို	-12.0042
han	-12.0042
▁မြေခွန်	-12.0042
▁ကျောင်းပိတ်ရက်	-12.0042
▁အလဲအ	-12.0043
▁ပြည့်ပြည့်	-12.0048
ီလီယံ	-12.0048
▁ဟင်းရည်	-12.0058
▁ဒေါ်စိန်	-12.0061
ကောက်ကောက်	-12.0071
တန်တန်	-12.0071
▁ဓနု	-12.0087
မသက်	-12.0106
မျို	-12.0138
▁ဘရက်	-12.0148
လန့်တ	-12.0151
လှဲ	-12.0162
▁၁၁၀	-12.0182
ီဝီ	-12.019
ိနော	-12.0191
ခင်နက်	-12.0198
dge	-12.02
*	-12.0208
မဲမဲ	-12.0209
မုန့်	-12.021
ဂျယ်	-12.021
သဘာဝ	-12.0211
ဘီလူး	-12.0213
နှုတ်	-12.0214
▁ဖြည်	-12.0223
ဇယား	-12.0225
ရိပ်သာ	-12.0229
ပွေ့	-12.0238
▁tr	-12.0244
ဂျုံး	-12.0266
ယင်း	-12.027
ิ	-12.0287
้	-12.0287
ी	-12.0287
စိမ့်စိမ့်	-12.0287
▁Science	-12.0287
▁Sky	-12.0287
▁ငေါက်	-12.0287
▁တရားဥပဒေ	-12.0287
▁ထိမ်းမြား	-12.0287
▁ဒီဃပိဌိ	-12.0287
▁ပါကစ္စတန်	-12.0287
▁ပြက္ခဒိန်	-12.0287
👀	-12.0287
🔫	-12.0287
▁မျှမျှတတ	-12.0287
▁ညွန့်မေ	-12.0287
▁အရေးတော်ပုံ	-12.0287
▁ကြောက်လန့်	-12.0287
▁ဒါယကာ	-12.0287
▁နှစ်သိမ့်	-12.0287
▁နျူကလိယ	-12.0287
▁ပဗ္ဗတ	-12.0288
▁ရှူရှိုက်	-12.0288
▁မင်းတုန်းမင်း	-12.0288
▁အငြိမ့်	-12.0288
▁လက်ခုပ်တီး	-12.0288
မှားအယွင်း	-12.0289
▁၀၈၂	-12.0289
ေရွှရ	-12.0289
▁ထုံးတမ်း	-12.0289
▁သိုးမွေး	-12.0289
▁ချီးထုပ်	-12.0289
▁ဦးဝင်းမြင့်	-12.029
▁ဂျပု	-12.0292
▁ယောင်ယောင်	-12.0294
▁အချက်အချာ	-12.0294
▁ဟောတု	-12.0298
▁အသိတရား	-12.0298
▁ဇာတာ	-12.0298
▁ဟိုဟို	-12.03
▁ငစိုင်း	-12.0301
▁ကျောက်ခဲ	-12.0301
▁ဆေးပညာ	-12.0302
▁ခလောက်	-12.0304
▁အရသာရှိ	-12.0306
ဖေး	-12.0307
ဖေါ်	-12.0309
သရော	-12.0311
▁အေစီ	-12.0313
▁မြင်းသည်	-12.0314
▁ဌာနေ	-12.0315
▁ဖြည့်စွ	-12.0316
IM	-12.0318
▁ငါးသောင်း	-12.0319
▁အမျှင်	-12.0324
ID	-12.0346
▁၁၂၂	-12.0363
▁ဗြောင်	-12.0388
ple	-12.041
ဖမိုး	-12.0411
ုန်းတီး	-12.0413
chi	-12.0415
ရေလျှံ	-12.0421
▁အငို	-12.0428
▁သဗျ	-12.043
PP	-12.0438
▁ကြက်ဖ	-12.045
မပူ	-12.0454
လားလား	-12.0455
အယ်လ်	-12.0474
နှိမ်	-12.0474
ဓာတု	-12.0477
လှည်း	-12.0478
နံ့သာ	-12.0482
ရွာသား	-12.0484
▁ဗြော	-12.0488
▁မဇ္ဈိမ	-12.055
ယဝမဇ္ဈဂုံး	-12.055
▁ကုက္ကို	-12.055
▁ကျစ်ကျစ်	-12.055
▁ခရမ်းချဉ်သီး	-12.055
▁ငုတ်တုတ်	-12.055
▁စိုစွတ်	-12.055
▁ဒစ်ဂျစ်	-12.055
▁လိုက်လျောညီထွေ	-12.055
▁လေးလေးနက်နက်	-12.055
▁ဝပ်ရှော့	-12.055
▁သတ္ထု	-12.055
▁အနှောက်အ	-12.055
▁အိန္ဒြေ	-12.055
▁ဣတိပိ	-12.055
▁ငွေစက္ကူ	-12.055
▁ဆံတော်ရှင်	-12.055
▁ပတ်စ်ပို့	-12.055
▁ဘဒ္ဒန္တ	-12.055
▁Plan	-12.055
▁ဖက်ခလာ	-12.055
count	-12.055
▁ဂုမ္ဘ	-12.0551
▁စူးစိုက်ကြည့်	-12.0551
ညက်ညက်	-12.0551
▁ပရိုဂရမ်	-12.0551
▁လူမမာ	-12.0551
▁ထူးချွန်	-12.0551
▁သန့်သန့်	-12.0551
▁ထွန်းညှိ	-12.0552
▁အယ်လယ်	-12.0553
▁ဖျာပုံ	-12.0553
▁ဖွေးစိန်	-12.0554
▁အီရန်	-12.0555
▁ကုဒ်	-12.0557
▁ယက္ခ	-12.0557
▁ငှက်ဖျား	-12.0559
day	-12.0559
▁အပူပိုင်း	-12.056
▁မြကန်	-12.0562
▁ရွှေမှုန်	-12.0567
ဖေးမ	-12.0568
▁တပည့်တော်မ	-12.0572
▁ထကြွ	-12.0573
▁အသည်းအသ	-12.0586
ဂျူ	-12.059
အတောက်	-12.0603
သိန်းတန်	-12.0623
၅ဝဝဝ	-12.0633
ွဲတေ	-12.0645
ဟားဟား	-12.0651
ပစ္စယ	-12.0667
န္တေ	-12.0667
▁ပန်းတန	-12.0709
အားမရ	-12.0717
သစ္စာ	-12.0745
မြိတ်	-12.0745
▁ကြိုးကြာ	-12.0746
လှေကား	-12.0747
စိန်ဝင်း	-12.0764
▁၅၀၀၀၀	-12.0778
ြာ	-12.0788
၁၉၉၄	-12.079
▁ဆွာ	-12.081
▁နရပတိ	-12.0821
द	-12.0821
▁ဂျော်ဂျင်ဟို	-12.0821
▁စိတ်ပါဝင်စား	-12.0821
▁ဆုလာဘ်	-12.0821
▁ဇေရဲထက်	-12.0821
▁ဒေါ်ငယ်ငယ်	-12.0821
▁ပအိုဝ်း	-12.0821
▁လောကုတ္တရ	-12.0821
▁ဝမ်းဗိုက်	-12.0821
▁အနွေးထည်	-12.0821
▁အောက်စီဂျင်	-12.0821
▁ဦးဖိုးကျား	-12.0821
▁ဦးဘဂျမ်း	-12.0821
▁အသုရာ	-12.0821
▁အငတ်	-12.0821
▁မွချိ	-12.0821
▁အားပီး	-12.0821
▁နရပတိစည်သူ	-12.0821
▁ရုံမက	-12.0821
စပီကာ	-12.0821
▁သန်လျက်	-12.0821
STE	-12.0821
▁ကျီးကန်း	-12.0822
▁ကလေက	-12.0822
န့်ကြာ	-12.0822
▁အိုဘားမား	-12.0822
code	-12.0822
▁လစ်လပ်	-12.0823
ative	-12.0825
ပွိုင့်	-12.0825
▁ခြင်ထောင်	-12.0826
▁အုန်းသီး	-12.0826
▁ထန်းပင်	-12.0827
▁Sun	-12.0828
▁၀၆၇	-12.0828
▁အာမိတ်	-12.0828
ဘဉာဏ်	-12.0828
▁သဲလွန်	-12.0829
▁နန်းဆု	-12.083
ဘားမား	-12.083
▁တစ်မျိုးသား	-12.0832
▁အယ်နီ	-12.0832
▁ရုပ်သေး	-12.0833
▁အဲရစ်	-12.0834
▁သရော်	-12.0835
▁စက်ရုပ်	-12.0836
ပျောင်း	-12.0838
▁အင်းယား	-12.084
▁ခြံဝင်း	-12.0847
▁ချွဲ	-12.0852
▁အိမ်ရှေ့မင်း	-12.0854
▁Act	-12.0854
ထုံ	-12.088
၂၀၂၂	-12.0882
▁အိုင်တီ	-12.0896
ငိုက်	-12.0896
▁ဖားကန	-12.0897
▁အမူအကျင	-12.0902
▁ချဉ်ပေါင်	-12.0911
sity	-12.0926
မ္ပိ	-12.0931
ew	-12.0952
အမေရိကား	-12.0973
wa	-12.0992
ျိုချ	-12.0994
▁ကိုခင်မောင်	-12.1009
ဖန်ဖန်	-12.101
ဂေဟာ	-12.1023
ike	-12.1025
ပင့်	-12.1027
သန္တာ	-12.1027
000	-12.1027
ငေး	-12.1033
▁သမိန်ပ	-12.1036
ထင်ထင်	-12.1061
▁ဖီး	-12.1082
▁ကြံဆ	-12.1095
ကြွေ	-12.1096
▁အကောင်အထည်	-12.1098
ဖျပ်ဖျပ်	-12.1098
▁TNLA	-12.1098
▁mission	-12.1098
▁ကင်ပွန်း	-12.1098
▁ကေဒါရ	-12.1098
▁ဂြိုလ်	-12.1098
▁ဆွယ်တာ	-12.1098
▁ဇီဒန်း	-12.1098
▁တောင်သူလယ်သမား	-12.1098
▁ဖျောင်းဖျ	-12.1098
▁ဝတ်စားဆင်ယင်	-12.1098
▁သမဝါယမ	-12.1098
▁အင်ပါယာ	-12.1098
▁စီနီယာ	-12.1098
▁ဦးရွှေမန်း	-12.1098
▁ညည်းညူ	-12.1098
▁မင်းအုပ်စိုး	-12.1098
▁အဟီး	-12.1098
▁တော်သလင်း	-12.1098
▁ဘုရင့်နောင်	-12.1098
▁စာစီစာ	-12.1098
▁တောင်ပြုန်း	-12.1098
▁ဒေတာ	-12.1099
▁မစ်ဒယ်	-12.1099
▁xxx	-12.1099
▁မည်းမည်း	-12.1099
▁မနီးမ	-12.1099
▁အာကာသယာဉ်	-12.11
▁ဆံထုံး	-12.11
▁ရူပါ	-12.11
▁သုသု	-12.1101
▁ဖျတ်လတ်	-12.1101
▁အာနန္ဒာ	-12.1102
▁နီပေါ	-12.1102
▁ဂျပိုး	-12.1103
▁ဦးစီးမှူး	-12.1103
▁ယူနီကု	-12.1103
▁ကျောက်ခေတ်	-12.1103
▁၁၉၄၂	-12.1104
▁ကြိုးကြိုး	-12.1107
▁မီးလျှံ	-12.1109
▁ဒေါ်နန်း	-12.1112
▁ကူရှင်	-12.1115
▁ခွေးရူး	-12.1118
▁နှုတ်ထွက်	-12.1119
▁ထိပ်တိုက်	-12.112
▁အသားညို	-12.1122
▁ယူနီဖော	-12.1125
q	-12.1133
ဂကျွန်	-12.114
ချော့မော့	-12.115
BS	-12.115
ator	-12.1155
eam	-12.1159
စ်ကီ	-12.1164
ဂွီ	-12.117
▁ဒေါ်ခင်သန်း	-12.126
နေမင်းအိမ်	-12.1265
▁ဖလင်	-12.1303
ဥစ္စာ	-12.1308
😁	-12.1308
လိမ့်	-12.1308
ရှမ်း	-12.1314
ိုဏ်ခေါင်း	-12.1316
ism	-12.1326
သိန်းဖေ	-12.1367
ိုင်းတုံ	-12.1379
▁ဒေါ်နယ်ထရမ	-12.1384
ology	-12.1384
ो	-12.1384
▁စတော်ဘယ်ရီ	-12.1384
▁ပရမ်းပတာ	-12.1384
▁ပြောရေးဆိုခွင့်	-12.1384
▁မုဟမ္မ	-12.1384
▁လက်အုပ်ချီ	-12.1384
▁လှလှပပ	-12.1384
▁စစ်မှုထမ်း	-12.1384
▁တူရကီ	-12.1384
▁နာတာရှည်	-12.1384
▁ဟော်ကီ	-12.1384
▁အတွေးအမြင်	-12.1384
ယော့ခ်	-12.1384
▁အအောင်မြင်	-12.1384
▁ကိုသန့်ဇင်	-12.1384
▁တစ်ကိုယ်ရေ	-12.1384
▁ရေငုပ်	-12.1384
▁တောင့်တင်း	-12.1384
▁အဆင်တန်ဆာ	-12.1384
▁လှောင်ပြောင်	-12.1385
ေ့မြော	-12.1385
▁ဒီမိုကရက်တစ်	-12.1385
▁ရိတ်သိမ်း	-12.1385
▁နက်မှောင်	-12.1385
▁ပြည့်တန်ဆာ	-12.1386
▁ငိုက်စိုက်	-12.1386
▁စွန့်ခွာ	-12.1386
▁မြစ်ဆိပ်	-12.1387
▁ထန်းသီး	-12.1388
လွတ်ကင်း	-12.1389
▁ဇာတ်လမ်းတွဲ	-12.139
▁သံမဏိ	-12.1391
▁အိပ်ဇော	-12.1391
မြရင်	-12.1391
▁ဖွံ	-12.1393
▁၁၉၇၄	-12.1393
▁မျက်ကွင်း	-12.1393
▁တန်းလန်း	-12.1394
▁တေးရေး	-12.1394
င်ဒီယာ	-12.1396
▁၁၉၄၀	-12.1397
▁ဒိုင်ယာ	-12.1397
▁ပြည့်ပြည့်	-12.14
18	-12.1441
16	-12.1452
အတွင်းရေးမှူး	-12.1471
ရာဇာစော	-12.1479
DF	-12.1495
ခကျွန်း	-12.1509
ျူရီ	-12.152
ဂင်္ဂါ	-12.1527
IP	-12.1533
▁မြည်ဟ	-12.1552
တောက်တောက်	-12.1555
လှော်	-12.1599
ရိက္ခာ	-12.1602
ဝိဇ္ဇာ	-12.1602
😂	-12.1602
ဝန်ထမ်း	-12.1621
ဒေါက်	-12.1622
▁ဖြောင်း	-12.1673
▁ကော်ဇော	-12.1675
▁ကျမ်းကျိန်	-12.1678
ထစ်ချုန်း	-12.1678
▁Research	-12.1678
▁World	-12.1678
▁ကန်ထရိုက်	-12.1678
▁စံဒွန်း	-12.1678
▁တေးသီချင်း	-12.1678
▁နျူထရွန်	-12.1678
▁နွေးနွေးထွေး	-12.1678
▁ပဓာန	-12.1678
▁ပြေးခုန်ပစ်	-12.1678
▁မွေးရပ်မြေ	-12.1678
▁သက်သောင့်သက်သာ	-12.1678
▁ဟန်ချက်ညီ	-12.1678
work	-12.1678
ह	-12.1678
▁ကုမာရ	-12.1678
▁ဒေါ်လှလှ	-12.1678
▁နာမကျန်း	-12.1678
▁ပညတ်	-12.1678
▁အလုပ်အကျွေး	-12.1678
ต	-12.1678
▁အရေးအကြီးဆုံး	-12.1678
ဝင်းဂါး	-12.1678
▁ကြိယာ	-12.1679
▁Lock	-12.1679
▁ကီရီ	-12.168
▁ကိုးကန့်	-12.168
の	-12.168
▁မုချ	-12.168
▁လက်စသတ်	-12.168
▁မာတီန	-12.1681
▁ဆူးလေ	-12.1681
▁ခြွေ	-12.1681
▁ဝမ်းလျှော	-12.1681
▁ဆင်စွယ်	-12.1682
▁နှဲ	-12.1683
▁ကျင့်ဝတ်	-12.1684
▁ကြက်ခြေ	-12.1684
▁မိုင်တယ်	-12.1684
သည်းပွတ်	-12.1684
▁မာန်အောင်	-12.1688
ညှာတာ	-12.1688
▁စတိုင်လ်	-12.1689
...............	-12.1704
ality	-12.1704
CO	-12.1708
ware	-12.1715
ကျော်ထင်	-12.1728
ဖိုတွန်	-12.1742
▁ကြည်ကြည်	-12.175
ချွန်	-12.1759
ဝေးဝေး	-12.1764
ရှိုင်း	-12.1777
fic	-12.1787
၉၄၁	-12.1807
ဒုက္ခ	-12.1851
ပယောဂ	-12.186
ပြာပြာ	-12.1873
မွှေ	-12.1897
ဆည်	-12.1902
ယဉ်ကျေး	-12.1906
မြင့်ဆွေ	-12.1922
စိုက်ကြည့်	-12.1923
ပရာယ	-12.1929
အတင့်	-12.1943
ိုးနပ်	-12.1972
န့်ကြာ	-12.1976
▁အလေ့	-12.198
▁ကြံ့ကြံ့	-12.1981
°	-12.1981
ထွဏ်း	-12.1981
ဒိဋ္ဌိ	-12.1981
ဖြေးဖြေး	-12.1981
▁David	-12.1981
▁Nature	-12.1981
▁ကြက်တူရွေး	-12.1981
▁တည်းဟူသော	-12.1981
▁ဒေါ်ကုလားမ	-12.1981
▁ပစ္စုပ္ပန်	-12.1981
▁ဗွီဒီယို	-12.1981
▁မြင်းဇောင်း	-12.1981
▁လီမိတက်	-12.1981
▁အမှုတော်ထမ်း	-12.1981
▁အေမန်ဒါ	-12.1981
★	-12.1981
▁ဂိုဒေါင်	-12.1981
▁အဟင့်	-12.1981
▁ယူရေးနပ်	-12.1981
▁အချိုးအစား	-12.1981
▁အမြော်အ	-12.1981
的	-12.1981
▁ပိန်ပိန်	-12.1982
▁နေနေသာသာ	-12.1982
▁ဧဝံ	-12.1982
▁အယ်လဲ့	-12.1983
▁အုန်းပေါင်	-12.1983
▁မျက်ခြည်	-12.1983
ilate	-12.1983
mail	-12.1983
▁သက်မွန်မြင့်	-12.1984
▁ခရမ်းလွန်	-12.1984
▁အိမွန်	-12.1984
▁အမှတ်တံဆိပ်	-12.1984
▁ဆာလောင်	-12.1985
▁ငြင်းခုံ	-12.1985
န်ပြူ	-12.1985
▁စည်သူအောင်	-12.1986
▁မြောက်ကိုရီးယား	-12.1986
▁ပြန့်နှံ	-12.1986
▁ပျံ့လွင	-12.1988
▁အစုစု	-12.1991
▁လယ်မြေ	-12.1994
ယွန်းမှီမှီ	-12.2001
ုတယ	-12.2019
နိမ့်	-12.2023
နမ့်ဆ	-12.2043
ပြောင်မြောက်	-12.2069
းဒါး	-12.2074
အားခ	-12.2096
သည်းထန်	-12.2139
▁Mod	-12.2167
EC	-12.2188
▁နှံ့	-12.2194
ရှေ့	-12.2196
▁Natio	-12.2199
မိန့်	-12.2204
သဲကွဲ	-12.2213
တံဆိပ်	-12.2217
ဒုံး	-12.2218
&	-12.2218
ဟောင်	-12.2223
que	-12.2255
▁ဖျန်	-12.2286
system	-12.2294
▁AGD	-12.2294
▁Dai	-12.2294
▁System	-12.2294
▁Teacher	-12.2294
▁ဂျူပီတာ	-12.2294
▁စက်သုံးဆီ	-12.2294
▁ဆော့ဖ်ဝဲ	-12.2294
▁ဆွီဒင်	-12.2294
▁ထမနဲ	-12.2294
▁ဗာရာဏသီ	-12.2294
▁မင်းသုဝဏ်	-12.2294
▁သဗ္ဗညု	-12.2294
▁ဟက်ဟက်ပ	-12.2294
▁အပေးအယူ	-12.2294
▁ကြိုက်နှစ်သက်	-12.2294
▁ငှဲ့	-12.2294
▁တန်ဘိုး	-12.2294
▁ဒါယိကာမ	-12.2294
▁ဘယ်ဂျီယံ	-12.2294
▁မိစ္ဆာ	-12.2294
▁လောကဓံ	-12.2294
သုဘဒ္ဒ	-12.2294
▁ယုတ္တိ	-12.2294
▁သံပုရာ	-12.2294
တစ်သက်တစ်ကကျွန်း	-12.2294
▁ဘက်ထရီ	-12.2294
▁မရမ်းကုန်း	-12.2294
▁၃၉၈၅၆	-12.2294
▁ကပျာက	-12.2294
▁ဂရုဏာ	-12.2294
▁ကျောခိုင်း	-12.2295
▁Tele	-12.2295
▁၂၅၀၅၉	-12.2295
▁မဟာမုနိ	-12.2295
▁ပိဋကတ်	-12.2295
▁ဆော့ဝဲ	-12.2296
▁စက်လှေ	-12.2296
ဟင်နရီ	-12.2296
▁ကျွဲရိုင်း	-12.2297
▁တစုံတ	-12.2298
▁ချပ်ဝတ်	-12.2298
▁မရေမ	-12.2298
▁ဘေလီ	-12.2298
▁ဥဩ	-12.2298
▁ညောင်ရမ်း	-12.2299
▁တီတီ	-12.23
ာမဏီ	-12.2301
▁အာဏာရူး	-12.2303
▁ဖရန်	-12.2304
arth	-12.2309
ခင်မောင်ကျော်	-12.232
’’	-12.2342
ုပြုံ	-12.2351
ခြံရံ	-12.24
ဲကင်း	-12.2441
▁သမယ	-12.2448
ဂွေး	-12.245
▁အေးဂျင	-12.246
▁ပီကေ	-12.2478
BA	-12.2483
▁ပေါ်လစ	-12.2484
▁နက်နက်	-12.2517
ကကျွန်	-12.2533
မောမော	-12.2537
ကမ္ဘာ	-12.2539
သင်္ဘော	-12.254
😍	-12.254
ဝန်းကျင်	-12.2541
ကျောက်တုံး	-12.2543
သမ္မတ	-12.2546
ပိုင်းအစ	-12.2576
၁၉၉၇	-12.2582
ဗုဒ္ဓါ	-12.2588
▁ယာဉ်စီးခ	-12.2602
▁ပုည	-12.2615
▁သင်းပျံ့	-12.2615
ป	-12.2616
ဗုဓ်	-12.2616
လျှမ်း	-12.2616
▁ဆဒ္ဒန်	-12.2616
▁တာဝတိံသာ	-12.2616
▁ပိုင်တံခွန်	-12.2616
▁မြနဂါး	-12.2616
▁ရာဇကုမာရ်	-12.2616
▁ရုပ်ပုံရွှေလွှာ	-12.2616
▁ရွှေမှုံရတီ	-12.2616
▁ဟဟဟဟ	-12.2616
▁ဟဲဗီးဝိတ်	-12.2616
▁အမျိုးအမည်	-12.2616
▁ကုန်စုံဆိုင်	-12.2616
▁ခန့်ညား	-12.2616
▁ဆယ်ကျော်သက်	-12.2616
▁အထင်အမြင်	-12.2616
▁အရှင့်	-12.2616
▁ဆူဆူညံ	-12.2616
▁ဦးမြင့်ဆွေ	-12.2616
ဝတ်မှုန်ရွှေရည်	-12.2616
▁အချည်း	-12.2616
Ltd	-12.2616
▁ကြို့ပင်	-12.2616
รับ	-12.2617
▁ပျော်တော်ဆက်	-12.2617
▁သင်ရိုးညွှန်းတ	-12.2617
▁ကပ္ပလီ	-12.2617
▁ကိတ်မုန့်	-12.2617
▁ရော်ဘာ	-12.2617
▁name	-12.2617
▁ကျဲကျဲ	-12.2617
▁မလှုပ်မ	-12.2617
▁ညှိုးနွမ်း	-12.2617
▁ထန်းရွက်	-12.2618
▁တင်းတိမ်	-12.2618
▁စီးချင်းထိုး	-12.2618
▁ဆံပင်ညှပ်	-12.2618
▁အိချော	-12.2619
▁မသမာ	-12.2619
နွဲ့နွဲ့	-12.2619
▁ဦးဦးစိုင်း	-12.262
▁တံပိုး	-12.262
▁ဣဒ	-12.2621
▁ကိုမျိုးကြီး	-12.2621
▁သေနာပတိချုပ်	-12.2621
နဝတ	-12.2621
▁ကျောပိုး	-12.2622
▁မီးရထားလမ်း	-12.2623
▁ရှေးရှု	-12.2623
▁ဝင်းဇော်	-12.2624
▁ပွတ်တိုက်	-12.2624
▁ပန်ဆင်	-12.2625
ညှိုးငယ်	-12.2652
ချူပ်	-12.2657
ကတ္တား	-12.2677
▁ထရမ	-12.268
မေ့ပျောက်	-12.2703
ET	-12.2703
ဂွန်	-12.2734
▁car	-12.2761
ုဂွေး	-12.279
မြင်ကတ်	-12.2831
HA	-12.2843
၉၈၀	-12.2845
ဖြူရော်	-12.2856
▁ထရမ်	-12.2891
▁ဘန်လေ	-12.2928
လွှမ်းပိုင်	-12.2935
ငါးဆယ်	-12.2937
ဇ္စျ	-12.295
▁Institute	-12.295
▁Web	-12.295
▁website	-12.295
▁ကိန္နရာ	-12.295
▁တွားသွား	-12.295
▁ပီမိုးနင်း	-12.295
▁ဗင်နီဇွဲလာ	-12.295
▁ဗလင်စီယာ	-12.295
▁ဝေငှ	-12.295
▁‘‘	-12.295
▁good	-12.295
▁~~~	-12.295
▁ငနဲ	-12.295
▁ဖိုက်တာ	-12.295
▁ဗိုလ်အောင်ကျော်	-12.295
▁ရာမို့စ်	-12.295
▁အထင်အရှား	-12.295
▁ချွေတာ	-12.295
▁ဇူကာ	-12.295
▁မိထိလာ	-12.295
▁ကိုယ်ရေးကိုယ်	-12.295
▁အသပြာ	-12.295
▁ဝင်္က	-12.295
▁စနိုက်	-12.295
ization	-12.295
▁အကုန်အကျ	-12.295
ချိုမြိန်	-12.295
▁Media	-12.295
▁ဆဋ္ဌမ	-12.295
byl	-12.295
ັ	-12.295
▁သုံ့	-12.295
▁ထန်းလျက်	-12.295
လူးဝစ်	-12.295
▁ကရာတေး	-12.295
ມ	-12.295
▁မသေမချ	-12.2951
▁တီးမှုတ်	-12.2951
▁သင်္ဘောဆိပ်	-12.2952
▁မျက်ခွံ	-12.2952
▁နတ္ထိ	-12.2952
▁ဝန်ထုပ်	-12.2952
▁လုံလုံလောက်	-12.2952
▁ဧည့်ခန်း	-12.2953
တက္ကသိုလ်ဝင်တန်း	-12.2953
▁ယဇ်	-12.2953
▁ပိုင်ဖြိုးသ	-12.2954
▁ပီကင်း	-12.2955
ular	-12.2956
မုနိ	-12.2963
န်းကျန်း	-12.2963
IV	-12.2987
ခကျွင်	-12.2989
ER	-12.3002
မတ်ဂျ	-12.3066
မင်္ဂလ	-12.3069
ေ့ချ်	-12.3074
သံချောင်း	-12.3093
NU	-12.3118
NR	-12.312
time	-12.3166
ျဉ်းသား	-12.3189
တည်ကြည်	-12.3208
ဒါမှမဟုတ်	-12.3218
😘	-12.3219
$	-12.3219
▁ဝိဒေ	-12.3262
พ	-12.3294
▁ခွေးလေခွေးလွင	-12.3295
DAA	-12.3295
science	-12.3295
စည်းစည်းလုံးလုံး	-12.3295
▁ခြွင်းချက်	-12.3295
▁စကြာဝဠာ	-12.3295
▁ညည်းတွား	-12.3295
▁ဖာသယ်မ	-12.3295
▁ဗောင်းစ	-12.3295
▁ဘဂဝတော	-12.3295
▁မုန့်ဟင်းခါး	-12.3295
▁မြွေပွေး	-12.3295
▁မြွေဟောက်	-12.3295
▁မွန်းတည့်	-12.3295
▁အလိမ္မာ	-12.3295
▁အေအက်ဖ်ပီ	-12.3295
♪	-12.3295
🌚	-12.3295
🎤	-12.3295
💐	-12.3295
▁Java	-12.3295
▁ကြေးမုံ	-12.3295
▁ဂန္တဝင်	-12.3295
▁ပူဆွေး	-12.3295
▁ပြာသာဒ်	-12.3295
▁မွေ့လျော်	-12.3295
▁ဟင်းလင်းပြင်	-12.3295
ब	-12.3295
▁Computer	-12.3295
▁Engl	-12.3295
ที่	-12.3295
ဖြိုးမင်းသိန်း	-12.3295
ဖေါင်း	-12.3295
▁Program	-12.3295
သိင်္ခ	-12.3295
▁မကောင်းဆိုးဝါး	-12.3295
▁တစ်နည်းနည်း	-12.3295
▁ပျော်ပွဲစား	-12.3295
▁ကွပ်မျက်	-12.3295
ဖော်ရွေ	-12.3295
ဓနုဂ	-12.3295
▁မအီမ	-12.3295
人	-12.3295
▁ကြက်ဥပြုတ်	-12.3295
▁ချစ်ကိုကြီး	-12.3296
▁လိမ္မော်သီး	-12.3296
す	-12.3296
ပြိုင်တူ	-12.3296
▁ကြက်ဥစိမ်း	-12.3297
▁ကွမ်းလုံ	-12.3297
▁လည်ရွဲ	-12.3298
▁အမျိုးယုတ်	-12.3298
▁ဦးဝင်းမြင့်	-12.3298
▁အမဲလိုက်	-12.3298
TO	-12.3298
လုံခြုံ	-12.3302
Development	-12.3304
▁အနူးအညွ	-12.3304
OB	-12.3307
ဒွဲ	-12.3307
ီဘက်စ်	-12.3308
▁အသင့်အတ	-12.3311
▁မူဆလ	-12.3332
ool	-12.3335
ဖြောင့်	-12.334
င်တုံ	-12.3375
ကပ်လှူ	-12.3418
air	-12.3429
09	-12.3451
▁စိမ်းစို	-12.3455
Mail	-12.3461
▁အနိုင်ကျင	-12.3486
▁You	-12.3544
ဖေါက်	-12.3561
;	-12.3575
ယိမ်း	-12.3581
▁အလွန်တရာ	-12.3582
ိုခေ	-12.3592
ဘေးဒဏ်	-12.3604
▁အစအန	-12.3621
▁အက်ဖ်	-12.3637
▁မဆလ	-12.3641
▁မုဒိ	-12.3651
<	-12.3652
လုအယက်	-12.3652
▁MFF	-12.3652
▁SEA	-12.3652
▁Technology	-12.3652
▁ကွာတားဖိုင်နယ်	-12.3652
▁ဂေါတကာဠ	-12.3652
ใ	-12.4022
ไ	-12.4022
💔	-12.4022
ဍ	-12.4022
‿	-12.4407
💃	-12.4407
🏼	-12.4807
を	-12.4808
–	-12.5147
แ	-12.5222
는	-12.5223
😧	-12.5223
い	-12.5224
स	-12.5658
႔	-12.5658
🎉	-12.5658
ณ	-12.5658
し	-12.5659
ื	-12.6113
你	-12.6589
ๆ	-12.6589
と	-12.659
्	-12.7089
ู	-12.7089
ज	-12.7089
👄	-12.7089
、	-12.709
ए	-12.7615
‍	-12.7615
ข	-12.7615
我	-12.7616
Z	-12.8094
ເ	-12.8171
ລ	-12.8171
प	-12.8171
औ	-12.8171
।	-12.8171
및	-12.8171
ດ	-12.8171
ບ	-12.8171
ົ	-12.8171
ຫ	-12.8171
ູ	-12.8171
け	-12.8172
私	-12.8173
ช	-12.8759
|	-12.8759
好	-12.8759
て	-12.876
ဣ	-12.9308
✌	-12.9308
ဦ	-12.9376
์	-12.9384
त	-12.9384
ธ	-12.9384
お	-12.9384
た	-12.9384
♥	-12.9975
រ	-13.0051
य	-13.0051
็	-13.0051
]	-13.0051
♧	-13.0051
다	-13.0051
👈	-13.0051
💑	-13.0051
ญ	-13.0051
る	-13.0052
#	-13.0689
❤	-13.0689
是	-13.0765
ា	-13.0765
្	-13.0765
ु	-13.0765
ဎ	-13.0765
ल	-13.0765
🌻	-13.0765
🏽	-13.0765
💸	-13.0765
🤪	-13.0765
भ	-13.0765
म	-13.1457
	-13.1534
±	-13.1534
✈	-13.1534
🌟	-13.1534
🍓	-13.1534
🏃	-13.1534
🤘	-13.1534
援	-13.1535
友	-13.1535
😊	-13.2291
😢	-13.2291
ຕ	-13.2367
Ö	-13.2367
◦	-13.2367
☆	-13.2367
니	-13.2367
요	-13.2367
을	-13.2367
의	-13.2367
합	-13.2367
💍	-13.2367
제	-13.2368
ຊ	-13.2368
ະ	-13.2368
捐	-13.2368
ທ	-13.2368
要	-13.2368
う	-13.2369
妹	-13.2369
水	-13.2369
始	-13.2369
有	-13.3277
👧	-13.3277
💎	-13.3277
📻	-13.3277
🔪	-13.3277
🖒	-13.3277
😹	-13.3277
😃	-13.4201
😜	-13.4201
👍	-13.4201
^	-13.4277
ग	-13.4277
▪	-13.4277
💯	-13.4277
😸	-13.4277
႕	-13.4277
โ	-13.4277
に	-13.4277
っ	-13.4277
ဤ	-13.5312
😝	-13.5312
	-13.5388
ត	-13.5388
ន	-13.5388
웃	-13.5388
❆	-13.5388
유	-13.5388
🍎	-13.5388
🐸	-13.5388
🖕	-13.5388
ษ	-13.5388
👏	-13.6562
ង	-13.6638
《	-13.6638
》	-13.6638
🎁	-13.6638
👣	-13.6638
👹	-13.6638
🤧	-13.6638
🤨	-13.6638
ि	-13.6638
	-13.6638
做	-13.6638
め	-13.6639
べ	-13.664
😅	-13.799
ក	-13.8066
ើ	-13.8066
ស	-13.8066
\	-13.8066
谁	-13.8066
थ	-13.8066
Ω	-13.8066
इ	-13.8066
़	-13.8066
国	-13.8066
大	-13.8066
爱	-13.8066
需	-13.8066
하	-13.8066
🇭	-13.8066
💌	-13.8066
📱	-13.8066
🤭	-13.8066
真	-13.8066
很	-13.8066
一	-13.8067
×	-13.9655
🙌	-13.9657
😡	-13.9657
😒	-13.9657
ผ	-13.9731
烦	-13.9732
麻	-13.9732
ฟ	-13.9732
ម	-13.9733
ែ	-13.9733
원	-13.9733
👩	-13.9733
⁠	-13.9733
美	-13.9733
}	-13.9733
¡	-13.9733
¥	-13.9733
»	-13.9733
ā	-13.9733
ढ	-13.9733
श	-13.9733
ສ	-13.9733
ຮ	-13.9733
ື	-13.9733
ໄ	-13.9733
≤	-13.9733
≥	-13.9733
♬	-13.9733
✅	-13.9733
与	-13.9733
及	-13.9733
姐	-13.9733
所	-13.9733
款	-13.9733
民	-13.9733
请	-13.9733
가	-13.9733
구	-13.9733
금	-13.9733
대	-13.9733
두	-13.9733
들	-13.9733
람	-13.9733
마	-13.9733
말	-13.9733
매	-13.9733
모	-13.9733
물	-13.9733
미	-13.9733
사	-13.9733
세	-13.9733
수	-13.9733
시	-13.9733
얀	-13.9733
에	-13.9733
와	-13.9733
움	-13.9733
있	-13.9733
자	-13.9733
작	-13.9733
주	-13.9733
지	-13.9733
친	-13.9733
필	-13.9733
한	-13.9733
형	-13.9733
홍	-13.9733
🇷	-13.9733
🎀	-13.9733
🐕	-13.9733
👼	-13.9733
😵	-13.9733
🤐	-13.9733
ä	-13.9733
	-13.9733
문	-13.9733
ກ	-13.9733
ປ	-13.9733
ຜ	-13.9733
ີ	-13.9733
ຸ	-13.9733
ຖ	-13.9734
ວ	-13.9734
ຽ	-13.9734
个	-13.9734
开	-13.9734
淹	-13.9734
赠	-13.9734
່	-13.9734
々	-13.9734
困	-13.9734
必	-13.9734
洪	-13.9734
行	-13.9734
こ	-13.9736
姉	-13.9736
開	-13.9736
👌	-14.1657
😉	-14.1657
😀	-14.1657
😪	-14.1657
၏	-14.1657
យ	-14.1733
ึ	-14.1733
さ	-14.1733
ん	-14.1733
	-14.1733
ុ	-14.1733
で	-14.1733
α	-14.1733
多	-14.1733
な	-14.1733
事	-14.1733
心	-14.1733
아	-14.1733
ê	-14.1733
ñ	-14.1733
ر	-14.1733
✂	-14.1733
❓	-14.1733
か	-14.1733
ン	-14.1733
什	-14.1733
哈	-14.1733
日	-14.1733
	-14.1733
🍃	-14.1733
🏾	-14.1733
🐒	-14.1733
🐧	-14.1733
😠	-14.4157
😞	-14.4157
😎	-14.4157
😌	-14.4157
ภ	-14.4233
	-14.4233
்	-14.4233
わ	-14.4233
	-14.4233
ó	-14.4233
а	-14.4233
м	-14.4233
ا	-14.4233
ฯ	-14.4233
ប	-14.4233
◉	-14.4233
☕	-14.4233
✨	-14.4233
吉	-14.4233
啦	-14.4233
喜	-14.4233
外	-14.4233
恭	-14.4233
生	-14.4233
이	-14.4233
	-14.4233
	-14.4233
🇫	-14.4233
🍺	-14.4233
💀	-14.4233
💉	-14.4233
📢	-14.4233
🔑	-14.4233
😿	-14.4233
没	-14.4233
Ñ	-14.4233
á	-14.4233
ي	-14.4233
ö	-14.4233
è	-14.4233
í	-14.4233
š	-14.4233
よ	-14.4233
ศ	-14.4233
导	-14.4233
ถ	-14.4233
ី	-14.4233
☝	-14.749
"	-14.749
😕	-14.7491
💕	-14.7491
😄	-14.7491
☺	-14.7491
ព	-14.7566
が	-14.7566
ご	-14.7566
何	-14.7566
女	-14.7566
ப	-14.7566
ç	-14.7566
®	-14.7566
·	-14.7566
ë	-14.7566
î	-14.7566
ō	-14.7566
ʖ	-14.7566
ː	-14.7566
͜	-14.7566
ب	-14.7566
م	-14.7566
୪	-14.7566
ၢ	-14.7566
វ	-14.7566
ហ	-14.7566
≦	-14.7566
≧	-14.7566
♕	-14.7566
⛵	-14.7566
ウ	-14.7566
南	-14.7566
啊	-14.7566
春	-14.7566
言	-14.7566
	-14.7566
	-14.7566
	-14.7566
🇪	-14.7566
🍸	-14.7566
🎄	-14.7566
🎥	-14.7566
🎹	-14.7566
🎻	-14.7566
🐘	-14.7566
🐣	-14.7566
🐮	-14.7566
👑	-14.7566
👪	-14.7566
💇	-14.7566
💤	-14.7566
💥	-14.7566
💨	-14.7566
📡	-14.7566
🔥	-14.7566
é	-14.7566
🇼	-14.7566
も	-14.7566
加	-14.7566
	-14.7566
	-14.7566
	-14.7566
ទ	-14.7566
👆	-15.2491
😱	-15.2491
😋	-15.2491
😛	-15.2491
🙏	-15.2491
😔	-15.2491
😏	-15.2491
။	-15.2491
ฉ	-15.2566
ច	-15.2566
ជ	-15.2566
ដ	-15.2566
为	-15.2566
学	-15.2566
年	-15.2566
	-15.2566
ர	-15.2566
サ	-15.2566
ハ	-15.2566
八	-15.2566
〷	-15.2566
グ	-15.2566
ジ	-15.2566
©	-15.2566
Ø	-15.2566
ô	-15.2566
č	-15.2566
ĝ	-15.2566
ř	-15.2566
Ŵ	-15.2566
ˆ	-15.2566
γ	-15.2566
ο	-15.2566
И	-15.2566
К	-15.2566
Н	-15.2566
и	-15.2566
н	-15.2566
о	-15.2566
ك	-15.2566
ل	-15.2566
ฆ	-15.2566
ዞ	-15.2566
Ꮍ	-15.2566
Ꮬ	-15.2566
ខ	-15.2566
ណ	-15.2566
ូ	-15.2566
℘	-15.2566
⋯	-15.2566
■	-15.2566
▲	-15.2566
◕	-15.2566
◡	-15.2566
◤	-15.2566
♫	-15.2566
⚒	-15.2566
⚠	-15.2566
⛏	-15.2566
✆	-15.2566
➡	-15.2566
せ	-15.2566
ね	-15.2566
ィ	-15.2566
ム	-15.2566
ュ	-15.2566
ー	-15.2566
不	-15.2566
之	-15.2566
也	-15.2566
了	-15.2566
亲	-15.2566
假	-15.2566
可	-15.2566
向	-15.2566
吧	-15.2566
呵	-15.2566
在	-15.2566
妈	-15.2566
島	-15.2566
帥	-15.2566
应	-15.2566
成	-15.2566
救	-15.2566
星	-15.2566
母	-15.2566
源	-15.2566
琴	-15.2566
石	-15.2566
纷	-15.2566
誕	-15.2566
語	-15.2566
름	-15.2566
쉿	-15.2566
운	-15.2566
웅	-15.2566
	-15.2566
🇧	-15.2566
🇱	-15.2566
🇾	-15.2566
🌛	-15.2566
🌜	-15.2566
🌲	-15.2566
🌶	-15.2566
🍄	-15.2566
🍉	-15.2566
🍗	-15.2566
🍲	-15.2566
🍷	-15.2566
🎷	-15.2566
🏛	-15.2566
🏠	-15.2566
🏡	-15.2566
🏢	-15.2566
🏦	-15.2566
🏫	-15.2566
🏬	-15.2566
🐆	-15.2566
🐛	-15.2566
🐢	-15.2566
🐦	-15.2566
👚	-15.2566
💊	-15.2566
💣	-15.2566
💿	-15.2566
📖	-15.2566
📚	-15.2566
📹	-15.2566
📺	-15.2566
🔧	-15.2566
🔨	-15.2566
🔩	-15.2566
🔸	-15.2566
🔹	-15.2566
🕣	-15.2566
🖊	-15.2566
🗡	-15.2566
🙎	-15.2566
🚗	-15.2566
🚙	-15.2566
🚩	-15.2566
🚫	-15.2566
🚶	-15.2566
🤒	-15.2566
🤝	-15.2566
🤢	-15.2566
🤥	-15.2566
🤫	-15.2566
🥊	-15.2566
🧝	-15.2566
Ô	-15.2566
们	-15.2566
李	-15.2566
🇮	-15.2566
ル	-15.2566
对	-15.2566
望	-15.2566
ិ	-15.2566
发	-15.2566
领	-15.2566
🤡	-16.2367
😼	-16.2368
📷	-16.2369
💧	-16.237
👭	-16.2371
	-16.2372
	-16.2373
	-16.2374
	-16.2375
	-16.2376
頑	-16.2377
这	-16.2378
联	-16.2379
昭	-16.238
張	-16.2381
合	-16.2382
以	-16.2383
ワ	-16.2384
ョ	-16.2385
ピ	-16.2386
ナ	-16.2387
み	-16.2388
じ	-16.2389
☎	-16.239
់	-16.2391
៊	-16.2392
ி	-16.2393
ச	-16.2394
ங	-16.2395
க	-16.2396
आ	-16.2397
ع	-16.2398
Ĵ	-16.2399
û	-16.24
🤦	-16.2401
🙀	-16.2402
🇨	-16.2403
	-16.2404
り	-16.2405
៉	-16.2406
ฝ	-16.2407
Ś	-16.2408
¿	-16.2409
😽	-16.241
🖋	-16.2411
👽	-16.2412
🍻	-16.2413
	-16.2414
陈	-16.2415
么	-16.2416
つ	-16.2417
🖐	-16.2418
🐟	-16.2419
🐂	-16.242
🎸	-16.2421
🌷	-16.2422
本	-16.2423
🤑	-16.2424
🙋	-16.2425
😦	-16.2426
👫	-16.2427
あ	-16.2428
✋	-16.2429
⚘	-16.243
♂	-16.2431
♀	-16.2432
͡	-16.2433
🤩	-16.2434
😶	-16.2435
👻	-16.2436
👸	-16.2437
👯	-16.2438
👅	-16.2439
🇹	-16.244
朋	-16.2441
ャ	-16.2442
ミ	-16.2443
だ	-16.2444
ざ	-16.2445
く	-16.2446
➳	-16.2447
ះ	-16.2448
ោ	-16.2449
ध	-16.245
अ	-16.2451
👦	-16.2452
🐜	-16.2453
🤕	-16.2454
👨	-16.2455
👃	-16.2456
🌝	-16.2457
🌠	-16.2458
缅	-16.2459
甸	-16.246
—	-16.2461
ई	-16.2462
`	-16.2463
😴	-16.2464
💩	-16.2465
부	-16.2466
도	-16.2467
기	-16.2468
支	-16.2469
弟	-16.247
帮	-16.2471
寄	-16.2472
兄	-16.2473
付	-16.2474
ໃ	-16.2475
ຼ	-16.2476
ິ	-16.2477
̧	-16.2478
🤤	-16.2479
🤠	-16.248
🙆	-16.2481
🎈	-16.2482
ヅ	-16.2483
ू	-16.2484
👿	-16.2485
🎊	-16.2486
は	-16.2487
[	-16.2488
✿	-16.2489
▄	-16.249
🎧	-16.2491
́	-16.2492
😯	-16.2493
😮	-16.2494
🍭	-16.2495
👇	-16.2495
😳	-16.2496
‘	-16.2496
💘	-16.2496
💛	-16.2496
😷	-16.2496
😑	-16.2496
“	-16.2496
😗	-16.2496
🙄	-16.2496
😆	-16.2496
💦	-16.2496
😙	-16.2496
ဪ	-16.2496
😭	-16.2496
🌼	-16.2496
나	-16.2497
ແ	-16.2498
🐷	-16.2499
👊	-16.25
🎼	-16.2501
🍀	-16.2502
ま	-16.2503
👉	-16.2504
🙁	-16.2505
助	-16.2506
ຍ	-16.2507
🌸	-16.2508
☹	-16.2509
😲	-16.251
🖤	-16.2511
🙃	-16.2512
😻	-16.2513
◠	-16.2514
ໍ	-16.2515
ພ	-16.2516
ຈ	-16.2517
🙊	-16.2518
🎵	-16.2519
💟	-16.252
🤓	-16.2521
§	-16.2522
ຂ	-16.2523
ै	-16.2524
❣	-16.2525
😨	-16.2526
💏	-16.2527
✔	-16.2528
ງ	-16.2529
🙂	-16.253
😫	-16.2531
😟	-16.2532
😤	-16.2533
💄	-16.2534
🙈	-16.2535
🎶	-16.2536
ํ	-16.2537
⚽	-16.2538
😰	-16.2539
😩	-16.254
🇲	-16.2541
💚	-16.2542
👎	-16.2543
🎂	-16.2544
😓	-16.2545
🤔	-16.2546
💝	-16.2547
😣	-16.2548
😖	-16.2549
😐	-16.255
💪	-16.2551
♡	-16.2552
💞	-16.2553
😇	-16.2554
🤗	-16.2555
💋	-16.2556
😥	-16.2557
💗	-16.2558
💙	-16.2559
😬	-16.256
🤣	-16.2561
💜	-16.2562
💓	-16.2563
💖	-16.2564
😚	-16.2565
ំ	-16.2566
	-16.2566
吗	-16.2566
告	-16.2566
守	-16.2566
张	-16.2566
扬	-16.2566
方	-16.2566
皮	-16.2566
着	-16.2566
虎	-16.2566
خ	-16.2566
ு	-16.2566
ʾ	-16.2566
£	-16.2566
à	-16.2566
ã	-16.2566
æ	-16.2566
õ	-16.2566
Đ	-16.2566
ī	-16.2566
Ķ	-16.2566
Ř	-16.2566
ş	-16.2566
Š	-16.2566
Ū	-16.2566
ū	-16.2566
Ÿ	-16.2566
ż	-16.2566
Ž	-16.2566
ɑ	-16.2566
ɛ	-16.2566
ʈ	-16.2566
ʿ	-16.2566
ˈ	-16.2566
Μ	-16.2566
ί	-16.2566
δ	-16.2566
η	-16.2566
λ	-16.2566
ς	-16.2566
ό	-16.2566
أ	-16.2566
ح	-16.2566
س	-16.2566
ش	-16.2566
ه	-16.2566
उ	-16.2566
ट	-16.2566
ण	-16.2566
ष	-16.2566
ॐ	-16.2566
உ	-16.2566
ம	-16.2566
ய	-16.2566
ள	-16.2566
வ	-16.2566
ூ	-16.2566
ே	-16.2566
ை	-16.2566
ฅ	-16.2566
ฒ	-16.2566
ฤ	-16.2566
๊	-16.2566
ၗ	-16.2566
ၥ	-16.2566
ၼ	-16.2566
ႊ	-16.2566
ᄏ	-16.2566
ᗬ	-16.2566
ធ	-16.2566
ល	-16.2566
អ	-16.2566
ឱ	-16.2566
េ	-16.2566
៍	-16.2566
។	-16.2566
៕	-16.2566
ṃ	-16.2566
ṇ	-16.2566
ệ	-16.2566
∪	-16.2566
⏩	-16.2566
⏰	-16.2566
▽	-16.2566
☘	-16.2566
☜	-16.2566
☠	-16.2566
⛄	-16.2566
✉	-16.2566
✖	-16.2566
❀	-16.2566
〃	-16.2566
え	-16.2566
ぞ	-16.2566
ど	-16.2566
へ	-16.2566
ゃ	-16.2566
ら	-16.2566
ァ	-16.2566
イ	-16.2566
ェ	-16.2566
ク	-16.2566
ダ	-16.2566
ッ	-16.2566
ノ	-16.2566
フ	-16.2566
マ	-16.2566
・	-16.2566
ヾ	-16.2566
下	-16.2566
世	-16.2566
仙	-16.2566
代	-16.2566
会	-16.2566
传	-16.2566
信	-16.2566
候	-16.2566
其	-16.2566
内	-16.2566
分	-16.2566
务	-16.2566
勇	-16.2566
化	-16.2566
压	-16.2566
又	-16.2566
吃	-16.2566
名	-16.2566
吓	-16.2566
吹	-16.2566
和	-16.2566
咯	-16.2566
哥	-16.2566
哦	-16.2566
喔	-16.2566
坡	-16.2566
壁	-16.2566
处	-16.2566
子	-16.2566
客	-16.2566
害	-16.2566
尤	-16.2566
屁	-16.2566
帅	-16.2566
希	-16.2566
干	-16.2566
廣	-16.2566
得	-16.2566
悲	-16.2566
想	-16.2566
感	-16.2566
慈	-16.2566
慧	-16.2566
才	-16.2566
披	-16.2566
放	-16.2566
政	-16.2566
新	-16.2566
时	-16.2566
時	-16.2566
晚	-16.2566
权	-16.2566
来	-16.2566
梦	-16.2566
梨	-16.2566
棒	-16.2566
様	-16.2566
歌	-16.2566
比	-16.2566
求	-16.2566
沙	-16.2566
油	-16.2566
泉	-16.2566
派	-16.2566
海	-16.2566
消	-16.2566
涉	-16.2566
無	-16.2566
牵	-16.2566
狠	-16.2566
王	-16.2566
玲	-16.2566
由	-16.2566
盛	-16.2566
目	-16.2566
祷	-16.2566
章	-16.2566
管	-16.2566
緒	-16.2566
老	-16.2566
而	-16.2566
耻	-16.2566
肖	-16.2566
自	-16.2566
臭	-16.2566
苦	-16.2566
菩	-16.2566
蔡	-16.2566
薩	-16.2566
觀	-16.2566
议	-16.2566
论	-16.2566
说	-16.2566
貌	-16.2566
赛	-16.2566
超	-16.2566
趙	-16.2566
过	-16.2566
连	-16.2566
郎	-16.2566
部	-16.2566
酷	-16.2566
關	-16.2566
陷	-16.2566
難	-16.2566
靈	-16.2566
音	-16.2566
项	-16.2566
风	-16.2566
龍	-16.2566
너	-16.2566
무	-16.2566
뻐	-16.2566
예	-16.2566
좋	-16.2566
	-16.2566
	-16.2566
	-16.2566
	-16.2566
	-16.2566
	-16.2566
	-16.2566
🇩	-16.2566
🇰	-16.2566
🇳	-16.2566
🇴	-16.2566
🇸	-16.2566
🇺	-16.2566
🇻	-16.2566
🌂	-16.2566
🌎	-16.2566
🌞	-16.2566
🌳	-16.2566
🌺	-16.2566
🌾	-16.2566
🌿	-16.2566
🍇	-16.2566
🍌	-16.2566
🍏	-16.2566
🍐	-16.2566
🍔	-16.2566
🍚	-16.2566
🍜	-16.2566
🍝	-16.2566
🍣	-16.2566
🍧	-16.2566
🍮	-16.2566
🍹	-16.2566
🎅	-16.2566
🎋	-16.2566
🎎	-16.2566
🎓	-16.2566
🏅	-16.2566
🏆	-16.2566
🐀	-16.2566
🐅	-16.2566
🐇	-16.2566
🐌	-16.2566
🐐	-16.2566
🐔	-16.2566
🐖	-16.2566
🐚	-16.2566
🐝	-16.2566
🐱	-16.2566
🐴	-16.2566
🐶	-16.2566
🐺	-16.2566
🐻	-16.2566
🐿	-16.2566
👁	-16.2566
👂	-16.2566
👰	-16.2566
👲	-16.2566
👶	-16.2566
👷	-16.2566
👺	-16.2566
💁	-16.2566
💅	-16.2566
💼	-16.2566
📝	-16.2566
📮	-16.2566
📲	-16.2566
🔔	-16.2566
🕊	-16.2566
🙅	-16.2566
🙉	-16.2566
🚃	-16.2566
🚐	-16.2566
🚘	-16.2566
🚳	-16.2566
🚷	-16.2566
🤜	-16.2566
🤟	-16.2566
၎	-16.2566
å	-16.2566
ü	-16.2566
ʔ	-16.2566
Ι	-16.2566
ν	-16.2566
ن	-16.2566
و	-16.2566
ビ	-16.2566
势	-16.2566
北	-16.2566
安	-16.2566
理	-16.2566
祝	-16.2566
西	-16.2566
覚	-16.2566
麼	-16.2566
ˌ	-16.2566
ซ	-16.2566
ṯ	-16.2566
三	-16.2566
令	-16.2566
军	-16.2566
参	-16.2566
司	-16.2566
応	-16.2566
总	-16.2566
	-16.2566
叶	-16.2567
早	-16.2567
ဉ	-16.2567
ៀ	-16.2567
ៅ	-16.2567
